{
  "version": "1.0",
  "truncation": null,
  "padding": null,
  "added_tokens": [
    {
      "id": 0,
      "content": "<|endoftext|>",
      "single_word": false,
      "lstrip": false,
      "rstrip": false,
      "normalized": false,
      "special": true
    }
  ],
  "normalizer": null,
  "pre_tokenizer": {
    "type": "ByteLevel",
    "add_prefix_space": true,
    "trim_offsets": true,
    "use_regex": true
  },
  "post_processor": null,
  "decoder": {
    "type": "ByteLevel",
    "add_prefix_space": true,
    "trim_offsets": true,
    "use_regex": true
  },
  "model": {
    "type": "BPE",
    "dropout": null,
    "unk_token": null,
    "continuing_subword_prefix": null,
    "end_of_word_suffix": null,
    "fuse_unk": false,
    "byte_fallback": false,
    "ignore_merges": false,
    "vocab": {
      "<|endoftext|>": 0,
      "!": 1,
      "\"": 2,
      "#": 3,
      "$": 4,
      "%": 5,
      "&": 6,
      "'": 7,
      "(": 8,
      ")": 9,
      "*": 10,
      "+": 11,
      ",": 12,
      "-": 13,
      ".": 14,
      "/": 15,
      "0": 16,
      "1": 17,
      "2": 18,
      "3": 19,
      "4": 20,
      "5": 21,
      "6": 22,
      "7": 23,
      "8": 24,
      "9": 25,
      ":": 26,
      ";": 27,
      "<": 28,
      "=": 29,
      ">": 30,
      "?": 31,
      "@": 32,
      "A": 33,
      "B": 34,
      "C": 35,
      "D": 36,
      "E": 37,
      "F": 38,
      "G": 39,
      "H": 40,
      "I": 41,
      "J": 42,
      "K": 43,
      "L": 44,
      "M": 45,
      "N": 46,
      "O": 47,
      "P": 48,
      "Q": 49,
      "R": 50,
      "S": 51,
      "T": 52,
      "U": 53,
      "V": 54,
      "W": 55,
      "X": 56,
      "Y": 57,
      "Z": 58,
      "[": 59,
      "\\": 60,
      "]": 61,
      "^": 62,
      "_": 63,
      "`": 64,
      "a": 65,
      "b": 66,
      "c": 67,
      "d": 68,
      "e": 69,
      "f": 70,
      "g": 71,
      "h": 72,
      "i": 73,
      "j": 74,
      "k": 75,
      "l": 76,
      "m": 77,
      "n": 78,
      "o": 79,
      "p": 80,
      "q": 81,
      "r": 82,
      "s": 83,
      "t": 84,
      "u": 85,
      "v": 86,
      "w": 87,
      "x": 88,
      "y": 89,
      "z": 90,
      "{": 91,
      "|": 92,
      "}": 93,
      "~": 94,
      "¡": 95,
      "¢": 96,
      "£": 97,
      "¤": 98,
      "¥": 99,
      "¦": 100,
      "§": 101,
      "¨": 102,
      "©": 103,
      "ª": 104,
      "«": 105,
      "¬": 106,
      "®": 107,
      "¯": 108,
      "°": 109,
      "±": 110,
      "²": 111,
      "³": 112,
      "´": 113,
      "µ": 114,
      "¶": 115,
      "·": 116,
      "¸": 117,
      "¹": 118,
      "º": 119,
      "»": 120,
      "¼": 121,
      "½": 122,
      "¾": 123,
      "¿": 124,
      "À": 125,
      "Á": 126,
      "Â": 127,
      "Ã": 128,
      "Ä": 129,
      "Å": 130,
      "Æ": 131,
      "Ç": 132,
      "È": 133,
      "É": 134,
      "Ê": 135,
      "Ë": 136,
      "Ì": 137,
      "Í": 138,
      "Î": 139,
      "Ï": 140,
      "Ð": 141,
      "Ñ": 142,
      "Ò": 143,
      "Ó": 144,
      "Ô": 145,
      "Õ": 146,
      "Ö": 147,
      "×": 148,
      "Ø": 149,
      "Ù": 150,
      "Ú": 151,
      "Û": 152,
      "Ü": 153,
      "Ý": 154,
      "Þ": 155,
      "ß": 156,
      "à": 157,
      "á": 158,
      "â": 159,
      "ã": 160,
      "ä": 161,
      "å": 162,
      "æ": 163,
      "ç": 164,
      "è": 165,
      "é": 166,
      "ê": 167,
      "ë": 168,
      "ì": 169,
      "í": 170,
      "î": 171,
      "ï": 172,
      "ð": 173,
      "ñ": 174,
      "ò": 175,
      "ó": 176,
      "ô": 177,
      "õ": 178,
      "ö": 179,
      "÷": 180,
      "ø": 181,
      "ù": 182,
      "ú": 183,
      "û": 184,
      "ü": 185,
      "ý": 186,
      "þ": 187,
      "ÿ": 188,
      "Ā": 189,
      "ā": 190,
      "Ă": 191,
      "ă": 192,
      "Ą": 193,
      "ą": 194,
      "Ć": 195,
      "ć": 196,
      "Ĉ": 197,
      "ĉ": 198,
      "Ċ": 199,
      "ċ": 200,
      "Č": 201,
      "č": 202,
      "Ď": 203,
      "ď": 204,
      "Đ": 205,
      "đ": 206,
      "Ē": 207,
      "ē": 208,
      "Ĕ": 209,
      "ĕ": 210,
      "Ė": 211,
      "ė": 212,
      "Ę": 213,
      "ę": 214,
      "Ě": 215,
      "ě": 216,
      "Ĝ": 217,
      "ĝ": 218,
      "Ğ": 219,
      "ğ": 220,
      "Ġ": 221,
      "ġ": 222,
      "Ģ": 223,
      "ģ": 224,
      "Ĥ": 225,
      "ĥ": 226,
      "Ħ": 227,
      "ħ": 228,
      "Ĩ": 229,
      "ĩ": 230,
      "Ī": 231,
      "ī": 232,
      "Ĭ": 233,
      "ĭ": 234,
      "Į": 235,
      "į": 236,
      "İ": 237,
      "ı": 238,
      "Ĳ": 239,
      "ĳ": 240,
      "Ĵ": 241,
      "ĵ": 242,
      "Ķ": 243,
      "ķ": 244,
      "ĸ": 245,
      "Ĺ": 246,
      "ĺ": 247,
      "Ļ": 248,
      "ļ": 249,
      "Ľ": 250,
      "ľ": 251,
      "Ŀ": 252,
      "ŀ": 253,
      "Ł": 254,
      "ł": 255,
      "Ń": 256,
      "Ġt": 257,
      "he": 258,
      "Ġa": 259,
      "Ġw": 260,
      "in": 261,
      "Ġthe": 262,
      "Ġs": 263,
      "ou": 264,
      "re": 265,
      "Ġo": 266,
      "ha": 267,
      "Ġi": 268,
      "er": 269,
      "nd": 270,
      "Ġb": 271,
      "Ġm": 272,
      "Ġy": 273,
      "Ġc": 274,
      "Ġd": 275,
      "on": 276,
      "Ġf": 277,
      "ing": 278,
      "Ġyou": 279,
      "Ġto": 280,
      "ll": 281,
      "an": 282,
      "or": 283,
      "ed": 284,
      "Ġp": 285,
      "en": 286,
      "Ġl": 287,
      "Ġg": 288,
      "hat": 289,
      "Ġand": 290,
      "is": 291,
      "es": 292,
      "Ġn": 293,
      "ar": 294,
      "it": 295,
      "Ġof": 296,
      "as": 297,
      "Ġhe": 298,
      "Ġin": 299,
      "at": 300,
      "Ġh": 301,
      "om": 302,
      "ĠI": 303,
      "ow": 304,
      "Ġit": 305,
      "'s": 306,
      "Ġha": 307,
      "ot": 308,
      "Ġth": 309,
      "le": 310,
      "Ġthat": 311,
      "ay": 312,
      "ve": 313,
      "et": 314,
      "Ġon": 315,
      "ic": 316,
      "us": 317,
      "Ġbe": 318,
      "id": 319,
      "Ġwe": 320,
      "Ġe": 321,
      "gh": 322,
      "Ġis": 323,
      "Ġwas": 324,
      "al": 325,
      "ld": 326,
      "ut": 327,
      "..": 328,
      "oo": 329,
      "'t": 330,
      "ke": 331,
      "ri": 332,
      "Ġre": 333,
      "ver": 334,
      "Ġfor": 335,
      "ac": 336,
      "Ġdo": 337,
      "ad": 338,
      "ent": 339,
      "ght": 340,
      "Ġu": 341,
      "Ġwhat": 342,
      "ĠT": 343,
      "Ġst": 344,
      "ir": 345,
      "se": 346,
      "Ġ\"": 347,
      "am": 348,
      "im": 349,
      "ĠS": 350,
      "ion": 351,
      "Ġk": 352,
      "ly": 353,
      "ĠM": 354,
      "Ġme": 355,
      "ĠA": 356,
      "Ġwh": 357,
      "st": 358,
      "ro": 359,
      "out": 360,
      "Ġan": 361,
      "ith": 362,
      "her": 363,
      "Ġwith": 364,
      "ĠC": 365,
      "Ġse": 366,
      "Ġli": 367,
      "Ġthis": 368,
      "ome": 369,
      "Ġgo": 370,
      "ea": 371,
      "Ġas": 372,
      "Ġnot": 373,
      "all": 374,
      "Ġat": 375,
      "ur": 376,
      "ch": 377,
      "ter": 378,
      "Ġno": 379,
      "ill": 380,
      "Ġhave": 381,
      "ould": 382,
      "Ġ-": 383,
      "ce": 384,
      "ĠB": 385,
      "Ġkn": 386,
      "Ġj": 387,
      "ĠH": 388,
      "Ġthey": 389,
      "xx": 390,
      "Ġso": 391,
      "Ġare": 392,
      "Ġshe": 393,
      "Ġwhe": 394,
      "...": 395,
      "ust": 396,
      "Ġone": 397,
      "ra": 398,
      "Ġher": 399,
      "ĠThe": 400,
      "Ġhis": 401,
      "il": 402,
      "Ġcan": 403,
      "Ġmy": 404,
      "un": 405,
      "Ġdon": 406,
      "ant": 407,
      "Ġknow": 408,
      "ct": 409,
      "Ġthere": 410,
      "Ġbut": 411,
      "Ġall": 412,
      "Ġsa": 413,
      "Ġne": 414,
      "ore": 415,
      "op": 416,
      "Ġ1": 417,
      "ĠP": 418,
      "Ġyour": 419,
      "Ġhad": 420,
      "Ġup": 421,
      "Ġde": 422,
      "Ġr": 423,
      "eah": 424,
      "Ġdid": 425,
      "ook": 426,
      "pp": 427,
      "ge": 428,
      "ie": 429,
      "ĠW": 430,
      "Ġfr": 431,
      "our": 432,
      "Ġal": 433,
      "Ġlike": 434,
      "and": 435,
      "th": 436,
      "um": 437,
      "ain": 438,
      "ol": 439,
      "ry": 440,
      "ul": 441,
      "Ġsh": 442,
      "Ġab": 443,
      "ood": 444,
      "Ġyeah": 445,
      "Ġhim": 446,
      "ĠD": 447,
      "ĠR": 448,
      "ell": 449,
      "ake": 450,
      "red": 451,
      "Ġout": 452,
      "Ġ2": 453,
      "right": 454,
      "art": 455,
      "Ġsee": 456,
      "Ġfrom": 457,
      "'re": 458,
      "Ġget": 459,
      "ight": 460,
      "'m": 461,
      "han": 462,
      "very": 463,
      "ĠF": 464,
      "Ġwho": 465,
      "Ġsu": 466,
      "el": 467,
      "est": 468,
      "ess": 469,
      "Ġwere": 470,
      "Ġpl": 471,
      "Ġby": 472,
      "ink": 473,
      "ation": 474,
      "ĠE": 475,
      "ack": 476,
      "ist": 477,
      "ĠN": 478,
      "ig": 479,
      "Ġoh": 480,
      "Ġor": 481,
      "ers": 482,
      "ame": 483,
      "ab": 484,
      "itt": 485,
      "Ġhere": 486,
      "os": 487,
      "Ġsaid": 488,
      "ong": 489,
      "ĠG": 490,
      "Ġjust": 491,
      "na": 492,
      "Ġwor": 493,
      "ind": 494,
      "Ġsome": 495,
      "ound": 496,
      "Ġif": 497,
      "qu": 498,
      "ĠL": 499,
      "Ġthem": 500,
      "ck": 501,
      "one": 502,
      "res": 503,
      "ĠJ": 504,
      "Ġabout": 505,
      "Ġcom": 506,
      "nt": 507,
      "Ġlook": 508,
      "ive": 509,
      "Ġsp": 510,
      "fe": 511,
      "ast": 512,
      "ber": 513,
      "Ġ(": 514,
      "xxx": 515,
      "Ġxxx": 516,
      "Ġnow": 517,
      "Ġright": 518,
      "Ġwould": 519,
      "use": 520,
      "Ġwant": 521,
      "ard": 522,
      "Ġwhen": 523,
      "em": 524,
      "Ġv": 525,
      "Ġthink": 526,
      "ep": 527,
      "Ġany": 528,
      "own": 529,
      "ally": 530,
      "Ġtw": 531,
      "ĠO": 532,
      "ate": 533,
      "Ġhow": 534,
      "'ll": 535,
      "Ġok": 536,
      "Ġex": 537,
      ".\"": 538,
      "Ġgot": 539,
      "Ġcon": 540,
      "ear": 541,
      "Ġokay": 542,
      "Ġ20": 543,
      "ak": 544,
      "hi": 545,
      "Ġwill": 546,
      "Ġman": 547,
      "Ġsay": 548,
      "ough": 549,
      "Ġtim": 550,
      "Ġwell": 551,
      "ĠHe": 552,
      "ittle": 553,
      "Ġ19": 554,
      "ice": 555,
      "Ġgood": 556,
      "ort": 557,
      "if": 558,
      "hing": 559,
      "ich": 560,
      "Ġwhere": 561,
      "ca": 562,
      "Ġthen": 563,
      "Ġus": 564,
      "ĠIt": 565,
      "Ġlittle": 566,
      "ven": 567,
      "ine": 568,
      "Ġ'": 569,
      "Ġmo": 570,
      "ous": 571,
      "other": 572,
      "Ġpro": 573,
      "Ġbo": 574,
      "Ġtoo": 575,
      "Ġpe": 576,
      "Ġcould": 577,
      "Ġlo": 578,
      "ther": 579,
      "Ġag": 580,
      "ag": 581,
      "ity": 582,
      "Ġmore": 583,
      "Ġtime": 584,
      "Ġcome": 585,
      "Ġint": 586,
      "ies": 587,
      "ick": 588,
      "ap": 589,
      "Ġtwo": 590,
      "Ġbeen": 591,
      "ide": 592,
      "way": 593,
      "Ġar": 594,
      "Ġlet": 595,
      "ite": 596,
      "Ġcl": 597,
      "Ġvery": 598,
      "Ġgoing": 599,
      ",\"": 600,
      "Ġthan": 601,
      "lf": 602,
      "end": 603,
      "Ġtheir": 604,
      "Ġro": 605,
      "ree": 606,
      "Ġwhich": 607,
      "Ġput": 608,
      "Ġdown": 609,
      "Ġhas": 610,
      "ace": 611,
      "Ġback": 612,
      "Ġco": 613,
      "Ġaf": 614,
      "ish": 615,
      "reat": 616,
      "ud": 617,
      "ian": 618,
      "Ġtr": 619,
      "Ġover": 620,
      "ĠY": 621,
      "cause": 622,
      "ĠK": 623,
      "ose": 624,
      "Ġother": 625,
      "ft": 626,
      "Ġthing": 627,
      "Ġqu": 628,
      "Ġle": 629,
      "ople": 630,
      "Ġwhy": 631,
      "Ġoff": 632,
      "--": 633,
      "orn": 634,
      "Ġbr": 635,
      "ĠU": 636,
      "'ve": 637,
      "ment": 638,
      "od": 639,
      "ia": 640,
      "Ġpeople": 641,
      "Ġfe": 642,
      "ty": 643,
      "are": 644,
      "omet": 645,
      "onna": 646,
      "Ġtell": 647,
      "ond": 648,
      "ure": 649,
      "alk": 650,
      "Ġmake": 651,
      "pe": 652,
      "Ġer": 653,
      "ought": 654,
      "ark": 655,
      "Ġam": 656,
      "irst": 657,
      "Ġgonna": 658,
      "hed": 659,
      "Ġcall": 660,
      "Ġyes": 661,
      "ade": 662,
      "ved": 663,
      "ary": 664,
      "Ġbl": 665,
      "Ġsomet": 666,
      "ue": 667,
      "Ġway": 668,
      "Ġpr": 669,
      "Ġtake": 670,
      "ater": 671,
      "Ġplay": 672,
      "Ġdoes": 673,
      "mp": 674,
      "Ġinto": 675,
      "Ġday": 676,
      "Ġwork": 677,
      "ass": 678,
      "urn": 679,
      "ble": 680,
      "Ġen": 681,
      "ĠSt": 682,
      "Ġfirst": 683,
      "Ġhu": 684,
      "ci": 685,
      "Ġevery": 686,
      "Ġmean": 687,
      "iss": 688,
      "age": 689,
      "Ġafter": 690,
      "ase": 691,
      "ount": 692,
      "Ġagain": 693,
      "my": 694,
      "ĠIn": 695,
      "ving": 696,
      "Ġgr": 697,
      "ord": 698,
      "Ġbet": 699,
      "Ġun": 700,
      "Ġbecause": 701,
      "Ġgu": 702,
      "Ġch": 703,
      "ire": 704,
      "ff": 705,
      "Ġwr": 706,
      "Ġthr": 707,
      "Ġpart": 708,
      "wn": 709,
      "Ġhapp": 710,
      "self": 711,
      "Ġdidn": 712,
      "so": 713,
      "Ġonly": 714,
      "Ġdis": 715,
      "ng": 716,
      "Ġour": 717,
      "Ġneed": 718,
      "Ġyear": 719,
      "ĠShe": 720,
      "mer": 721,
      "uch": 722,
      "Ġshould": 723,
      "ather": 724,
      "ach": 725,
      "pt": 726,
      "ool": 727,
      "ub": 728,
      "day": 729,
      "Ġsomething": 730,
      "fore": 731,
      "ys": 732,
      "ren": 733,
      "Ġthese": 734,
      "Ġuh": 735,
      "ran": 736,
      "Ġmade": 737,
      "Ġmay": 738,
      "Ġreally": 739,
      "ouse": 740,
      "Ġcha": 741,
      "Ġmuch": 742,
      "thing": 743,
      "nder": 744,
      "Ġpre": 745,
      "ĠAnd": 746,
      "ves": 747,
      "Ġte": 748,
      "Ġfl": 749,
      "Ġcomp": 750,
      "we": 751,
      "Ġpo": 752,
      "Ġcar": 753,
      "ady": 754,
      "per": 755,
      "Ġsha": 756,
      "Ġlong": 757,
      "act": 758,
      "ress": 759,
      "ew": 760,
      "Ġ201": 761,
      "ps": 762,
      "man": 763,
      "ĠV": 764,
      "ory": 765,
      "Ġwan": 766,
      "?\"": 767,
      "zz": 768,
      "Ġthree": 769,
      "ne": 770,
      "Ġke": 771,
      "Ġrem": 772,
      "ied": 773,
      "ull": 774,
      "irl": 775,
      "Ġnever": 776,
      "les": 777,
      "Ġwent": 778,
      "au": 779,
      "ions": 780,
      "Ġbig": 781,
      "'d": 782,
      "Ġsc": 783,
      "av": 784,
      "Ġgreat": 785,
      "¿½": 786,
      "ï¿½": 787,
      "Ġbefore": 788,
      "xt": 789,
      "Ġtalk": 790,
      "Ġeat": 791,
      "Ġad": 792,
      "Ġthrough": 793,
      "ated": 794,
      "be": 795,
      "Ġold": 796,
      "Ġeven": 797,
      "cc": 798,
      "Ġhel": 799,
      "Ġcame": 800,
      "Ġum": 801,
      "Ġple": 802,
      "able": 803,
      "ting": 804,
      "ang": 805,
      "og": 806,
      "Ġstill": 807,
      "Ġalso": 808,
      "Ġwanna": 809,
      "ict": 810,
      "Ġask": 811,
      "Ġhand": 812,
      "ile": 813,
      "Ġbu": 814,
      "Ġunder": 815,
      "ix": 816,
      "Ġnew": 817,
      "Ġwa": 818,
      "Ġgirl": 819,
      "oll": 820,
      "Ġsm": 821,
      "Ġthose": 822,
      "Ġgive": 823,
      "ĠMom": 824,
      "Ġthought": 825,
      "ful": 826,
      "Ġper": 827,
      "Ġact": 828,
      "ip": 829,
      "iz": 830,
      "up": 831,
      "oss": 832,
      "ĠUn": 833,
      "Ġapp": 834,
      "ĠMr": 835,
      "atch": 836,
      "ath": 837,
      "ence": 838,
      "ĠTh": 839,
      "Ġaway": 840,
      "ried": 841,
      "Ġhome": 842,
      "Ġlast": 843,
      "gg": 844,
      "ru": 845,
      "Ġthank": 846,
      "Ġhappen": 847,
      "Ġhelp": 848,
      "cl": 849,
      "ost": 850,
      "Ġlea": 851,
      "land": 852,
      "ons": 853,
      "ember": 854,
      "Ġmust": 855,
      "Ġturn": 856,
      "Ġjo": 857,
      "Ġdoing": 858,
      "pl": 859,
      "Ġname": 860,
      "00": 861,
      "Ġthings": 862,
      "ise": 863,
      "Ġra": 864,
      "Ġser": 865,
      "dy": 866,
      "ward": 867,
      "Ġmany": 868,
      "ited": 869,
      "ĠBut": 870,
      "Ġhouse": 871,
      "oth": 872,
      "riend": 873,
      "Ġtry": 874,
      "Ġchi": 875,
      "Ġmom": 876,
      "old": 877,
      "Ġfind": 878,
      "ock": 879,
      "chool": 880,
      "get": 881,
      "ors": 882,
      "ily": 883,
      "int": 884,
      "ign": 885,
      "ates": 886,
      "Ġanother": 887,
      "uck": 888,
      "Ġstart": 889,
      "ung": 890,
      "Ġcont": 891,
      "Ġfour": 892,
      "Ġwon": 893,
      "ans": 894,
      "ance": 895,
      "iv": 896,
      "Ġnight": 897,
      "Ġshow": 898,
      "hm": 899,
      "Ġlove": 900,
      "ody": 901,
      "Ġchild": 902,
      "ious": 903,
      "Ġbel": 904,
      "oney": 905,
      "Ġhi": 906,
      "Ġkind": 907,
      "ect": 908,
      "Ġsec": 909,
      "Ġhuh": 910,
      "Ġmother": 911,
      "Ġcalled": 912,
      "Ġchan": 913,
      "Ġel": 914,
      "Ġown": 915,
      "Ġhey": 916,
      "Ġsl": 917,
      "Ġche": 918,
      "pen": 919,
      "Ġsure": 920,
      "ert": 921,
      "Ġyears": 922,
      "rd": 923,
      "Ġres": 924,
      "ĠMar": 925,
      "air": 926,
      "Ġboy": 927,
      "ĠThey": 928,
      "body": 929,
      "Ġhead": 930,
      "Ġbetter": 931,
      "ĠCh": 932,
      "Ġfriend": 933,
      "Ġfound": 934,
      "aby": 935,
      "ms": 936,
      "hen": 937,
      "Ġear": 938,
      "Ġ3": 939,
      "Ġdone": 940,
      "Ġmin": 941,
      "Ġwait": 942,
      "Ġbook": 943,
      "Ġcomm": 944,
      "ail": 945,
      "Ġmight": 946,
      "te": 947,
      "ical": 948,
      "Ġplease": 949,
      "hes": 950,
      "ild": 951,
      "ings": 952,
      "Ġfeel": 953,
      "Ġmost": 954,
      "ny": 955,
      "med": 956,
      "Ġread": 957,
      "ways": 958,
      "Ġkeep": 959,
      "Ġsuch": 960,
      "ph": 961,
      "Ġcr": 962,
      "ican": 963,
      "Ġend": 964,
      "Ġpres": 965,
      "!\"": 966,
      "ince": 967,
      "Ġschool": 968,
      "Ġanything": 969,
      "Ġcare": 970,
      "Ġcount": 971,
      "ult": 972,
      "ks": 973,
      "aw": 974,
      "Ġgl": 975,
      "Ġits": 976,
      "Ġfather": 977,
      "Ġfin": 978,
      "Ġlife": 979,
      "amp": 980,
      "Ġey": 981,
      "Ġtra": 982,
      "Ġstop": 983,
      "ĠChi": 984,
      "ĠMommy": 985,
      "Ġtold": 986,
      "side": 987,
      "Ġsupp": 988,
      "Ġnice": 989,
      "Ġ202": 990,
      "Ġfive": 991,
      "Ġimp": 992,
      "Ġbeing": 993,
      "aking": 994,
      "vers": 995,
      "Ġdr": 996,
      "Ġdes": 997,
      "Ġcour": 998,
      "Ġatt": 999,
      "Ġdif": 1000,
      "Ġrec": 1001,
      "Ġplace": 1002,
      "Ġsor": 1003,
      "Ġmar": 1004,
      "Ġever": 1005,
      "Ġwater": 1006,
      "Ġlot": 1007,
      "Ġaround": 1008,
      "ah": 1009,
      "Ġsame": 1010,
      "Ġelse": 1011,
      "Ġnum": 1012,
      "ute": 1013,
      "Ġalways": 1014,
      "oh": 1015,
      "ually": 1016,
      "als": 1017,
      "Ġnext": 1018,
      "ere": 1019,
      "anc": 1020,
      "uc": 1021,
      "ever": 1022,
      "ĠSo": 1023,
      "Ġopen": 1024,
      "oy": 1025,
      "Ġmhm": 1026,
      "inn": 1027,
      "Ġbeg": 1028,
      "ave": 1029,
      "Ġpol": 1030,
      "Ġsw": 1031,
      "Ġsaw": 1032,
      "Ġbec": 1033,
      "Ġdoesn": 1034,
      "led": 1035,
      "ove": 1036,
      "oc": 1037,
      "mber": 1038,
      "ations": 1039,
      "ug": 1040,
      "Ġtook": 1041,
      "Ġnothing": 1042,
      "Ġbaby": 1043,
      "Ġwom": 1044,
      "Ġbre": 1045,
      "de": 1046,
      "rent": 1047,
      "ident": 1048,
      "li": 1049,
      "Ġsorry": 1050,
      "Ġpret": 1051,
      "ont": 1052,
      "Ġwhile": 1053,
      "here": 1054,
      "ens": 1055,
      "Ġused": 1056,
      "ird": 1057,
      "ction": 1058,
      "ï¿½ï¿½": 1059,
      "oot": 1060,
      "ars": 1061,
      "Ġremember": 1062,
      "Ġset": 1063,
      "Ġph": 1064,
      "Ġleft": 1065,
      "uh": 1066,
      "ition": 1067,
      "ream": 1068,
      "Ġword": 1069,
      "Ġbus": 1070,
      "ott": 1071,
      "ss": 1072,
      "Ġroom": 1073,
      "Ġrun": 1074,
      "Ġfam": 1075,
      "Ġele": 1076,
      "Ġmon": 1077,
      "Ġ.": 1078,
      "vel": 1079,
      "ĠYou": 1080,
      "Ġworld": 1081,
      "ĠAmer": 1082,
      "row": 1083,
      "vent": 1084,
      "Ġstay": 1085,
      "ational": 1086,
      "ister": 1087,
      "Ġunt": 1088,
      "Ġreal": 1089,
      "Ġfun": 1090,
      "Ġfar": 1091,
      "for": 1092,
      "Ġsix": 1093,
      "tern": 1094,
      "Ġwar": 1095,
      "ts": 1096,
      "Ġmoney": 1097,
      "ton": 1098,
      "ĠBr": 1099,
      "Ġlist": 1100,
      "Ġwatch": 1101,
      "Ġdad": 1102,
      "ee": 1103,
      "Ġuse": 1104,
      "Ġrep": 1105,
      "aught": 1106,
      "ĠUnited": 1107,
      "Ġnumber": 1108,
      "ndred": 1109,
      "Ġbelie": 1110,
      "Ġmaybe": 1111,
      "ished": 1112,
      "Ġhard": 1113,
      "Ġgre": 1114,
      "ins": 1115,
      "ĠMark": 1116,
      "Ġisn": 1117,
      "Ġhundred": 1118,
      "ec": 1119,
      "Ġacc": 1120,
      "ness": 1121,
      "enc": 1122,
      "Ġwee": 1123,
      "Ġ200": 1124,
      "pect": 1125,
      "Ġgi": 1126,
      "Ġenough": 1127,
      "Ġgra": 1128,
      "Ġsit": 1129,
      "Ġdiffe": 1130,
      "outh": 1131,
      "Ġmen": 1132,
      "me": 1133,
      "Ġcle": 1134,
      "Ġsing": 1135,
      "Ġyoung": 1136,
      "Ġcol": 1137,
      "ower": 1138,
      "erson": 1139,
      "Ġchar": 1140,
      "ĠThis": 1141,
      "Ġuntil": 1142,
      "Ġbad": 1143,
      "Ġhappened": 1144,
      "ger": 1145,
      "Ġknown": 1146,
      "Ġcourse": 1147,
      "Ġbest": 1148,
      "Ġdog": 1149,
      "Ġdat": 1150,
      "Ġalright": 1151,
      "Ġmat": 1152,
      "lic": 1153,
      "ump": 1154,
      "Ġpie": 1155,
      "Ġhm": 1156,
      "Ġmorn": 1157,
      "leep": 1158,
      "Ġret": 1159,
      "Ġsur": 1160,
      "ĠYeah": 1161,
      "der": 1162,
      "Ġac": 1163,
      "Ġdied": 1164,
      "Ġupon": 1165,
      "Ġhur": 1166,
      "ĠThere": 1167,
      "ta": 1168,
      "ling": 1169,
      "ased": 1170,
      "rist": 1171,
      "Ġhear": 1172,
      "Ġgod": 1173,
      "ween": 1174,
      "ĠAn": 1175,
      "Ġhold": 1176,
      "ope": 1177,
      "Ġeyes": 1178,
      "oup": 1179,
      "io": 1180,
      "Ġthough": 1181,
      "Ġwalk": 1182,
      "Ġonce": 1183,
      "\".": 1184,
      "fta": 1185,
      "Ġquite": 1186,
      "Ġmorning": 1187,
      "gether": 1188,
      "ob": 1189,
      "Ġhafta": 1190,
      "mb": 1191,
      "Ġtogether": 1192,
      "ial": 1193,
      "Ġkill": 1194,
      "Ġlight": 1195,
      "aut": 1196,
      "Ġasked": 1197,
      "Ġbit": 1198,
      "Ġleave": 1199,
      "Ġrel": 1200,
      "Ġeverything": 1201,
      "Ġsays": 1202,
      "az": 1203,
      "oun": 1204,
      "Ġcoming": 1205,
      "Ġbetween": 1206,
      "Ġtoday": 1207,
      "ĠAs": 1208,
      "Ġchildren": 1209,
      "Ġpass": 1210,
      "Ġmil": 1211,
      "the": 1212,
      "Ġhimself": 1213,
      "ĠEng": 1214,
      "Ġsecond": 1215,
      "oon": 1216,
      "Ġboth": 1217,
      "ĠDe": 1218,
      "ĠAr": 1219,
      "ounds": 1220,
      "akes": 1221,
      "Ġdoor": 1222,
      "Ġ4": 1223,
      "Ġpretty": 1224,
      "ĠKing": 1225,
      "Ġwithout": 1226,
      "Ġborn": 1227,
      "eak": 1228,
      "ank": 1229,
      "Ġmind": 1230,
      "ale": 1231,
      "Ġstand": 1232,
      "Ġseen": 1233,
      "Ġknew": 1234,
      "ĠAl": 1235,
      "ret": 1236,
      "Ġter": 1237,
      "ĠNew": 1238,
      "uring": 1239,
      "ĠCha": 1240,
      "Ġ18": 1241,
      "ĠAmerican": 1242,
      "ible": 1243,
      "ents": 1244,
      "Ġshall": 1245,
      "vie": 1246,
      "Ġdist": 1247,
      "Ġbed": 1248,
      "une": 1249,
      "Ġbro": 1250,
      "Ġwanted": 1251,
      "ib": 1252,
      "Ġagainst": 1253,
      "Ġob": 1254,
      "ged": 1255,
      "Ġface": 1256,
      "ures": 1257,
      "uff": 1258,
      "Ġreg": 1259,
      "Ġid": 1260,
      "ĠMrs": 1261,
      "ĠFran": 1262,
      "ired": 1263,
      "Ġeight": 1264,
      "Ġcons": 1265,
      "Ġstud": 1266,
      "Ġheart": 1267,
      "),": 1268,
      "Ġent": 1269,
      "ollow": 1270,
      "Ġhung": 1271,
      "Ġheard": 1272,
      "Ġfew": 1273,
      "ĠStates": 1274,
      "Ġyet": 1275,
      "Ġkid": 1276,
      "ctor": 1277,
      "Ġcity": 1278,
      "enty": 1279,
      "Ġdifferent": 1280,
      "Ġ199": 1281,
      "ĠWe": 1282,
      "Ġdec": 1283,
      "ĠNo": 1284,
      "Ġside": 1285,
      "ĠMiss": 1286,
      "Ġdri": 1287,
      "Ġstory": 1288,
      "Ġsince": 1289,
      "Ġmet": 1290,
      "ener": 1291,
      "less": 1292,
      "Ġsoon": 1293,
      "The": 1294,
      "Ġri": 1295,
      "Ġsmall": 1296,
      "Ġlater": 1297,
      "ork": 1298,
      "ross": 1299,
      "Ġred": 1300,
      "ters": 1301,
      "Ġfell": 1302,
      "Ġstr": 1303,
      "Ġmiss": 1304,
      "Ġlooked": 1305,
      "Ġgetting": 1306,
      "Ġlooking": 1307,
      "by": 1308,
      "orth": 1309,
      "Ġwhole": 1310,
      "Ġwasn": 1311,
      "ics": 1312,
      "ason": 1313,
      "cial": 1314,
      "Ġgave": 1315,
      "ane": 1316,
      "ets": 1317,
      "Ġinv": 1318,
      "Ġrest": 1319,
      "ĠAd": 1320,
      "Ġhat": 1321,
      "Ġsk": 1322,
      "Ġmus": 1323,
      "most": 1324,
      "Ġind": 1325,
      "Ġperson": 1326,
      "ier": 1327,
      "Ġate": 1328,
      "ning": 1329,
      "Ġtri": 1330,
      "Ġwond": 1331,
      "ĠAt": 1332,
      "fect": 1333,
      "Ġdra": 1334,
      "Ġsleep": 1335,
      "Ġpick": 1336,
      "Ġca": 1337,
      "Ġbeaut": 1338,
      "ular": 1339,
      "Ġwrite": 1340,
      "Ġcap": 1341,
      "Ġtown": 1342,
      "Ġ5": 1343,
      "Ġeach": 1344,
      "Ġexc": 1345,
      "Ġbelieve": 1346,
      "Ġnear": 1347,
      "ĠOn": 1348,
      "Ġfollow": 1349,
      "Ġmeet": 1350,
      "huh": 1351,
      "Ġfamily": 1352,
      "Ġmove": 1353,
      "Ġbring": 1354,
      "ames": 1355,
      "Ġdays": 1356,
      "Ġhalf": 1357,
      "Ġair": 1358,
      "Ġzz": 1359,
      "Ġzzz": 1360,
      "any": 1361,
      "osed": 1362,
      "hip": 1363,
      "Ġfire": 1364,
      "Ġhaving": 1365,
      "ĠOh": 1366,
      "iet": 1367,
      ").": 1368,
      "Ġim": 1369,
      "ces": 1370,
      "aster": 1371,
      "Ġerm": 1372,
      "ertain": 1373,
      "ĠBe": 1374,
      "Ġaw": 1375,
      "Ġgirls": 1376,
      "Ġfood": 1377,
      "Ġhigh": 1378,
      "Ġdear": 1379,
      "vern": 1380,
      "ined": 1381,
      "Ġunderst": 1382,
      "Ġmm": 1383,
      "Ġsn": 1384,
      "Ġsong": 1385,
      "ina": 1386,
      "Ġson": 1387,
      "Ġready": 1388,
      "Ġcat": 1389,
      "ĠEr": 1390,
      "ĠWell": 1391,
      "Ġinst": 1392,
      "Ġlive": 1393,
      "ries": 1394,
      "gr": 1395,
      "la": 1396,
      "Ġpop": 1397,
      "ĠThat": 1398,
      "ision": 1399,
      "Ġwind": 1400,
      "cle": 1401,
      "iness": 1402,
      "Ġround": 1403,
      "Ġans": 1404,
      "ably": 1405,
      "ĠInd": 1406,
      "den": 1407,
      "ready": 1408,
      "Ġlisten": 1409,
      "Ġgone": 1410,
      "uss": 1411,
      "Ġfall": 1412,
      "Ġdep": 1413,
      "Ġstarted": 1414,
      "Ġactually": 1415,
      "uth": 1416,
      "sel": 1417,
      "Ġpap": 1418,
      "Ġbrother": 1419,
      "ash": 1420,
      "ĠAf": 1421,
      "Ġfine": 1422,
      "Ġhands": 1423,
      "Ġalready": 1424,
      "ĠSp": 1425,
      "pped": 1426,
      "but": 1427,
      "Ġwonder": 1428,
      "ife": 1429,
      "Ġpri": 1430,
      "Ġpoint": 1431,
      "cept": 1432,
      "ĠIs": 1433,
      "Ġhungry": 1434,
      "ject": 1435,
      "Ġsent": 1436,
      "Ġgoes": 1437,
      "Ġma": 1438,
      "rew": 1439,
      "ese": 1440,
      "Ġdire": 1441,
      "ched": 1442,
      "ows": 1443,
      "Ġhot": 1444,
      "ohn": 1445,
      "Ġhour": 1446,
      "Ġsy": 1447,
      "Ġfif": 1448,
      "ball": 1449,
      "und": 1450,
      "Ġ198": 1451,
      "elt": 1452,
      "Ġdrink": 1453,
      "ote": 1454,
      "ual": 1455,
      "Ġwrong": 1456,
      "Ġalmost": 1457,
      "Ġhappy": 1458,
      "ither": 1459,
      "lish": 1460,
      "Ġmag": 1461,
      "Ġeas": 1462,
      "ised": 1463,
      "tle": 1464,
      "Ġmr": 1465,
      "Ġsaying": 1466,
      "Ġwoman": 1467,
      "iful": 1468,
      "ĠZ": 1469,
      "ped": 1470,
      "Ġfight": 1471,
      "Ġsub": 1472,
      "Ġquest": 1473,
      "Ġtalking": 1474,
      "Ġking": 1475,
      "Ġcountry": 1476,
      "oice": 1477,
      "Ġhor": 1478,
      "Ġbreak": 1479,
      "mor": 1480,
      "ĠEd": 1481,
      "Ġfriends": 1482,
      "ĠRe": 1483,
      "ating": 1484,
      "ok": 1485,
      "ield": 1486,
      "its": 1487,
      "Ġanim": 1488,
      "ster": 1489,
      "Ġunderstand": 1490,
      "Ġtre": 1491,
      "Ġcent": 1492,
      "ivers": 1493,
      "ison": 1494,
      "ully": 1495,
      "Ġwouldn": 1496,
      "ĠWhat": 1497,
      "aken": 1498,
      "clud": 1499,
      "ĠJohn": 1500,
      "Ġcut": 1501,
      "ĠFr": 1502,
      "Ġland": 1503,
      "oud": 1504,
      "Ġguys": 1505,
      "Ã©": 1506,
      "Ġsir": 1507,
      "Ġbuild": 1508,
      "ĠChrist": 1509,
      "Ġguess": 1510,
      "Ġlooks": 1511,
      "Ġlar": 1512,
      "Ġalong": 1513,
      "Ġfoot": 1514,
      "Ġmeans": 1515,
      "Ġhell": 1516,
      "Ġage": 1517,
      "Ġbecame": 1518,
      "hy": 1519,
      "Ġ6": 1520,
      "Ġz": 1521,
      "ities": 1522,
      "Ġdisc": 1523,
      "Ġsort": 1524,
      "ury": 1525,
      "ĠFor": 1526,
      "Ġten": 1527,
      "\",": 1528,
      "ned": 1529,
      "Ġmaking": 1530,
      "wards": 1531,
      "Ġwhite": 1532,
      "Ġtwenty": 1533,
      "Ġguy": 1534,
      "igh": 1535,
      "Ġmoment": 1536,
      "Ġtop": 1537,
      "ten": 1538,
      "ered": 1539,
      "Ġed": 1540,
      "Ġlead": 1541,
      "Ġbegan": 1542,
      "Ġ8": 1543,
      "Ġbeautiful": 1544,
      "Ġhum": 1545,
      "Ġdeath": 1546,
      "Ġfore": 1547,
      "ney": 1548,
      "Ġpict": 1549,
      "ĠGer": 1550,
      "Ġreturn": 1551,
      "Ġadd": 1552,
      "Ġtrying": 1553,
      "Ġass": 1554,
      "Ġprom": 1555,
      "olog": 1556,
      "ene": 1557,
      "Ġcoll": 1558,
      "erest": 1559,
      "Ġproble": 1560,
      "Ġ7": 1561,
      "ĠRoss": 1562,
      "Ġspeak": 1563,
      "Ġlost": 1564,
      "Ġpub": 1565,
      "Ġgame": 1566,
      "imes": 1567,
      "Ġplan": 1568,
      "19": 1569,
      "eter": 1570,
      "Ġ197": 1571,
      "ma": 1572,
      "Ġfro": 1573,
      "ony": 1574,
      "Ġidea": 1575,
      "ital": 1576,
      "ounc": 1577,
      "eth": 1578,
      "Ġsun": 1579,
      "Ġlau": 1580,
      "ative": 1581,
      "Ġdoll": 1582,
      "wer": 1583,
      "Ġparty": 1584,
      "Ġfact": 1585,
      "Ġlaw": 1586,
      "Ġsign": 1587,
      "Ġinc": 1588,
      "Ġhope": 1589,
      "ober": 1590,
      "Ġposs": 1591,
      "ĠThen": 1592,
      "Ġcertain": 1593,
      "ĠPh": 1594,
      "eb": 1595,
      "ÃŃ": 1596,
      "Ġteam": 1597,
      "Ġpoor": 1598,
      "Ġclose": 1599,
      "cted": 1600,
      "ted": 1601,
      "ĠCount": 1602,
      "Ġconf": 1603,
      "Ġstre": 1604,
      "Ġsomeone": 1605,
      "cess": 1606,
      "oor": 1607,
      "ey": 1608,
      "tain": 1609,
      "Ġpay": 1610,
      "Ġbrought": 1611,
      "Ġinterest": 1612,
      "Ġpresent": 1613,
      "ĠSc": 1614,
      "ole": 1615,
      "Ġstick": 1616,
      "Ġbra": 1617,
      "Ġ9": 1618,
      "Ġah": 1619,
      "ush": 1620,
      "Ġprob": 1621,
      "Ġlear": 1622,
      "Ġpolit": 1623,
      "Ġuhhuh": 1624,
      "ants": 1625,
      "ept": 1626,
      "Ġrock": 1627,
      "Ġplayed": 1628,
      "Ġstra": 1629,
      "Ġjob": 1630,
      "Ġpiece": 1631,
      "Ġstuff": 1632,
      "Ġdro": 1633,
      "ĠWhen": 1634,
      "Ġduring": 1635,
      "ext": 1636,
      "ime": 1637,
      "Ġmonth": 1638,
      "Ġpain": 1639,
      "Ġbar": 1640,
      "ief": 1641,
      "Ġtrain": 1642,
      "ĠJan": 1643,
      "Ġweek": 1644,
      "ple": 1645,
      "Ġref": 1646,
      "Ġmatter": 1647,
      "Ġmed": 1648,
      "ex": 1649,
      "Ġball": 1650,
      "Ġsister": 1651,
      "ared": 1652,
      "Ġtimes": 1653,
      "ax": 1654,
      "Ġfull": 1655,
      "Ġdead": 1656,
      "een": 1657,
      "Ġste": 1658,
      "Ġboys": 1659,
      "Ġsat": 1660,
      "ama": 1661,
      "Ġmusic": 1662,
      "ral": 1663,
      "Ġsim": 1664,
      "Ġblack": 1665,
      "where": 1666,
      "Ġcomes": 1667,
      "Ġable": 1668,
      "ĠAll": 1669,
      "Ġext": 1670,
      "Ġgener": 1671,
      "Ġinclud": 1672,
      "Ġgotta": 1673,
      "ists": 1674,
      "unch": 1675,
      "pr": 1676,
      "Ġtaken": 1677,
      "Ġturned": 1678,
      "Ġmovie": 1679,
      "Ġspe": 1680,
      "Ġswe": 1681,
      "ĠDad": 1682,
      "gan": 1683,
      "aul": 1684,
      "Ġart": 1685,
      "ĠFl": 1686,
      "Ġblue": 1687,
      "Ġcur": 1688,
      "ages": 1689,
      "son": 1690,
      "key": 1691,
      "Ġgreen": 1692,
      "ense": 1693,
      "Ġminute": 1694,
      "ĠHis": 1695,
      "ĠCom": 1696,
      "Ġmine": 1697,
      "amed": 1698,
      "Ġfelt": 1699,
      "Ġegg": 1700,
      "irth": 1701,
      "Ġmyself": 1702,
      "Ġprod": 1703,
      "ying": 1704,
      "Ġcouldn": 1705,
      "ik": 1706,
      "Ġlady": 1707,
      "Ġ10": 1708,
      "Ġrele": 1709,
      "ner": 1710,
      "olly": 1711,
      "Ġoffic": 1712,
      "Ġtele": 1713,
      "morrow": 1714,
      "ouble": 1715,
      "Ġev": 1716,
      "Ġseven": 1717,
      "Ġdress": 1718,
      "Ġbeh": 1719,
      "uary": 1720,
      "Ġ196": 1721,
      "endo": 1722,
      "bb": 1723,
      "ĠAdam": 1724,
      "Ġsound": 1725,
      "orm": 1726,
      "gin": 1727,
      "Ġ,": 1728,
      "ĠEnglish": 1729,
      "Ġprobably": 1730,
      "Ġlate": 1731,
      "Oh": 1732,
      "ided": 1733,
      "Ġseemed": 1734,
      "Ġpar": 1735,
      "Ġbear": 1736,
      "ĠPr": 1737,
      "pri": 1738,
      "fully": 1739,
      "Ġpower": 1740,
      "Ġtable": 1741,
      "br": 1742,
      "ffe": 1743,
      "Ġloc": 1744,
      "utes": 1745,
      "ica": 1746,
      "ĠCl": 1747,
      "Ġcase": 1748,
      "Ġyep": 1749,
      "You": 1750,
      "born": 1751,
      "Ġinter": 1752,
      "airs": 1753,
      "Ġpounds": 1754,
      "unt": 1755,
      "Ġstate": 1756,
      "iter": 1757,
      "Ġago": 1758,
      "Ġbird": 1759,
      "oes": 1760,
      "Ġgovern": 1761,
      "oub": 1762,
      "Ġsal": 1763,
      "icha": 1764,
      "Ġbusiness": 1765,
      "Ġgrand": 1766,
      "ĠHer": 1767,
      "selves": 1768,
      ".'": 1769,
      "Ġpaper": 1770,
      "Ġwords": 1771,
      "eptember": 1772,
      "Ġleg": 1773,
      "Ġquick": 1774,
      "urs": 1775,
      "Ġhaven": 1776,
      "Ġes": 1777,
      "oke": 1778,
      "ues": 1779,
      "ley": 1780,
      "Ġstrong": 1781,
      "bum": 1782,
      "Ġplaying": 1783,
      "Ġhon": 1784,
      "ald": 1785,
      "min": 1786,
      "used": 1787,
      "ific": 1788,
      "ĠCounty": 1789,
      "Ġless": 1790,
      "Ġlived": 1791,
      "ution": 1792,
      "ousand": 1793,
      "Ġhello": 1794,
      "Ġrather": 1795,
      "Ġserv": 1796,
      "ze": 1797,
      "Ġimport": 1798,
      "Ġwomen": 1799,
      "rest": 1800,
      "rench": 1801,
      "to": 1802,
      "iting": 1803,
      "aces": 1804,
      "Ġdeal": 1805,
      "ĠIf": 1806,
      "ouch": 1807,
      "Ġbirth": 1808,
      "Ġhair": 1809,
      "haps": 1810,
      "Ġbehind": 1811,
      "Ġ#": 1812,
      "Ġtrue": 1813,
      "ming": 1814,
      "Ġforg": 1815,
      "ians": 1816,
      "ĠQ": 1817,
      "uro": 1818,
      "Ġwants": 1819,
      "Ġvis": 1820,
      "ator": 1821,
      "Ġshort": 1822,
      "Ġmilk": 1823,
      "Ġpat": 1824,
      "Ġins": 1825,
      "Ġran": 1826,
      "Ġthousand": 1827,
      "Ġalone": 1828,
      "ĠSeptember": 1829,
      "head": 1830,
      "Ġvoice": 1831,
      "ized": 1832,
      "ĠSar": 1833,
      "iversity": 1834,
      "ize": 1835,
      "irty": 1836,
      "Ġ2022": 1837,
      "ham": 1838,
      "Ġcreat": 1839,
      "Ġla": 1840,
      "ĠHow": 1841,
      "<|": 1842,
      "|>": 1843,
      "Ġ<|": 1844,
      "ftext": 1845,
      "endoftext": 1846,
      "ron": 1847,
      "Ġherself": 1848,
      "Ġ194": 1849,
      "Ġmark": 1850,
      "ured": 1851,
      "inner": 1852,
      "ery": 1853,
      "room": 1854,
      "Ġcolor": 1855,
      "ments": 1856,
      "Ġminutes": 1857,
      "Ġyup": 1858,
      "ford": 1859,
      "sh": 1860,
      "uly": 1861,
      "erc": 1862,
      "Ġfrog": 1863,
      "Ġsil": 1864,
      ",'": 1865,
      "Ġroad": 1866,
      "Ġchange": 1867,
      "ĠJanuary": 1868,
      "It": 1869,
      "Ġ195": 1870,
      "Ġprof": 1871,
      "Ġrecord": 1872,
      "Ġletter": 1873,
      "ring": 1874,
      "Ġlay": 1875,
      "Ġinside": 1876,
      "Ġfront": 1877,
      "Ġcook": 1878,
      "ism": 1879,
      "ines": 1880,
      "ĠCan": 1881,
      "ety": 1882,
      "idd": 1883,
      "ugust": 1884,
      "Ġtrans": 1885,
      "Ġlik": 1886,
      "Ġalbum": 1887,
      "Ġbox": 1888,
      "bo": 1889,
      "Ġyourself": 1890,
      "aughter": 1891,
      "ĠNow": 1892,
      "ĠFrance": 1893,
      "Ġdark": 1894,
      "ats": 1895,
      "Ġwin": 1896,
      "gy": 1897,
      "men": 1898,
      "ention": 1899,
      "Ġsometimes": 1900,
      "ider": 1901,
      "Ġmain": 1902,
      "lo": 1903,
      "Ġtaking": 1904,
      "Ġdream": 1905,
      "Ġmill": 1906,
      "ĠMay": 1907,
      "Ġfifty": 1908,
      "ots": 1909,
      "Ġoutside": 1910,
      "Ġwish": 1911,
      "eor": 1912,
      "Ġquestion": 1913,
      "ides": 1914,
      "Ġsqu": 1915,
      "Ġexpl": 1916,
      "Ġtap": 1917,
      "ĠYes": 1918,
      "ĠAust": 1919,
      "Ġfunny": 1920,
      "Ġcup": 1921,
      "els": 1922,
      "ĠBrit": 1923,
      "Ġbody": 1924,
      "you": 1925,
      "ones": 1926,
      "ĠWor": 1927,
      "Ġprot": 1928,
      "Ġgiven": 1929,
      "Ġoften": 1930,
      "ĠGerman": 1931,
      "atur": 1932,
      "ĠCar": 1933,
      "app": 1934,
      "Ġhurt": 1935,
      "Ġhist": 1936,
      "Ġdaddy": 1937,
      "no": 1938,
      "ĠWill": 1939,
      "pril": 1940,
      "ipp": 1941,
      "ĠPro": 1942,
      "Ġcontin": 1943,
      "Ġwife": 1944,
      "Ġpull": 1945,
      "Ġmakes": 1946,
      "Ġbutter": 1947,
      "ĠMarch": 1948,
      "Ġones": 1949,
      "Ġarea": 1950,
      "ER": 1951,
      "Ġcold": 1952,
      "Ġchair": 1953,
      "Ġthanks": 1954,
      "Ġbuy": 1955,
      "Ġnews": 1956,
      "ĠMa": 1957,
      "pill": 1958,
      "Ġwood": 1959,
      "Ġsum": 1960,
      "Ġworking": 1961,
      "ĠLe": 1962,
      "form": 1963,
      "Ġbat": 1964,
      "not": 1965,
      "erv": 1966,
      "ctober": 1967,
      "Ġleast": 1968,
      "Ġfair": 1969,
      "Ġsend": 1970,
      "Ġform": 1971,
      "ike": 1972,
      "Ġtill": 1973,
      "angu": 1974,
      "aterpill": 1975,
      "ĠAugust": 1976,
      "ilt": 1977,
      "ears": 1978,
      "Ġfav": 1979,
      "arent": 1980,
      "Ġgent": 1981,
      "Ġfeet": 1982,
      "Ġtomorrow": 1983,
      "enn": 1984,
      "Ġdel": 1985,
      "Ġcry": 1986,
      "Ġclass": 1987,
      "Ġwear": 1988,
      "Ġtried": 1989,
      "artment": 1990,
      "iously": 1991,
      "Ġnamed": 1992,
      "Ġeither": 1993,
      "Ġclear": 1994,
      "Ġphone": 1995,
      "ask": 1996,
      "ĠBl": 1997,
      "ches": 1998,
      "Ġemp": 1999,
      "Ġsomebody": 2000,
      "che": 2001,
      "itting": 2002,
      "Ġjump": 2003,
      "Ġtree": 2004,
      "iam": 2005,
      "icip": 2006,
      "fort": 2007,
      "Ġfree": 2008,
      "range": 2009,
      "Ġreason": 2010,
      "Ġexpect": 2011,
      "Ġattack": 2012,
      "Ġmess": 2013,
      "Ġimportant": 2014,
      "ional": 2015,
      "Ġadv": 2016,
      "Ġhar": 2017,
      "rict": 2018,
      "ĠPhil": 2019,
      "ards": 2020,
      "Ġsea": 2021,
      "com": 2022,
      "Ġkids": 2023,
      "aim": 2024,
      "Ġton": 2025,
      "Ġmoon": 2026,
      "Ġnine": 2027,
      "ament": 2028,
      "Ġanswer": 2029,
      "alth": 2030,
      "Ġlives": 2031,
      "Ġothers": 2032,
      "cer": 2033,
      "Ġlad": 2034,
      "Ġglad": 2035,
      "Ġexp": 2036,
      "Ġpast": 2037,
      "Ġ17": 2038,
      "read": 2039,
      "rence": 2040,
      "ĠPar": 2041,
      "Ġteac": 2042,
      "Ġcamp": 2043,
      "Ġmember": 2044,
      "Ġcompany": 2045,
      "Ġhoney": 2046,
      "Ġsold": 2047,
      "ï¿½ï¿½ï¿½ï¿½": 2048,
      "ĠOctober": 2049,
      "Ġkilled": 2050,
      "aterpillar": 2051,
      "ature": 2052,
      "ara": 2053,
      "umb": 2054,
      "Ġrece": 2055,
      "Ġeng": 2056,
      "Ġbott": 2057,
      "Ġmur": 2058,
      "ĠApril": 2059,
      "ices": 2060,
      "avid": 2061,
      "ls": 2062,
      "Ġhit": 2063,
      "Ġhorse": 2064,
      "Ġlangu": 2065,
      "arch": 2066,
      "Ġgrow": 2067,
      "ler": 2068,
      "ĠAfter": 2069,
      "oe": 2070,
      "Ġocc": 2071,
      "Ġbecome": 2072,
      "Ġreport": 2073,
      "Ġcheck": 2074,
      "Ġfig": 2075,
      "ĠWorld": 2076,
      "ately": 2077,
      "Ġsweet": 2078,
      "gue": 2079,
      "mas": 2080,
      "Ġcir": 2081,
      "Ġforget": 2082,
      "Ġ12": 2083,
      "Ġlarge": 2084,
      "Ġap": 2085,
      "osp": 2086,
      "ead": 2087,
      "Ġcomple": 2088,
      "raid": 2089,
      "ĠYork": 2090,
      "Ġtea": 2091,
      "Ġyell": 2092,
      "ĠSw": 2093,
      "ĠPaul": 2094,
      "Ġamong": 2095,
      "000": 2096,
      "Ġeverybody": 2097,
      "ĠFrench": 2098,
      "Ġworked": 2099,
      "ĠDaddy": 2100,
      "Ġorder": 2101,
      "Ġice": 2102,
      "Ġ15": 2103,
      "Ġthinking": 2104,
      "Ġpresident": 2105,
      "vision": 2106,
      "Ġow": 2107,
      "Ġheld": 2108,
      "Ġearly": 2109,
      "ai": 2110,
      "Ġwall": 2111,
      "Ġcried": 2112,
      "itten": 2113,
      "Ġ2017": 2114,
      "Ġproblem": 2115,
      "ality": 2116,
      "ained": 2117,
      "more": 2118,
      "Ġgold": 2119,
      "Ġfast": 2120,
      "Ġline": 2121,
      "Ġrepl": 2122,
      "Ġaren": 2123,
      "eng": 2124,
      "ĠSarah": 2125,
      "Ġreleased": 2126,
      "dden": 2127,
      "Ġgroup": 2128,
      "Ġann": 2129,
      "ĠBro": 2130,
      "Ġill": 2131,
      "Ġclean": 2132,
      "ened": 2133,
      "Ġfly": 2134,
      "ĠEuro": 2135,
      "anger": 2136,
      "ient": 2137,
      "Ġnin": 2138,
      "'.": 2139,
      "Ġmarried": 2140,
      "ĠOne": 2141,
      "ĠWh": 2142,
      "Ġwhatever": 2143,
      "Ġ193": 2144,
      "Ġbirthday": 2145,
      "Ġliving": 2146,
      "Ġafraid": 2147,
      "Ġperhaps": 2148,
      "ived": 2149,
      "Ġpur": 2150,
      "Ġstar": 2151,
      "itty": 2152,
      "co": 2153,
      "Ġsudden": 2154,
      "Ġcompet": 2155,
      "stem": 2156,
      "fl": 2157,
      "Ġband": 2158,
      "ken": 2159,
      "Ġlaugh": 2160,
      "owed": 2161,
      "Ġdoctor": 2162,
      "Ġchance": 2163,
      "Ġya": 2164,
      "Ġfix": 2165,
      "Ġopp": 2166,
      "Ġ16": 2167,
      "Ġfinished": 2168,
      "ician": 2169,
      "Yes": 2170,
      "Ġnational": 2171,
      "Ġeasy": 2172,
      "Ġdem": 2173,
      "Ġsingle": 2174,
      "Ġdaughter": 2175,
      "Ġcond": 2176,
      "urch": 2177,
      "ĠUniversity": 2178,
      "ility": 2179,
      "ude": 2180,
      "Ġmommy": 2181,
      "Ġexact": 2182,
      "Ġ...": 2183,
      "Ġgun": 2184,
      "ĠWar": 2185,
      "ering": 2186,
      "20": 2187,
      "Ġsca": 2188,
      "ges": 2189,
      "Ġpublic": 2190,
      "cient": 2191,
      "Ġgovernment": 2192,
      "Ġcorn": 2193,
      "ĠJe": 2194,
      "Ġprov": 2195,
      "Ġcor": 2196,
      "Ġfish": 2197,
      "Ġtrouble": 2198,
      "Ġkept": 2199,
      "Ġvill": 2200,
      "ĠRep": 2201,
      "iddle": 2202,
      "Ġwithin": 2203,
      "ached": 2204,
      "aced": 2205,
      "Ġda": 2206,
      "Ġeveryone": 2207,
      "Ġbooks": 2208,
      "inning": 2209,
      "Ġcaterpillar": 2210,
      "Ġquiet": 2211,
      "Ġpa": 2212,
      "band": 2213,
      "jor": 2214,
      "Ġthemselves": 2215,
      "ogra": 2216,
      "Ġpicture": 2217,
      "ĠItal": 2218,
      "raz": 2219,
      "eared": 2220,
      "Ġfloor": 2221,
      "And": 2222,
      "port": 2223,
      "rie": 2224,
      "Ġacross": 2225,
      "ued": 2226,
      "Ġeating": 2227,
      "ana": 2228,
      "Ġevent": 2229,
      "Ġtonight": 2230,
      "ĠCon": 2231,
      "oint": 2232,
      "Ġdinner": 2233,
      "Ġsurpr": 2234,
      "Ġmonths": 2235,
      "Ġdef": 2236,
      "ox": 2237,
      "ĠDavid": 2238,
      "Ġtem": 2239,
      "Ġfa": 2240,
      "Ġpos": 2241,
      "ement": 2242,
      "ĠHar": 2243,
      "Ġblood": 2244,
      "Ġground": 2245,
      "Ġspecial": 2246,
      "HE": 2247,
      "nes": 2248,
      "let": 2249,
      "Ġgoin": 2250,
      "Ġgentle": 2251,
      "Ġstore": 2252,
      "velop": 2253,
      "bs": 2254,
      "Ġfil": 2255,
      "ov": 2256,
      "Ġty": 2257,
      "Ġtouch": 2258,
      "Ġprofess": 2259,
      "Ġdraw": 2260,
      "ĠRuss": 2261,
      "iver": 2262,
      "owers": 2263,
      "ffee": 2264,
      "Ġgets": 2265,
      "Ġhop": 2266,
      "Ġstood": 2267,
      "Ġ11": 2268,
      "Ġorgan": 2269,
      "Ġbye": 2270,
      "Ġanimals": 2271,
      ",--": 2272,
      "Ġperfect": 2273,
      "Ġwhether": 2274,
      "iday": 2275,
      "Ġabs": 2276,
      "Ġcross": 2277,
      "Ġyours": 2278,
      "Ġoffice": 2279,
      "cent": 2280,
      "Ġve": 2281,
      "ically": 2282,
      "ruary": 2283,
      "Ġ?": 2284,
      "illy": 2285,
      "ĠJuly": 2286,
      "Ġtreat": 2287,
      "ĠEngland": 2288,
      "Ġhuman": 2289,
      "ĠBritish": 2290,
      "oman": 2291,
      "Ġanyone": 2292,
      "Ġmot": 2293,
      "ĠGu": 2294,
      "cember": 2295,
      "ĠMarky": 2296,
      "Ġknows": 2297,
      "phan": 2298,
      "Ġpleas": 2299,
      "Ġhowever": 2300,
      "idge": 2301,
      "rey": 2302,
      "What": 2303,
      "ovember": 2304,
      "fic": 2305,
      "Ġcoffee": 2306,
      "Ġeye": 2307,
      "Ġsever": 2308,
      "Ġ2021": 2309,
      "Ġmist": 2310,
      "Ġfing": 2311,
      "Ġcoup": 2312,
      "Ġpu": 2313,
      "ĠEurope": 2314,
      "Ġsystem": 2315,
      "Ġwhose": 2316,
      "ĠGeor": 2317,
      "gram": 2318,
      "ebruary": 2319,
      "Ġstreet": 2320,
      "Ġstep": 2321,
      "Ġru": 2322,
      "cri": 2323,
      "rian": 2324,
      "ĠPres": 2325,
      "Ġpark": 2326,
      "Ġbur": 2327,
      "Ġest": 2328,
      "iny": 2329,
      "Ġcool": 2330,
      "Ġseries": 2331,
      "Ġexcuse": 2332,
      "Ġhours": 2333,
      "ains": 2334,
      "Ġpot": 2335,
      "But": 2336,
      "Ġexper": 2337,
      "ĠBar": 2338,
      "Ġlonger": 2339,
      "cha": 2340,
      "Ġinde": 2341,
      "Ġclot": 2342,
      "Ġwindow": 2343,
      "Ġ2019": 2344,
      "erry": 2345,
      "Ġhang": 2346,
      "Ġwrote": 2347,
      "Ġfootball": 2348,
      "Ġstru": 2349,
      "ĠCr": 2350,
      "Ġanyway": 2351,
      "ye": 2352,
      "Ġsand": 2353,
      "Ġcake": 2354,
      "ives": 2355,
      "ric": 2356,
      "mpions": 2357,
      "Ġthrow": 2358,
      "Ġmagn": 2359,
      "ium": 2360,
      "come": 2361,
      "Ġthirty": 2362,
      "Ġrunning": 2363,
      "ĠPl": 2364,
      "Ġcal": 2365,
      "Ġdoub": 2366,
      "Ġdet": 2367,
      "Ġsave": 2368,
      "Ġexactly": 2369,
      "Ġseveral": 2370,
      "rat": 2371,
      "Ġfle": 2372,
      "irt": 2373,
      "Ġseems": 2374,
      "Ġride": 2375,
      "Ġsafe": 2376,
      "essie": 2377,
      "gar": 2378,
      "ĠRight": 2379,
      "Ġconst": 2380,
      "dom": 2381,
      "avy": 2382,
      "unity": 2383,
      "ager": 2384,
      "Ġbath": 2385,
      "Ġmount": 2386,
      "unk": 2387,
      "Ġearth": 2388,
      "iding": 2389,
      "Ġresp": 2390,
      "ĠChar": 2391,
      "bed": 2392,
      "Ġahead": 2393,
      "Ġanymore": 2394,
      "Ġprison": 2395,
      "Ġevening": 2396,
      "yl": 2397,
      "ract": 2398,
      "oof": 2399,
      "Ġring": 2400,
      "mbers": 2401,
      "Ġmillion": 2402,
      "con": 2403,
      "ushed": 2404,
      "Ġpartic": 2405,
      "ccess": 2406,
      "usband": 2407,
      "uthor": 2408,
      "Ġ14": 2409,
      "ĠNovember": 2410,
      "Ġcop": 2411,
      "ĠGod": 2412,
      "Ġbag": 2413,
      "Ġcarry": 2414,
      "Ġthird": 2415,
      "Ġ2016": 2416,
      "Ġluck": 2417,
      "Ġ13": 2418,
      "Ġabove": 2419,
      "Ġsupport": 2420,
      "ouncil": 2421,
      "Ġwow": 2422,
      "Ġsouth": 2423,
      "ĠFebruary": 2424,
      "Ġbuilt": 2425,
      "Ġsecret": 2426,
      "Ġmad": 2427,
      "ced": 2428,
      "ĠGr": 2429,
      "ĠDo": 2430,
      "Ġtelling": 2431,
      "ĠPart": 2432,
      "Ġboat": 2433,
      "ories": 2434,
      "Ġwhom": 2435,
      "Ġslow": 2436,
      "ĠPe": 2437,
      "Ġpassed": 2438,
      "rs": 2439,
      "ĠMm": 2440,
      "ĠBen": 2441,
      "Ġhistory": 2442,
      "Ġmis": 2443,
      "ĠGo": 2444,
      "joy": 2445,
      "Ġbes": 2446,
      "Ġcand": 2447,
      "Ġdiv": 2448,
      "aint": 2449,
      "Ġvisit": 2450,
      "Ġteacher": 2451,
      "Ġappro": 2452,
      "Ġpolice": 2453,
      "Ġvict": 2454,
      "Ġmeant": 2455,
      "Ġ\"'": 2456,
      "Ġval": 2457,
      "Ġcast": 2458,
      "Ġcontro": 2459,
      "ĠMary": 2460,
      "que": 2461,
      "ĠJune": 2462,
      "Ġgeneral": 2463,
      "ĠDor": 2464,
      "Ġcost": 2465,
      "ining": 2466,
      "Ġtoys": 2467,
      "ising": 2468,
      "Ġnobody": 2469,
      "Ġ192": 2470,
      "Ġori": 2471,
      "ĠDecember": 2472,
      "aur": 2473,
      "ĠTo": 2474,
      "Ġdefe": 2475,
      "Ġweeks": 2476,
      "ĠCity": 2477,
      "what": 2478,
      "Ġsick": 2479,
      "Ġwaiting": 2480,
      "Ġ2015": 2481,
      "Ġinstead": 2482,
      "Ġhusband": 2483,
      "ĠNational": 2484,
      "Ġclim": 2485,
      "Ġyellow": 2486,
      "Ġtired": 2487,
      "Ġem": 2488,
      "ĠEdna": 2489,
      "No": 2490,
      "Ġterri": 2491,
      "Ġdanger": 2492,
      "ĠDon": 2493,
      "Ġbuilding": 2494,
      "ĠTHE": 2495,
      "ĠMan": 2496,
      "rand": 2497,
      "Ġroll": 2498,
      "Ġwritten": 2499,
      "Ġcri": 2500,
      "Ġcertainly": 2501,
      "Ġtelevision": 2502,
      "ww": 2503,
      "Ġsuper": 2504,
      "Ġriver": 2505,
      "ĠComm": 2506,
      "Ġcause": 2507,
      "Ġfear": 2508,
      "ĠMin": 2509,
      "Ġtest": 2510,
      "Ġhors": 2511,
      "Ġprin": 2512,
      "ĠEl": 2513,
      "Ġpossible": 2514,
      "Ġmouth": 2515,
      "amb": 2516,
      "ored": 2517,
      "Ġarm": 2518,
      "Ġsuppose": 2519,
      "Ġswim": 2520,
      "that": 2521,
      "Ġlunch": 2522,
      "unicip": 2523,
      "Ġwarm": 2524,
      "Ġfur": 2525,
      "ĠCol": 2526,
      "Ġtrees": 2527,
      "Well": 2528,
      "Ġmaster": 2529,
      "Ġ2020": 2530,
      "how": 2531,
      "Ġpress": 2532,
      "Ġdere": 2533,
      "Ġbroke": 2534,
      "Ġnorth": 2535,
      "Ġenjoy": 2536,
      "itc": 2537,
      "Ġdevelop": 2538,
      "ency": 2539,
      "ograph": 2540,
      "emy": 2541,
      "Ġmoved": 2542,
      "Ġfinish": 2543,
      "go": 2544,
      "estern": 2545,
      "Ġformer": 2546,
      "Ġindeed": 2547,
      "ror": 2548,
      "ĠX": 2549,
      "Ġdeep": 2550,
      "ternational": 2551,
      "Ġfeeling": 2552,
      "iled": 2553,
      "Ġprotect": 2554,
      "Ġsnow": 2555,
      "anta": 2556,
      "Ġblock": 2557,
      "itch": 2558,
      "terday": 2559,
      "uce": 2560,
      "Ġparent": 2561,
      "Ġstri": 2562,
      "Ġsitting": 2563,
      "idence": 2564,
      "Ġdrive": 2565,
      "We": 2566,
      "lin": 2567,
      "Ġoper": 2568,
      "Ġmembers": 2569,
      "ĠEar": 2570,
      "ping": 2571,
      "Ġtruth": 2572,
      "eal": 2573,
      "reed": 2574,
      "uced": 2575,
      "ula": 2576,
      "Ġcaught": 2577,
      "Ġju": 2578,
      "ĠPer": 2579,
      "ĠTr": 2580,
      "resent": 2581,
      "Ġsad": 2582,
      "ĠChristmas": 2583,
      "Ġstraight": 2584,
      "uct": 2585,
      "Ġknock": 2586,
      "Ġadm": 2587,
      "Ġyesterday": 2588,
      "Ġain": 2589,
      "ĠSha": 2590,
      "Ġarmy": 2591,
      "Ġclub": 2592,
      "Ġcannot": 2593,
      "Ġreturned": 2594,
      "Ġsuccess": 2595,
      "ondon": 2596,
      "Ã¡": 2597,
      "Ġcareful": 2598,
      "Ġtruck": 2599,
      "ele": 2600,
      "ern": 2601,
      "urg": 2602,
      "Ġdest": 2603,
      "ĠCal": 2604,
      "ulation": 2605,
      "ospital": 2606,
      "Ġclos": 2607,
      "ended": 2608,
      "ĠMy": 2609,
      "Ġcouple": 2610,
      "Ġanybody": 2611,
      "Ġarri": 2612,
      "Ġworks": 2613,
      "Ġchick": 2614,
      "Ġsupposed": 2615,
      "kay": 2616,
      "ĠCap": 2617,
      "Ġusually": 2618,
      "Ġcirc": 2619,
      "oose": 2620,
      "Ġspace": 2621,
      "Ġspec": 2622,
      "Ġbow": 2623,
      "ging": 2624,
      "ĠLondon": 2625,
      "Ġglass": 2626,
      "Ġparticular": 2627,
      "oul": 2628,
      "Ġcharac": 2629,
      "Ġgard": 2630,
      "ĠJust": 2631,
      "ris": 2632,
      "Ġbright": 2633,
      "ior": 2634,
      "Ġseem": 2635,
      "bit": 2636,
      "Ġ30": 2637,
      "hern": 2638,
      "Ġtrust": 2639,
      "Ġdisapp": 2640,
      "Ġdistrict": 2641,
      "Ġdecided": 2642,
      "Ġwild": 2643,
      "Ġsus": 2644,
      "Ġdie": 2645,
      "ding": 2646,
      "Ġworry": 2647,
      "Ġchanged": 2648,
      "par": 2649,
      "though": 2650,
      "Ġsell": 2651,
      "Ġspell": 2652,
      "ience": 2653,
      "Ġdepartment": 2654,
      "Ġcheese": 2655,
      "Ġfit": 2656,
      "teen": 2657,
      "ĠSouth": 2658,
      "Ġorigin": 2659,
      "uri": 2660,
      "Ġnor": 2661,
      "Ġexcept": 2662,
      "Ġcam": 2663,
      "Ġkiss": 2664,
      "Ġprogram": 2665,
      "ology": 2666,
      "lished": 2667,
      "Ġmunicip": 2668,
      "Ġelephan": 2669,
      "Ġsoft": 2670,
      "Ġstanding": 2671,
      "Ġpolitician": 2672,
      "nce": 2673,
      "Ġclothes": 2674,
      "Ġpost": 2675,
      "Ġcommon": 2676,
      "Ġcomplete": 2677,
      "Ġlearn": 2678,
      "Ġcatch": 2679,
      "noon": 2680,
      "hire": 2681,
      "Ġ)": 2682,
      "ĠWith": 2683,
      "Ġï¿½": 2684,
      "ĠNorth": 2685,
      "Ġbroken": 2686,
      "omb": 2687,
      "Ġpract": 2688,
      "Ġforward": 2689,
      "ĠBessie": 2690,
      "Ġjour": 2691,
      "Ġav": 2692,
      "Ġfavor": 2693,
      "Ġtot": 2694,
      "Ġlow": 2695,
      "Ġwel": 2696,
      "ĠAb": 2697,
      "Ġmiddle": 2698,
      "Ġfield": 2699,
      "ently": 2700,
      "ĠSund": 2701,
      "Ġrul": 2702,
      "Ġdoubt": 2703,
      "stairs": 2704,
      "Ġspir": 2705,
      "Ġfollowing": 2706,
      "Ġpen": 2707,
      "Ġlevel": 2708,
      "Ġafternoon": 2709,
      "Ġneeds": 2710,
      "Ġliked": 2711,
      "Ġequ": 2712,
      "Ġjud": 2713,
      "Ġimag": 2714,
      "Ġfail": 2715,
      "Ġarms": 2716,
      "Ġserved": 2717,
      "Ġlab": 2718,
      "Ġleaf": 2719,
      "fly": 2720,
      "Ġdi": 2721,
      "Ġdev": 2722,
      "wered": 2723,
      "Ġdiffic": 2724,
      "Ġlanguage": 2725,
      "ĠPresident": 2726,
      "Ġcream": 2727,
      "ichard": 2728,
      "Ġvillage": 2729,
      "ti": 2730,
      "Ġstrange": 2731,
      "Ġang": 2732,
      "ĠEve": 2733,
      "Ġcareer": 2734,
      "yn": 2735,
      "Ã¶": 2736,
      "ino": 2737,
      "Ġbeat": 2738,
      "Ġbreat": 2739,
      "Ġlie": 2740,
      "Ġ25": 2741,
      "ĠJack": 2742,
      "Ġvar": 2743,
      "rod": 2744,
      "Ġhappens": 2745,
      "Ġhole": 2746,
      "Ġhast": 2747,
      "ĠEle": 2748,
      "ĠSis": 2749,
      "Ġforty": 2750,
      "Ġcre": 2751,
      "Ġeighty": 2752,
      "Ġapple": 2753,
      "ĠIndian": 2754,
      "ĠWilliam": 2755,
      "Ġstopped": 2756,
      "Ġanswered": 2757,
      "Ġwww": 2758,
      "ĠParty": 2759,
      "uke": 2760,
      "Ġauthor": 2761,
      "Ġworth": 2762,
      "Ġproper": 2763,
      "Ġwriting": 2764,
      "Ġmatch": 2765,
      "ording": 2766,
      "acy": 2767,
      "iger": 2768,
      "ander": 2769,
      "othy": 2770,
      "lt": 2771,
      "Ġshoot": 2772,
      "Ġprop": 2773,
      "lex": 2774,
      "ege": 2775,
      "night": 2776,
      "Ġbelong": 2777,
      "Ġhurry": 2778,
      "ĠNot": 2779,
      "Ġopened": 2780,
      "aged": 2781,
      "Ġmeeting": 2782,
      "ĠCanad": 2783,
      "Ġsummer": 2784,
      "Ġled": 2785,
      "ĠSunday": 2786,
      "Ġstation": 2787,
      "ĠSome": 2788,
      "Ġshot": 2789,
      "Ġgrew": 2790,
      "Ġseason": 2791,
      "olved": 2792,
      "well": 2793,
      "Ġvide": 2794,
      "Ġburn": 2795,
      "Ġrad": 2796,
      "Ġ23": 2797,
      "field": 2798,
      "Ġlose": 2799,
      "ĠThese": 2800,
      "ĠWest": 2801,
      "Ġgiving": 2802,
      "ĠGeorge": 2803,
      "nel": 2804,
      "Ġtast": 2805,
      "ample": 2806,
      "Ġdar": 2807,
      "Ġwonderful": 2808,
      "Ġfill": 2809,
      "ĠTw": 2810,
      "Ġship": 2811,
      "fer": 2812,
      "Ġreceived": 2813,
      "Ġfort": 2814,
      "ĠHouse": 2815,
      "Ġdanc": 2816,
      "Ġhig": 2817,
      "ighb": 2818,
      "Ġheavy": 2819,
      "over": 2820,
      "ĠAm": 2821,
      "Ġ24": 2822,
      "Ġconsider": 2823,
      "ĠAld": 2824,
      "Ġdesign": 2825,
      "cher": 2826,
      "Ġself": 2827,
      "kes": 2828,
      "Ġforgot": 2829,
      "apan": 2830,
      "Ġhol": 2831,
      "Ġhospital": 2832,
      "ffic": 2833,
      "cell": 2834,
      "iew": 2835,
      "lands": 2836,
      "Ġfigure": 2837,
      "aser": 2838,
      "olute": 2839,
      "icy": 2840,
      "Ġrequ": 2841,
      "Ġusing": 2842,
      "uture": 2843,
      "view": 2844,
      "ceed": 2845,
      "cially": 2846,
      "Ġrain": 2847,
      "ĠGermany": 2848,
      "Ġsevent": 2849,
      "Ġshar": 2850,
      "Ġplaces": 2851,
      "Ġcars": 2852,
      "ogn": 2853,
      "!'": 2854,
      "ille": 2855,
      "olution": 2856,
      "Ġpictures": 2857,
      "Ġmajor": 2858,
      "Ġparents": 2859,
      "king": 2860,
      "time": 2861,
      "Ġ21": 2862,
      "fast": 2863,
      "Ġseat": 2864,
      "Ġtit": 2865,
      "Ġlovely": 2866,
      "Ġreached": 2867,
      "ius": 2868,
      "Ġlord": 2869,
      "Ġsol": 2870,
      "Ġshop": 2871,
      "Ġtape": 2872,
      "Ġsuddenly": 2873,
      "iers": 2874,
      "Ġsense": 2875,
      "Ġbas": 2876,
      "Ġtowards": 2877,
      "Ġquar": 2878,
      "Ġscared": 2879,
      "Ġthou": 2880,
      "rop": 2881,
      "Ġservice": 2882,
      "ĠPri": 2883,
      "Ġbrown": 2884,
      "Ġtur": 2885,
      "oura": 2886,
      "ange": 2887,
      "Ġpriv": 2888,
      "gest": 2889,
      "Ġinform": 2890,
      "Ġsight": 2891,
      "Ġloved": 2892,
      "Ġneighb": 2893,
      "iling": 2894,
      "ĠErm": 2895,
      "Ġpack": 2896,
      "ode": 2897,
      "Ġeduc": 2898,
      "gn": 2899,
      "ggest": 2900,
      "Ġforest": 2901,
      "yer": 2902,
      "ified": 2903,
      "Ġputting": 2904,
      "Ġban": 2905,
      "Ġflowers": 2906,
      "Ġgen": 2907,
      "Ġchief": 2908,
      "Ġsuggest": 2909,
      "iol": 2910,
      "Ġwat": 2911,
      "Ġnose": 2912,
      "Ġsounds": 2913,
      "ĠNet": 2914,
      "Ġcommune": 2915,
      "ĠTed": 2916,
      "ills": 2917,
      "ichael": 2918,
      "por": 2919,
      "Ġuncle": 2920,
      "ky": 2921,
      "Ġdogg": 2922,
      "Ġaccept": 2923,
      "ho": 2924,
      "Ġhall": 2925,
      "Ġsupper": 2926,
      "Ġgarden": 2927,
      "Ġcow": 2928,
      "ĠOr": 2929,
      "Ġexcl": 2930,
      "uit": 2931,
      "ĠBy": 2932,
      "resh": 2933,
      "Ġbread": 2934,
      "Ġelect": 2935,
      "Ġquickly": 2936,
      "ĠAustral": 2937,
      "aimed": 2938,
      "itz": 2939,
      "ĠHum": 2940,
      "Ġcover": 2941,
      "ffect": 2942,
      "Ġdirect": 2943,
      "lymp": 2944,
      "Ġfollowed": 2945,
      "Ġgar": 2946,
      "Ġhealth": 2947,
      "ays": 2948,
      "hel": 2949,
      "Ġdance": 2950,
      "Ġpage": 2951,
      "Ġbusy": 2952,
      "Ġfuture": 2953,
      "Ġinvest": 2954,
      "itchen": 2955,
      "Ġhous": 2956,
      "Ġshoes": 2957,
      "cket": 2958,
      "ribut": 2959,
      "ĠSir": 2960,
      "Ġiss": 2961,
      "iced": 2962,
      "Ġstat": 2963,
      "AR": 2964,
      "He": 2965,
      "hin": 2966,
      "Ġoffe": 2967,
      "ĠPol": 2968,
      "sy": 2969,
      "vin": 2970,
      "sey": 2971,
      "Ġview": 2972,
      "work": 2973,
      "ĠBear": 2974,
      "Ġchurch": 2975,
      "Ġrecogn": 2976,
      "ĠSec": 2977,
      "Ġspend": 2978,
      "bye": 2979,
      "Ġincluding": 2980,
      "riage": 2981,
      "Ġtail": 2982,
      "Ġbell": 2983,
      "viously": 2984,
      "Ġgas": 2985,
      "omer": 2986,
      "Ġwelcome": 2987,
      "That": 2988,
      "ĠPeter": 2989,
      "ĠWal": 2990,
      "Ġcurrent": 2991,
      "worth": 2992,
      "omin": 2993,
      "ĠJeff": 2994,
      "eg": 2995,
      "Ġought": 2996,
      "Ġtor": 2997,
      "Ġkitchen": 2998,
      "Ġseeing": 2999,
      "ĠRepub": 3000,
      "Ġbased": 3001,
      "Ġsugar": 3002,
      "ocol": 3003,
      "ĠAfr": 3004,
      "Ġproblems": 3005,
      "II": 3006,
      "mon": 3007,
      "Ġ22": 3008,
      "soci": 3009,
      "Ġcollect": 3010,
      "ishing": 3011,
      "ĠQue": 3012,
      "Ġposition": 3013,
      "Ġleaving": 3014,
      "Ġcreated": 3015,
      "Ġactiv": 3016,
      "ĠDorothy": 3017,
      "Ġspoke": 3018,
      "Ġpromise": 3019,
      "reen": 3020,
      "ĠAg": 3021,
      "Ġcomfort": 3022,
      "Ġep": 3023,
      "ira": 3024,
      "ĠWas": 3025,
      "ĠOlymp": 3026,
      "uty": 3027,
      "ĠCent": 3028,
      "Ġcompan": 3029,
      "eder": 3030,
      "ĠSu": 3031,
      "ressed": 3032,
      "Ġappear": 3033,
      "Ġ&": 3034,
      "ĠSy": 3035,
      "ĠSanta": 3036,
      "Ġbeginning": 3037,
      "Ġlocal": 3038,
      "Ġjuice": 3039,
      "iod": 3040,
      "Ġphot": 3041,
      "Ġeffect": 3042,
      "chn": 3043,
      "itted": 3044,
      "Ġsixty": 3045,
      "Ġtakes": 3046,
      "Ġesca": 3047,
      "oop": 3048,
      "ĠOx": 3049,
      "ission": 3050,
      "phone": 3051,
      "Ġneck": 3052,
      "rill": 3053,
      "Ġbank": 3054,
      "urse": 3055,
      "Ġhate": 3056,
      "bert": 3057,
      "Ġcorner": 3058,
      "ply": 3059,
      "ĠCH": 3060,
      "Ġvol": 3061,
      "Ġcourt": 3062,
      "Ġreplied": 3063,
      "hn": 3064,
      "ummy": 3065,
      "Ġlock": 3066,
      "Ġdrop": 3067,
      "iforn": 3068,
      "Ġmention": 3069,
      "Ġkitty": 3070,
      "ĠEx": 3071,
      "Ġbreakfast": 3072,
      "Ġdelight": 3073,
      "ĠTex": 3074,
      "Ġdecl": 3075,
      "val": 3076,
      "Ġplate": 3077,
      "Ġexample": 3078,
      "Ġregion": 3079,
      "Ġtiny": 3080,
      "ades": 3081,
      "ĠNor": 3082,
      "hile": 3083,
      "Ġnone": 3084,
      "Ġalive": 3085,
      "Ġvideo": 3086,
      "ĠTom": 3087,
      "Ġboard": 3088,
      "Ġcrit": 3089,
      "ifornia": 3090,
      "ĠPark": 3091,
      "ancy": 3092,
      "Ġmunicipality": 3093,
      "ray": 3094,
      "ration": 3095,
      "Ġresult": 3096,
      "Ġcharacter": 3097,
      "Ġnames": 3098,
      "Ġpopulation": 3099,
      "Ġgames": 3100,
      "yy": 3101,
      "ĠDr": 3102,
      "ĠGl": 3103,
      "Ġaccount": 3104,
      "ĠAnge": 3105,
      "har": 3106,
      "Ġweren": 3107,
      "Ġbigger": 3108,
      "encil": 3109,
      "tered": 3110,
      "mond": 3111,
      "Ġrepresent": 3112,
      "ĠBaby": 3113,
      "ument": 3114,
      "ift": 3115,
      "Ġtrack": 3116,
      "Ġcapital": 3117,
      "wood": 3118,
      "Ġbud": 3119,
      "Ġport": 3120,
      "oops": 3121,
      "ĠGreat": 3122,
      "Ġsomewhere": 3123,
      "Ġfellow": 3124,
      "Ġpal": 3125,
      "Ġshouldn": 3126,
      "Ġperfor": 3127,
      "Ġdifficult": 3128,
      "Ġrace": 3129,
      "Ġrelig": 3130,
      "Ġfurther": 3131,
      "AP": 3132,
      "Ġpencil": 3133,
      "itions": 3134,
      "ĠSh": 3135,
      "Ġwhis": 3136,
      "Ġobject": 3137,
      "ĠFlore": 3138,
      "Ġitself": 3139,
      "Ġwhoa": 3140,
      "Ġrose": 3141,
      "--\"": 3142,
      "Ġanx": 3143,
      "Ġpeace": 3144,
      "Ġcalling": 3145,
      "Ġcarried": 3146,
      "Ġdam": 3147,
      "Ġpieces": 3148,
      "order": 3149,
      "Ġchocol": 3150,
      "Ġhelped": 3151,
      "Ġletters": 3152,
      "Ġtall": 3153,
      "raft": 3154,
      "Ġappeared": 3155,
      "rug": 3156,
      "Ġfinal": 3157,
      "ĠChampions": 3158,
      "itary": 3159,
      "att": 3160,
      "ercy": 3161,
      "Ġnope": 3162,
      "gged": 3163,
      "Ġcharge": 3164,
      "Ġmiles": 3165,
      "ĠItaly": 3166,
      "Ġmid": 3167,
      "Ġstudio": 3168,
      "ĠFrom": 3169,
      "Ġentire": 3170,
      "ĠHist": 3171,
      "Ġpush": 3172,
      "Ġhy": 3173,
      "ĠTur": 3174,
      "empt": 3175,
      "ances": 3176,
      "Ġnearly": 3177,
      "board": 3178,
      "Ġproud": 3179,
      "ences": 3180,
      "ests": 3181,
      "Ġquestions": 3182,
      "Ġanimal": 3183,
      "TER": 3184,
      "roy": 3185,
      "ĠLea": 3186,
      "Ġpuzz": 3187,
      "hood": 3188,
      "she": 3189,
      "ico": 3190,
      "ĠFraser": 3191,
      "Ġlawyer": 3192,
      "ĠAunt": 3193,
      "Ġjack": 3194,
      "Ġconcer": 3195,
      "Ġstars": 3196,
      "Ġbutterfly": 3197,
      "Ġyyy": 3198,
      "Ġlim": 3199,
      "pecially": 3200,
      "liament": 3201,
      "ĠTe": 3202,
      "Ġallowed": 3203,
      "irm": 3204,
      "Ġmoving": 3205,
      "Ġreading": 3206,
      "ĠCalifornia": 3207,
      "Ġbought": 3208,
      "cience": 3209,
      "asket": 3210,
      "Ġinformation": 3211,
      "Ġwalked": 3212,
      "Ġnatur": 3213,
      "Ġbab": 3214,
      "Ġchicken": 3215,
      "Ġlots": 3216,
      "Ġholding": 3217,
      "Ġlegs": 3218,
      "Ġvers": 3219,
      "Ġpolitical": 3220,
      "uation": 3221,
      "het": 3222,
      "iff": 3223,
      "ĠLou": 3224,
      "overed": 3225,
      "Ġ191": 3226,
      "ĠTexas": 3227,
      "ghed": 3228,
      "Ġpet": 3229,
      "utch": 3230,
      "Ġasking": 3231,
      "rit": 3232,
      "ids": 3233,
      "Ġsex": 3234,
      "Ġeggs": 3235,
      "Ġpi": 3236,
      "ĠRoman": 3237,
      "Ġabsolute": 3238,
      "Ġcontrol": 3239,
      "Ġtour": 3240,
      "omen": 3241,
      "cious": 3242,
      "aturday": 3243,
      "Ġchocolate": 3244,
      "Ġpretend": 3245,
      "Ġfilm": 3246,
      "Ġshut": 3247,
      "Ġenc": 3248,
      "ization": 3249,
      "Ġwatching": 3250,
      "Ġduck": 3251,
      "Ġaccident": 3252,
      "Ġcentury": 3253,
      "now": 3254,
      "Ġcard": 3255,
      "ida": 3256,
      "Ġrich": 3257,
      "Ġhorses": 3258,
      "epend": 3259,
      "ĠOxford": 3260,
      "Ġmach": 3261,
      "Ġ26": 3262,
      "Ġfinally": 3263,
      "Ġsubject": 3264,
      "Ġbirds": 3265,
      "kin": 3266,
      "ĠHen": 3267,
      "Ġinteresting": 3268,
      "ĠSe": 3269,
      "Ġgrass": 3270,
      "like": 3271,
      "ĠSaturday": 3272,
      "Ġrespect": 3273,
      "ĠÃ": 3274,
      "ĠFlorence": 3275,
      "urity": 3276,
      "Ġmod": 3277,
      "ria": 3278,
      "ĠRichard": 3279,
      "ĠJane": 3280,
      "ounced": 3281,
      "Ġbattle": 3282,
      "Ġlearned": 3283,
      "Ġfinger": 3284,
      "Ġattention": 3285,
      "bers": 3286,
      "pes": 3287,
      "ĠSchool": 3288,
      "Ġflew": 3289,
      "Ġrid": 3290,
      "ĠRob": 3291,
      "Ġextra": 3292,
      "Why": 3293,
      "Ġsna": 3294,
      "Ġdin": 3295,
      "Ġdue": 3296,
      "Ġ27": 3297,
      "Ġperiod": 3298,
      "Ġrese": 3299,
      "Ġ28": 3300,
      "ires": 3301,
      "Ġtrick": 3302,
      "Ġslice": 3303,
      "Ġaff": 3304,
      "\")": 3305,
      "ĠCla": 3306,
      "Ġincre": 3307,
      "Ġmeat": 3308,
      "ĠOf": 3309,
      "Ġfright": 3310,
      "Ġhost": 3311,
      "ĠSm": 3312,
      "ĠChe": 3313,
      "Ġjohn": 3314,
      "Ġears": 3315,
      "ki": 3316,
      "ĠCo": 3317,
      "orts": 3318,
      "ND": 3319,
      "Ġden": 3320,
      "ference": 3321,
      "Ġfem": 3322,
      "Ġvan": 3323,
      "Ġstraw": 3324,
      "gon": 3325,
      "ĠJapan": 3326,
      "Ġsky": 3327,
      "Ġfeed": 3328,
      "Ġengine": 3329,
      "itive": 3330,
      "Ġbeach": 3331,
      "ston": 3332,
      "ume": 3333,
      "ĠHowever": 3334,
      "Ġben": 3335,
      "Ġshowed": 3336,
      "Ġdescri": 3337,
      "Ġpopular": 3338,
      "Ġord": 3339,
      "Ġconne": 3340,
      "Ġparts": 3341,
      "Ġespecially": 3342,
      "Ġpaid": 3343,
      "Ġtiger": 3344,
      "ffie": 3345,
      "ption": 3346,
      "Ġshout": 3347,
      "hank": 3348,
      "Ġviol": 3349,
      "Ġjoined": 3350,
      "ips": 3351,
      "Ã¼": 3352,
      "esta": 3353,
      "ĠState": 3354,
      "Ġdirected": 3355,
      "Ġlaughed": 3356,
      "Ġterrible": 3357,
      "Ġcher": 3358,
      "Ġ$": 3359,
      "Ġalthough": 3360,
      "ivil": 3361,
      "medi": 3362,
      "Ġworse": 3363,
      "Ġneeded": 3364,
      "osta": 3365,
      "Ġwalking": 3366,
      "ĠMinister": 3367,
      "Ġspirit": 3368,
      "yle": 3369,
      "Ġcountries": 3370,
      "ek": 3371,
      "ases": 3372,
      "ĠGovern": 3373,
      "mat": 3374,
      "Ġcell": 3375,
      "ĠDan": 3376,
      "ĠRed": 3377,
      "Ġbill": 3378,
      "Ġdropped": 3379,
      "Ġbottom": 3380,
      "Ġcous": 3381,
      "Ġcomb": 3382,
      "Ġchrist": 3383,
      "dered": 3384,
      "Ġpray": 3385,
      "Ġho": 3386,
      "Ġleader": 3387,
      "cy": 3388,
      "Ġlaughing": 3389,
      "Ġstage": 3390,
      "Ġplayer": 3391,
      "Ġshare": 3392,
      "aker": 3393,
      "ĠIndia": 3394,
      "Ġsurprise": 3395,
      "uel": 3396,
      "Ġcos": 3397,
      "Ġninety": 3398,
      "ĠQueen": 3399,
      "Ġwide": 3400,
      "Ġfresh": 3401,
      "Ġhero": 3402,
      "Ġlift": 3403,
      "Ġobs": 3404,
      "ashed": 3405,
      "ĠEffie": 3406,
      "Ġcloud": 3407,
      "anor": 3408,
      "ils": 3409,
      "Ġorange": 3410,
      "ĠGree": 3411,
      "Ġspent": 3412,
      "Ġprep": 3413,
      "Ġmagnet": 3414,
      "reet": 3415,
      "Ġforce": 3416,
      "ĠBo": 3417,
      "Ġsleeping": 3418,
      "ĠRussian": 3419,
      "conom": 3420,
      "ĠSan": 3421,
      "ĠColl": 3422,
      "ourt": 3423,
      "ĠLord": 3424,
      "Ġtalked": 3425,
      "round": 3426,
      "Ġmix": 3427,
      "elve": 3428,
      "clock": 3429,
      "Ġpers": 3430,
      "ĠEmp": 3431,
      "ĠMond": 3432,
      "Ġnecess": 3433,
      "ites": 3434,
      "Ġreach": 3435,
      "Ġamaz": 3436,
      "nic": 3437,
      "ses": 3438,
      "antly": 3439,
      "Ġrabb": 3440,
      "Ġprofessional": 3441,
      "?'": 3442,
      "Ġeast": 3443,
      "Ġaged": 3444,
      "Ġgrad": 3445,
      "Ġphil": 3446,
      "ĠSpan": 3447,
      "lim": 3448,
      "Ġmor": 3449,
      "Ġscar": 3450,
      "Ġfarm": 3451,
      "Ġsimply": 3452,
      "Ġcontinued": 3453,
      "ĠTony": 3454,
      "Ġscr": 3455,
      "ĠMarc": 3456,
      "Ġstayed": 3457,
      "Ġofficer": 3458,
      "line": 3459,
      "Ġbene": 3460,
      "ĠMc": 3461,
      "ĠJo": 3462,
      "Ġenemy": 3463,
      "Ġstudy": 3464,
      "Ġcaptain": 3465,
      "oken": 3466,
      "Ġiron": 3467,
      "Ġbase": 3468,
      "Ġladies": 3469,
      "Ġoffered": 3470,
      "Ġdry": 3471,
      "Ġbrave": 3472,
      "house": 3473,
      "Ġbite": 3474,
      "pper": 3475,
      "Ġspoon": 3476,
      "ĠUrs": 3477,
      "Ġweap": 3478,
      "Ġisland": 3479,
      "unny": 3480,
      "Ġris": 3481,
      "Ġcommand": 3482,
      "Ġaut": 3483,
      "ili": 3484,
      "ops": 3485,
      "IN": 3486,
      "Ġfavorite": 3487,
      "ja": 3488,
      "vir": 3489,
      "Ġ(\"": 3490,
      "Ġpossib": 3491,
      "Ġstories": 3492,
      "ums": 3493,
      "Ġclock": 3494,
      "Ġelection": 3495,
      "ĠEuropean": 3496,
      "Ġearli": 3497,
      "Ġcrow": 3498,
      "Ġhide": 3499,
      "omes": 3500,
      "Ġ100": 3501,
      "Ġadded": 3502,
      "'?": 3503,
      "ĠCup": 3504,
      "ĠNina": 3505,
      "Ġcab": 3506,
      "Ġcraz": 3507,
      "eds": 3508,
      "Ġbegin": 3509,
      "ĠBlack": 3510,
      "cast": 3511,
      "ville": 3512,
      "ĠMe": 3513,
      "Ġserious": 3514,
      "Ġpleasure": 3515,
      "af": 3516,
      "ĠCouncil": 3517,
      "uction": 3518,
      "ami": 3519,
      "ĠDolly": 3520,
      "ĠNesta": 3521,
      "Ġstone": 3522,
      "Ġindust": 3523,
      "Ġairpl": 3524,
      "Ġangry": 3525,
      "Ġtick": 3526,
      "yond": 3527,
      "Ġmass": 3528,
      "Ġsocial": 3529,
      "Ġclosed": 3530,
      "aff": 3531,
      "dd": 3532,
      "Ġdiscuss": 3533,
      "Ġowl": 3534,
      "Ġop": 3535,
      "ĠKingdom": 3536,
      "ĠMon": 3537,
      "Ġrub": 3538,
      "ously": 3539,
      "Ġbottle": 3540,
      "ĠCor": 3541,
      "Ġguard": 3542,
      "Ġdinos": 3543,
      "pping": 3544,
      "ĠWhy": 3545,
      "Ġrelations": 3546,
      "Ġcaused": 3547,
      "reme": 3548,
      "uts": 3549,
      "ĠPap": 3550,
      "Ġcomput": 3551,
      "Ġkey": 3552,
      "ĠCaptain": 3553,
      "Ġwash": 3554,
      "Ġforth": 3555,
      "ĠMart": 3556,
      "olf": 3557,
      "Ġ29": 3558,
      "ression": 3559,
      "Ġfighting": 3560,
      "Ġremark": 3561,
      "Ġsinger": 3562,
      "ĠReg": 3563,
      "Ġtoy": 3564,
      "ummer": 3565,
      "Ġlying": 3566,
      "acing": 3567,
      "stit": 3568,
      "Ġsmile": 3569,
      "Ġmarket": 3570,
      "Ġlikes": 3571,
      "oted": 3572,
      "ĠDem": 3573,
      "Ġunless": 3574,
      "Ġuhuh": 3575,
      "ĠAnn": 3576,
      "Ġimmedi": 3577,
      "Th": 3578,
      "ooper": 3579,
      "Ġallow": 3580,
      "Ġflat": 3581,
      "Ġtype": 3582,
      "ography": 3583,
      "ES": 3584,
      "burg": 3585,
      "Ġspring": 3586,
      "Ġexec": 3587,
      "Ġleaves": 3588,
      "Ġturning": 3589,
      "Ġdogs": 3590,
      "There": 3591,
      "isf": 3592,
      "Ġways": 3593,
      "Ġcru": 3594,
      "ilar": 3595,
      "ially": 3596,
      "ns": 3597,
      "Ġtrad": 3598,
      "Ġ2018": 3599,
      "ĠAmerica": 3600,
      "Ġpun": 3601,
      "ĠLot": 3602,
      "erve": 3603,
      "do": 3604,
      "nal": 3605,
      "rael": 3606,
      "Ġsle": 3607,
      "Ġsurv": 3608,
      "Ġrepe": 3609,
      "Ġprocess": 3610,
      "Ġcoc": 3611,
      "ĠEleanor": 3612,
      "ĠFriday": 3613,
      "ĠHistory": 3614,
      "Ġabsolutely": 3615,
      "va": 3616,
      "ĠBel": 3617,
      "Ġcove": 3618,
      "Ġcommun": 3619,
      "Ġphys": 3620,
      "Ġsoldiers": 3621,
      "She": 3622,
      "mes": 3623,
      "Ġver": 3624,
      "ival": 3625,
      "Ġcompletely": 3626,
      "Ġfat": 3627,
      "omas": 3628,
      "ĠRiver": 3629,
      "Ġcrack": 3630,
      "Ġhonest": 3631,
      "ĠCHAP": 3632,
      "rer": 3633,
      "rab": 3634,
      "Ġblow": 3635,
      "Ġjoy": 3636,
      "Ġepis": 3637,
      "ka": 3638,
      "met": 3639,
      "pha": 3640,
      "ination": 3641,
      "ĠHere": 3642,
      "Ġcrying": 3643,
      "Ġbasket": 3644,
      "Ġinn": 3645,
      "Ġcrazy": 3646,
      "ĠCHAPTER": 3647,
      "ON": 3648,
      "ergy": 3649,
      "Ġnorm": 3650,
      "Ġslowly": 3651,
      "Ġdate": 3652,
      "Ġbeyond": 3653,
      "Ġemb": 3654,
      "Ġlikely": 3655,
      "hington": 3656,
      "Ġrole": 3657,
      "Ġarrest": 3658,
      "Ġdirector": 3659,
      "Ġthreat": 3660,
      "Ġexist": 3661,
      "Ġelephant": 3662,
      "Ġnar": 3663,
      "Ġrev": 3664,
      "ĠHung": 3665,
      "ĠLittle": 3666,
      "Ġestab": 3667,
      "Ġexclaimed": 3668,
      "ya": 3669,
      "asure": 3670,
      "ĠMichael": 3671,
      "bl": 3672,
      "loy": 3673,
      "off": 3674,
      "Ġsuff": 3675,
      "Ġteeth": 3676,
      "Ġtechn": 3677,
      "Ġdressed": 3678,
      "cture": 3679,
      "ĠDuring": 3680,
      "Ġvo": 3681,
      "Ġamer": 3682,
      "Ġmurder": 3683,
      "host": 3684,
      "Ġinfl": 3685,
      "set": 3686,
      "Ġsearch": 3687,
      "Ġchim": 3688,
      "Ġspeaking": 3689,
      "ĠMass": 3690,
      "Ġwet": 3691,
      "Ġcute": 3692,
      "Ġimm": 3693,
      "Ġdollars": 3694,
      "Ġwinter": 3695,
      "ĠLeague": 3696,
      "ĠMama": 3697,
      "Ġblank": 3698,
      "Ġvictim": 3699,
      "sp": 3700,
      "Ġrights": 3701,
      "Ġtitle": 3702,
      "Ġprivate": 3703,
      "viron": 3704,
      "OR": 3705,
      "Ġstuck": 3706,
      "Ġtwelve": 3707,
      "Ġfamous": 3708,
      "ĠMic": 3709,
      "ĠHa": 3710,
      "Ġspread": 3711,
      "iance": 3712,
      "ila": 3713,
      "ĠGrand": 3714,
      "Ġcounty": 3715,
      "Ġdifference": 3716,
      "Ġbroad": 3717,
      "Ġmagic": 3718,
      "Ġrule": 3719,
      "Ġinj": 3720,
      "Ġgall": 3721,
      "Ġupstairs": 3722,
      "Ġinclude": 3723,
      "van": 3724,
      "itor": 3725,
      "ĠChan": 3726,
      "ĠEm": 3727,
      "Ġthinks": 3728,
      "Ġproject": 3729,
      "Ġpurp": 3730,
      "ĠMonday": 3731,
      "aud": 3732,
      "ises": 3733,
      "ĠMad": 3734,
      "ĠStreet": 3735,
      "ĠNe": 3736,
      "Ġmountain": 3737,
      "ales": 3738,
      "icked": 3739,
      "Ġ2012": 3740,
      "Ġ2014": 3741,
      "Ġsmell": 3742,
      "Ġjoin": 3743,
      "Ġ2023": 3744,
      "Ġmilitary": 3745,
      "Ġsimple": 3746,
      "Ġdestroy": 3747,
      "Ġwest": 3748,
      "Ġhan": 3749,
      "ĠMother": 3750,
      "Ġrespons": 3751,
      "ĠPeople": 3752,
      "Ġide": 3753,
      "oming": 3754,
      "ĠII": 3755,
      "ros": 3756,
      "Ġevidence": 3757,
      "Ġairplane": 3758,
      "ĠMus": 3759,
      "rap": 3760,
      "ĠEast": 3761,
      "ĠUncle": 3762,
      "Ġentered": 3763,
      "of": 3764,
      "vey": 3765,
      "Ġ2011": 3766,
      "Ġraised": 3767,
      "Ġpublished": 3768,
      "Ġsilver": 3769,
      "Ġhouses": 3770,
      "Ġscient": 3771,
      "ĠHam": 3772,
      "Ġsmart": 3773,
      "Ġtaste": 3774,
      "Ġstrawber": 3775,
      "Ã³": 3776,
      "Ġ!": 3777,
      "Ġmir": 3778,
      "Ġsposta": 3779,
      "ashion": 3780,
      "vironment": 3781,
      "chan": 3782,
      "Ġstom": 3783,
      "ĠRober": 3784,
      "Ġspoken": 3785,
      "astic": 3786,
      "Ġattempt": 3787,
      "isc": 3788,
      "Ġnon": 3789,
      "ura": 3790,
      "Ġdeg": 3791,
      "phrey": 3792,
      "inary": 3793,
      "ĠSch": 3794,
      "Ġfault": 3795,
      "Ġbull": 3796,
      "ĠAh": 3797,
      "ĠPort": 3798,
      "Ġcrowd": 3799,
      "bre": 3800,
      "Ġhun": 3801,
      "ĠAre": 3802,
      "Ġmessage": 3803,
      "Ġinternational": 3804,
      "ĠMex": 3805,
      "Ġnoise": 3806,
      "eless": 3807,
      "Ġ()": 3808,
      "ĠVer": 3809,
      "Ġannounced": 3810,
      "Ġpink": 3811,
      "ĠMag": 3812,
      "Ġdelic": 3813,
      "cip": 3814,
      "Ġinvolved": 3815,
      "wise": 3816,
      "Ġwise": 3817,
      "asion": 3818,
      "ĠMed": 3819,
      "Ġasleep": 3820,
      "ĠMarg": 3821,
      "Ġninet": 3822,
      "AN": 3823,
      "vies": 3824,
      "yal": 3825,
      "ĠEn": 3826,
      "Ġexplain": 3827,
      "Ġarrived": 3828,
      "ĠMil": 3829,
      "Ġterm": 3830,
      "Ġtaught": 3831,
      "Ġdrug": 3832,
      "Ġund": 3833,
      "ĠMer": 3834,
      "Ġloud": 3835,
      "Ġinf": 3836,
      "raw": 3837,
      "Ġhappening": 3838,
      "Ġended": 3839,
      "Ġcust": 3840,
      "arm": 3841,
      "Ġsepar": 3842,
      "Ġintrod": 3843,
      "Ġlistening": 3844,
      "Ġjourney": 3845,
      "Don": 3846,
      "ĠCourt": 3847,
      "ural": 3848,
      "ights": 3849,
      "Ġsecurity": 3850,
      "Ġawful": 3851,
      "Ġwoods": 3852,
      "EW": 3853,
      "erved": 3854,
      "Ġdeter": 3855,
      "Ġfool": 3856,
      "Ġanywhere": 3857,
      "Ġhasn": 3858,
      "ĠHumphrey": 3859,
      "Ġnatural": 3860,
      "Ġmer": 3861,
      "Ġtoward": 3862,
      "Ġshows": 3863,
      "Ġfaith": 3864,
      "ĠCanada": 3865,
      "ĠRepublic": 3866,
      "nded": 3867,
      "oms": 3868,
      "ota": 3869,
      "uses": 3870,
      "ĠOkay": 3871,
      "Ġqueen": 3872,
      "Ġnurse": 3873,
      "Ġneither": 3874,
      "Ġsatisf": 3875,
      "Ġhonor": 3876,
      "Ġcivil": 3877,
      "Ġdriving": 3878,
      "Ġlaid": 3879,
      "Ġut": 3880,
      "rel": 3881,
      "Ġbound": 3882,
      "aine": 3883,
      "Ġmanage": 3884,
      "Ġmovies": 3885,
      "Ġimagine": 3886,
      "Ġcocoon": 3887,
      "Ġlat": 3888,
      "ĠBraz": 3889,
      "ppy": 3890,
      "ĠDutch": 3891,
      "Ġconside": 3892,
      "Ġ2013": 3893,
      "Ġdoggie": 3894,
      "Ġconsidered": 3895,
      "father": 3896,
      "Ġtears": 3897,
      "Ġsoul": 3898,
      "Ġoffer": 3899,
      "Ġchoice": 3900,
      "ocrat": 3901,
      "otten": 3902,
      "gypt": 3903,
      "Ġpotat": 3904,
      "uk": 3905,
      "icle": 3906,
      "Ġmissing": 3907,
      "Ġlucky": 3908,
      "Ġï¿½ï¿½ï¿½ï¿½": 3909,
      "Ġnap": 3910,
      "aret": 3911,
      "Ġpocket": 3912,
      "Ġbelieved": 3913,
      "Ġeducation": 3914,
      "Ġdrew": 3915,
      "str": 3916,
      "abeth": 3917,
      "ĠJames": 3918,
      "Then": 3919,
      "ĠFirst": 3920,
      "Ġbless": 3921,
      "ords": 3922,
      "Ġolder": 3923,
      "Ġcapt": 3924,
      "Ġinterested": 3925,
      "antic": 3926,
      "Ġdeb": 3927,
      "Ġtravel": 3928,
      "mo": 3929,
      "inite": 3930,
      "Ġstarting": 3931,
      "Ġfounded": 3932,
      "ĠLouis": 3933,
      "ux": 3934,
      "Ġtar": 3935,
      "ĠPen": 3936,
      "ĠDes": 3937,
      "Ġspot": 3938,
      "ursday": 3939,
      "Ġsail": 3940,
      "Ġtraining": 3941,
      "Ġmotor": 3942,
      "Ġcalm": 3943,
      "ĠMarcia": 3944,
      "Ġpic": 3945,
      "Ġarg": 3946,
      "Ġpleased": 3947,
      "Ġactor": 3948,
      "Ġaccording": 3949,
      "Ġswimming": 3950,
      "lor": 3951,
      "Ġfre": 3952,
      "asons": 3953,
      "Ġeconom": 3954,
      "Ġcollege": 3955,
      "18": 3956,
      "inc": 3957,
      "Ġbeha": 3958,
      "abel": 3959,
      "Ġafterwards": 3960,
      "Ġshad": 3961,
      "ĠParliament": 3962,
      "Ġtend": 3963,
      "Ġpath": 3964,
      "ours": 3965,
      "ĠRo": 3966,
      "ĠSte": 3967,
      "Ġsettle": 3968,
      "Ġnature": 3969,
      "cks": 3970,
      "Ġaccom": 3971,
      "Ġident": 3972,
      "Ġmissed": 3973,
      "gen": 3974,
      "Ġsens": 3975,
      "ĠLi": 3976,
      "Ġbelow": 3977,
      "Ġemploy": 3978,
      "Ġwake": 3979,
      "Ġthee": 3980,
      "atives": 3981,
      "vere": 3982,
      "iment": 3983,
      "ciety": 3984,
      "Ġregard": 3985,
      "wich": 3986,
      "ulf": 3987,
      "ĠJim": 3988,
      "Ġpicked": 3989,
      "rief": 3990,
      "ointed": 3991,
      "lam": 3992,
      "Ġthrew": 3993,
      "Ġtherefore": 3994,
      "ĠWomen": 3995,
      "Ġlocated": 3996,
      "ĠQu": 3997,
      "Ġvarious": 3998,
      "ĠBrazil": 3999,
      "ease": 4000,
      "ĠAc": 4001,
      "Ġclaim": 4002,
      "Ġremain": 4003,
      "Ġterms": 4004,
      "Ġskin": 4005,
      "ĠAustralia": 4006,
      "Ġdig": 4007,
      "ednes": 4008,
      "itude": 4009,
      "Ġneg": 4010,
      "Ġplain": 4011,
      "ĠJew": 4012,
      "Ġagreed": 4013,
      "rupt": 4014,
      "Ġopport": 4015,
      "Ġseventy": 4016,
      "Ġinvestig": 4017,
      "ednesday": 4018,
      "Ġwit": 4019,
      "orthern": 4020,
      "esus": 4021,
      "aded": 4022,
      "Ġslight": 4023,
      "Ġwheel": 4024,
      "osing": 4025,
      "ĠLady": 4026,
      "Ġhuge": 4027,
      "eneral": 4028,
      "Ġbor": 4029,
      "lect": 4030,
      "ĠMal": 4031,
      "ĠAnt": 4032,
      "Ġvir": 4033,
      "Ġ2010": 4034,
      "Ġaction": 4035,
      "Ġsituation": 4036,
      "Ġobviously": 4037,
      "Ġgentleman": 4038,
      "Ġhigher": 4039,
      "Ġrabbit": 4040,
      "ĠPat": 4041,
      "ongress": 4042,
      "Ġcastle": 4043,
      "Ġnotice": 4044,
      "ĠRam": 4045,
      "Ġspeed": 4046,
      "ength": 4047,
      "mar": 4048,
      "wr": 4049,
      "ĠSal": 4050,
      "ĠKitty": 4051,
      "ois": 4052,
      "Ġdouble": 4053,
      "Ġvote": 4054,
      "Ġcommunity": 4055,
      "Ġexpected": 4056,
      "Ġmachine": 4057,
      "Ġcovered": 4058,
      "EN": 4059,
      "aven": 4060,
      "Ġaward": 4061,
      "Ġdread": 4062,
      "Ġpushed": 4063,
      "asc": 4064,
      "cean": 4065,
      "Ġamount": 4066,
      "lie": 4067,
      "Ġham": 4068,
      "ĠHug": 4069,
      "IS": 4070,
      "ĠLa": 4071,
      "ground": 4072,
      "elebr": 4073,
      "ĠWashington": 4074,
      "Ġcouncil": 4075,
      "Ġhadn": 4076,
      "Ġexcell": 4077,
      "How": 4078,
      "Ġur": 4079,
      "Ġassist": 4080,
      "Ġgentlemen": 4081,
      "ĠOlympics": 4082,
      "reys": 4083,
      "llen": 4084,
      "Ġ(;": 4085,
      "Ġgrown": 4086,
      "uesday": 4087,
      "ĠItalian": 4088,
      "Ġimmediately": 4089,
      "AT": 4090,
      "etts": 4091,
      "ĠMany": 4092,
      "ĠRos": 4093,
      "Ġagree": 4094,
      "ĠUnion": 4095,
      "Ġquarter": 4096,
      "mont": 4097,
      "ĠCath": 4098,
      "Ġsuit": 4099,
      "achus": 4100,
      "izabeth": 4101,
      "Ġsett": 4102,
      "Ġtelephone": 4103,
      "ipped": 4104,
      "ession": 4105,
      "ails": 4106,
      "Ġmonkey": 4107,
      "Ġrocket": 4108,
      "Ġsimilar": 4109,
      "Ġdarling": 4110,
      "Ġearlier": 4111,
      "mother": 4112,
      "arian": 4113,
      "ĠSummer": 4114,
      "ĠRoy": 4115,
      "Ġfourth": 4116,
      "My": 4117,
      "Now": 4118,
      "oved": 4119,
      "era": 4120,
      "Ġstran": 4121,
      "ĠInternational": 4122,
      "Ġteach": 4123,
      "Ġ31": 4124,
      "Ġbrain": 4125,
      "ĠWhite": 4126,
      "Ġfingers": 4127,
      "Ġdancing": 4128,
      "ourage": 4129,
      "zen": 4130,
      "rect": 4131,
      "Ġfol": 4132,
      "Ġknife": 4133,
      "Ġmovement": 4134,
      "Ġsymp": 4135,
      "Ġwatched": 4136,
      "St": 4137,
      "lla": 4138,
      "ĠCromer": 4139,
      "Ġcousin": 4140,
      "kn": 4141,
      "ari": 4142,
      "ĠAye": 4143,
      "ledge": 4144,
      "Ġhardly": 4145,
      "Ġgods": 4146,
      "Ġwearing": 4147,
      "Ġapart": 4148,
      "Ġprincess": 4149,
      "light": 4150,
      "Ġlines": 4151,
      "Ġstreng": 4152,
      "Ġflying": 4153,
      "under": 4154,
      "Ġcoun": 4155,
      "Ġcheer": 4156,
      "Ġbrothers": 4157,
      "ĠRobert": 4158,
      "achusetts": 4159,
      "sha": 4160,
      "Ġpill": 4161,
      "Ġhill": 4162,
      "ĠDis": 4163,
      "Ġcoach": 4164,
      "enced": 4165,
      "Ġsongs": 4166,
      "Ġmedic": 4167,
      "Ġproduced": 4168,
      "Ġclimb": 4169,
      "wh": 4170,
      "isy": 4171,
      "ala": 4172,
      "ĠChristian": 4173,
      "ĠAldred": 4174,
      "Ġtax": 4175,
      "Ġcult": 4176,
      "ache": 4177,
      "Ġdey": 4178,
      "Ġnumbers": 4179,
      "They": 4180,
      "mel": 4181,
      "ators": 4182,
      "Ġthus": 4183,
      "Ġmel": 4184,
      "ĠBob": 4185,
      "anda": 4186,
      "ĠGood": 4187,
      "Ġspl": 4188,
      "sociation": 4189,
      "ien": 4190,
      "hest": 4191,
      "Ġsize": 4192,
      "Ġmult": 4193,
      "Ġcart": 4194,
      "ables": 4195,
      "Ġmanner": 4196,
      "Ġshowing": 4197,
      "Ġmistake": 4198,
      "Ġdangerous": 4199,
      "Ġoriginal": 4200,
      "Ġtotal": 4201,
      "bles": 4202,
      "pap": 4203,
      "Ġplant": 4204,
      "ago": 4205,
      "Ġdisp": 4206,
      "Ġremem": 4207,
      "Ġstudied": 4208,
      "Ġindepend": 4209,
      "Ġlanguages": 4210,
      "da": 4211,
      "itan": 4212,
      "Ġneat": 4213,
      "Ġmeaning": 4214,
      "Ġaddress": 4215,
      "Ġhistor": 4216,
      "Ġjudge": 4217,
      "rid": 4218,
      "vi": 4219,
      "hered": 4220,
      "Ġstairs": 4221,
      "ĠCare": 4222,
      "avis": 4223,
      "bered": 4224,
      "play": 4225,
      "Ġdiscovered": 4226,
      "Ġnineteen": 4227,
      "oups": 4228,
      "olt": 4229,
      "ĠFox": 4230,
      "hips": 4231,
      "ĠHenry": 4232,
      "ĠMassachusetts": 4233,
      "lly": 4234,
      "Ġeff": 4235,
      "ĠHigh": 4236,
      "ĠRec": 4237,
      "Ġregular": 4238,
      "Ġdecision": 4239,
      "Ġartist": 4240,
      "ĠParis": 4241,
      "erg": 4242,
      "ushing": 4243,
      "Ġplenty": 4244,
      "ittee": 4245,
      "ossible": 4246,
      "Ġchimney": 4247,
      "Ġtv": 4248,
      "Ġmouse": 4249,
      "ĠSam": 4250,
      "ĠBert": 4251,
      "ĠHall": 4252,
      "Ġdeli": 4253,
      "Ġdebut": 4254,
      "pa": 4255,
      "Ġbreath": 4256,
      "Ġradio": 4257,
      "ĠTwo": 4258,
      "ĠSmith": 4259,
      "anch": 4260,
      "oseph": 4261,
      "Ġpromised": 4262,
      "ĠPrince": 4263,
      "Ġfavour": 4264,
      "Ġtemper": 4265,
      "Ġexperience": 4266,
      "Ġcherry": 4267,
      "Ġdirty": 4268,
      "ĠChurch": 4269,
      "Ġparticularly": 4270,
      "jo": 4271,
      "Ġdan": 4272,
      "Ġgate": 4273,
      "outhern": 4274,
      "ĠFrank": 4275,
      "Ġlargest": 4276,
      "Ġzoo": 4277,
      "itzer": 4278,
      "ees": 4279,
      "look": 4280,
      "iana": 4281,
      "ivid": 4282,
      "oid": 4283,
      "ini": 4284,
      "Ġcere": 4285,
      "Ġcelebr": 4286,
      "Ġpair": 4287,
      "Ġstock": 4288,
      "Ġworried": 4289,
      "Ġfeat": 4290,
      "Ġcolors": 4291,
      "Ġrefer": 4292,
      "Ġepisode": 4293,
      "Ġsaved": 4294,
      "ĠWhere": 4295,
      "Ġpicnic": 4296,
      "bes": 4297,
      "Ġ..": 4298,
      "ĠBecause": 4299,
      "Ġhotel": 4300,
      "Ġdolly": 4301,
      "ups": 4302,
      "olic": 4303,
      "Ġmoder": 4304,
      "Ġplays": 4305,
      "ĠThursday": 4306,
      "Ġimpro": 4307,
      "ensus": 4308,
      "ĠJeffreys": 4309,
      "Ġlength": 4310,
      "Ġnet": 4311,
      "Ġdoc": 4312,
      "ĠScot": 4313,
      "Ġsuspect": 4314,
      "Ġfilled": 4315,
      "Ġfemale": 4316,
      "Ġrough": 4317,
      "Ġdistance": 4318,
      "Ġbeside": 4319,
      "just": 4320,
      "oons": 4321,
      "ads": 4322,
      "mpion": 4323,
      "Ġresearch": 4324,
      "bout": 4325,
      "sc": 4326,
      "Ġmerry": 4327,
      "ĠCharles": 4328,
      "Ġescape": 4329,
      "Ġcomputer": 4330,
      "iving": 4331,
      "ĠDist": 4332,
      "Ġusual": 4333,
      "Ġappre": 4334,
      "Ġpersonal": 4335,
      "Ġsurprised": 4336,
      "Ġhid": 4337,
      "usion": 4338,
      "Ġstro": 4339,
      "Ġtwice": 4340,
      "ĠUS": 4341,
      "nie": 4342,
      "Ġble": 4343,
      "Ġspee": 4344,
      "Ġcoat": 4345,
      "Ġgives": 4346,
      "Ġsharp": 4347,
      ".,": 4348,
      "If": 4349,
      "Ġwag": 4350,
      "eta": 4351,
      "Ġnote": 4352,
      "Ġareas": 4353,
      "ĠSpanish": 4354,
      "10": 4355,
      "ĠAward": 4356,
      "ĠPet": 4357,
      "ĠWood": 4358,
      "ÃŃs": 4359,
      "Ġduty": 4360,
      "Ġ190": 4361,
      "Ġgroups": 4362,
      "Ġearn": 4363,
      "anced": 4364,
      "Ġinflu": 4365,
      "iles": 4366,
      "ĠKe": 4367,
      "Ġproduct": 4368,
      "Ġaud": 4369,
      "Ġboss": 4370,
      "Ġimpossible": 4371,
      "Ġfalling": 4372,
      "Ġye": 4373,
      "Ġrang": 4374,
      "Ġmetal": 4375,
      "Ġpuzzle": 4376,
      "lig": 4377,
      "Ġwha": 4378,
      "ingly": 4379,
      "Ġstates": 4380,
      "Ġheads": 4381,
      "Ġtrip": 4382,
      "Ġbathroom": 4383,
      "Ġspecies": 4384,
      "Ġinqu": 4385,
      "Ġeager": 4386,
      "ĠFin": 4387,
      "Ġbridge": 4388,
      "Ġcloser": 4389,
      "hod": 4390,
      "vell": 4391,
      "ĠIts": 4392,
      "Ġstudents": 4393,
      "ĠIsrael": 4394,
      "Ġcrime": 4395,
      "Ġpurpose": 4396,
      "rem": 4397,
      "Ġmater": 4398,
      "Ġfirm": 4399,
      "Ġpaint": 4400,
      "Ġsch": 4401,
      "oured": 4402,
      "vert": 4403,
      "ĠTuesday": 4404,
      "chie": 4405,
      "minist": 4406,
      "Ġdetect": 4407,
      "aign": 4408,
      "ixt": 4409,
      "alley": 4410,
      "rain": 4411,
      "Ġwriter": 4412,
      "Ġholiday": 4413,
      "inct": 4414,
      "Ġdoin": 4415,
      "ĠSen": 4416,
      "ĠMont": 4417,
      "ĠDid": 4418,
      "ify": 4419,
      "Ġdrinking": 4420,
      "Ġblocks": 4421,
      "cul": 4422,
      "rom": 4423,
      "Ġsoup": 4424,
      "Ġweather": 4425,
      "ĠCamp": 4426,
      "Ġbeauty": 4427,
      "ocratic": 4428,
      "Ġwound": 4429,
      "Ġrom": 4430,
      "ĠLat": 4431,
      "Ġconvers": 4432,
      "Ġprice": 4433,
      "Ġchannel": 4434,
      "Ġdesp": 4435,
      "ĠJean": 4436,
      "gu": 4437,
      "viet": 4438,
      "ĠMac": 4439,
      "Ġgrace": 4440,
      "ĠSpain": 4441,
      "Ġproduc": 4442,
      "Ġbal": 4443,
      "Ġcott": 4444,
      "rance": 4445,
      "Ġflower": 4446,
      "ava": 4447,
      "Ġelected": 4448,
      "Ġstrugg": 4449,
      "ba": 4450,
      "can": 4451,
      "Ã¨": 4452,
      "Ġsac": 4453,
      "eror": 4454,
      "Ġstorm": 4455,
      "ĠCam": 4456,
      "ĠWednesday": 4457,
      "ella": 4458,
      "Ġ50": 4459,
      "Ġharm": 4460,
      "ners": 4461,
      "Ġsen": 4462,
      "Ġsour": 4463,
      "Ġfuck": 4464,
      "Ġdecide": 4465,
      "Ġliter": 4466,
      "enth": 4467,
      "Ġange": 4468,
      "Ġoppos": 4469,
      "Ġcandy": 4470,
      "Ġdinosaur": 4471,
      "Ġ*": 4472,
      "Ġloss": 4473,
      "Ġagent": 4474,
      "Ġpercent": 4475,
      "Ġmrs": 4476,
      "ĠRussia": 4477,
      "pan": 4478,
      "Ġoil": 4479,
      "ruction": 4480,
      "ĠBeck": 4481,
      "Ġeasily": 4482,
      "Ġperfectly": 4483,
      "inese": 4484,
      "Ġnic": 4485,
      "amin": 4486,
      "Ġgreatest": 4487,
      "ĠHugo": 4488,
      "17": 4489,
      "boy": 4490,
      "ĠLaw": 4491,
      "Ġstruck": 4492,
      "ĠPapa": 4493,
      "Ġexcellent": 4494,
      "Ġscience": 4495,
      "oug": 4496,
      "ita": 4497,
      "ĠLet": 4498,
      "Ġscene": 4499,
      "don": 4500,
      "Ġfought": 4501,
      "Ġfund": 4502,
      "Ġlips": 4503,
      "cely": 4504,
      "ĠBet": 4505,
      "ĠGeneral": 4506,
      "pered": 4507,
      "ĠAfrican": 4508,
      "itzerland": 4509,
      "ram": 4510,
      "Ġwilln": 4511,
      "Ġnecessary": 4512,
      "eer": 4513,
      "ĠJer": 4514,
      "Ġcoast": 4515,
      "Ġkeeping": 4516,
      "Ġmarry": 4517,
      "Ġ40": 4518,
      "Ġfixed": 4519,
      "Ġyo": 4520,
      "etch": 4521,
      "ĠMor": 4522,
      "ĠTheir": 4523,
      "elle": 4524,
      "Ġplaced": 4525,
      "ĠThomas": 4526,
      "Ġpleasant": 4527,
      "Ġdeclared": 4528,
      "Ġpool": 4529,
      "Ġthy": 4530,
      "Ġweak": 4531,
      "ĠMabel": 4532,
      "Ġshown": 4533,
      "Ġremind": 4534,
      "Ġcontact": 4535,
      "Ġexcited": 4536,
      "bury": 4537,
      "vince": 4538,
      "Ġcalls": 4539,
      "atic": 4540,
      "using": 4541,
      "Ġrate": 4542,
      "isted": 4543,
      "Ġoccup": 4544,
      "ona": 4545,
      "Ġroof": 4546,
      "ĠRome": 4547,
      "Ġmarriage": 4548,
      "Ġpulled": 4549,
      "Ġdevelopment": 4550,
      "Ġenvironment": 4551,
      "Ġchampions": 4552,
      "mit": 4553,
      "vis": 4554,
      "with": 4555,
      "action": 4556,
      "Ġcompetition": 4557,
      "Ġfrightened": 4558,
      "ker": 4559,
      "Ġmic": 4560,
      "Ġfancy": 4561,
      "edy": 4562,
      "Ġweird": 4563,
      "Ġrail": 4564,
      "Ġminister": 4565,
      "Ġavail": 4566,
      "Ġneighbor": 4567,
      "Ġanxious": 4568,
      "ait": 4569,
      "roat": 4570,
      "ĠBer": 4571,
      "ĠBat": 4572,
      "ĠPercy": 4573,
      "ĠRod": 4574,
      "FA": 4575,
      "cis": 4576,
      "ique": 4577,
      "ĠÂ": 4578,
      "Ġge": 4579,
      "tering": 4580,
      "Ġshirt": 4581,
      "Ġgoodbye": 4582,
      "Ġenergy": 4583,
      "Ġsinging": 4584,
      "Ġcompeted": 4585,
      "Ġcuri": 4586,
      "Ġlibr": 4587,
      "Ġscream": 4588,
      "Ġdemand": 4589,
      "ĠChampionship": 4590,
      "ban": 4591,
      "Ġmut": 4592,
      "Ġpig": 4593,
      "Ġgro": 4594,
      "aled": 4595,
      "ooge": 4596,
      "Ġmem": 4597,
      "Ġfruit": 4598,
      "ĠEvery": 4599,
      "berg": 4600,
      "Ġsquare": 4601,
      "Ġjumped": 4602,
      "Ġant": 4603,
      "ĠPal": 4604,
      "ĠFred": 4605,
      "esty": 4606,
      "Ġintell": 4607,
      "Ġarch": 4608,
      "ributed": 4609,
      "Ġyouth": 4610,
      "Ġheaven": 4611,
      "ĠAir": 4612,
      "ĠDep": 4613,
      "ively": 4614,
      "Ġmanager": 4615,
      "Ġscary": 4616,
      "Ġgrave": 4617,
      "Ġopin": 4618,
      "gie": 4619,
      "hold": 4620,
      "iant": 4621,
      "Ġtong": 4622,
      "Ġfoc": 4623,
      "ĠMet": 4624,
      "Ġconc": 4625,
      "ĠSwitzerland": 4626,
      "rim": 4627,
      "elly": 4628,
      "ĠLab": 4629,
      "Ġchoose": 4630,
      "Ġcrown": 4631,
      "Ġstrawberries": 4632,
      "gress": 4633,
      "Ġcred": 4634,
      "Ġcooper": 4635,
      "Ġfra": 4636,
      "Ġfashion": 4637,
      "acks": 4638,
      "Ġdisease": 4639,
      "ĠClaus": 4640,
      "Ġcancer": 4641,
      "Ġadvent": 4642,
      "Ġkiller": 4643,
      "Ġempty": 4644,
      "Ġtotally": 4645,
      "Ġsar": 4646,
      "aries": 4647,
      "ĠMot": 4648,
      "illa": 4649,
      "Ġje": 4650,
      "Ġcentre": 4651,
      "50": 4652,
      "pir": 4653,
      "Ġthick": 4654,
      "ĠDuke": 4655,
      "Ġmanaged": 4656,
      "ishop": 4657,
      "Ġsandwich": 4658,
      "Ġbesides": 4659,
      "Ġpractice": 4660,
      "Ġpossibly": 4661,
      "200": 4662,
      "Ġpour": 4663,
      "Ġlion": 4664,
      "Ġnea": 4665,
      "Ġsaf": 4666,
      "Ġgolden": 4667,
      "orough": 4668,
      "Ġpin": 4669,
      "Ġbutton": 4670,
      "ĠRose": 4671,
      "ĠGold": 4672,
      "Ġvac": 4673,
      "iction": 4674,
      "Ġgiant": 4675,
      "Ġfifteen": 4676,
      "Ġcontinue": 4677,
      "Ġtight": 4678,
      "Ġgaz": 4679,
      "Ġnurs": 4680,
      "Ġshore": 4681,
      "Ġcontract": 4682,
      "Ġbump": 4683,
      "Ġtom": 4684,
      "ĠMel": 4685,
      "ĠZara": 4686,
      "Ġprepared": 4687,
      "tin": 4688,
      "ĠMo": 4689,
      "ĠAcc": 4690,
      "ste": 4691,
      "Ġcompl": 4692,
      "Ġstrength": 4693,
      "Ġeh": 4694,
      "ĠCast": 4695,
      "Ġnovel": 4696,
      "Ġturns": 4697,
      "Ġleading": 4698,
      "heart": 4699,
      "lem": 4700,
      "Ġstret": 4701,
      "Ġnoticed": 4702,
      "Ġacqu": 4703,
      "Ġwalks": 4704,
      "Ġlights": 4705,
      "Ġforever": 4706,
      "Ġspeech": 4707,
      "ĠSus": 4708,
      "Ġrow": 4709,
      "ĠRes": 4710,
      "ĠGe": 4711,
      "Ġaffect": 4712,
      "Ġourselves": 4713,
      "ildred": 4714,
      "Ġsilence": 4715,
      "initely": 4716,
      "Ġopportunity": 4717,
      "rees": 4718,
      "ĠSaint": 4719,
      "Ġflight": 4720,
      "Ġremained": 4721,
      "Ġhelping": 4722,
      "Ġnewspap": 4723,
      "gs": 4724,
      "vious": 4725,
      "Ġdying": 4726,
      "Ġpan": 4727,
      "useum": 4728,
      "Ġsword": 4729,
      "Ġmonster": 4730,
      "ĠWho": 4731,
      "inger": 4732,
      "Ġhen": 4733,
      "ĠMost": 4734,
      "ctions": 4735,
      "ĠBrown": 4736,
      "Ġ2005": 4737,
      "Ġ2008": 4738,
      "Ġinterview": 4739,
      "Ġoccur": 4740,
      "ederal": 4741,
      "LE": 4742,
      "ĠIll": 4743,
      "ĠMolly": 4744,
      "ĠSoviet": 4745,
      "ĠArmy": 4746,
      "Ġpoints": 4747,
      "ouri": 4748,
      "Ġstream": 4749,
      "oph": 4750,
      "istan": 4751,
      "Ġ2009": 4752,
      "Ġofficial": 4753,
      "Ġsusp": 4754,
      "known": 4755,
      "Ġaunt": 4756,
      "ĠIran": 4757,
      "umber": 4758,
      "Ġexpen": 4759,
      "Ġboots": 4760,
      "Ġunc": 4761,
      "Ġ2007": 4762,
      "Ġsang": 4763,
      "Ġreb": 4764,
      "ĠRa": 4765,
      "Ġtrade": 4766,
      "ij": 4767,
      "Ġlower": 4768,
      "Ġmere": 4769,
      "Ġexam": 4770,
      "Ġdirection": 4771,
      "ĠScr": 4772,
      "Ġpatient": 4773,
      "Ġcircus": 4774,
      "Ġelephants": 4775,
      "uten": 4776,
      "sec": 4777,
      "ĠSer": 4778,
      "Ġjun": 4779,
      "ĠOld": 4780,
      "aked": 4781,
      "Ġsomethin": 4782,
      "Ġattract": 4783,
      "Ġdriver": 4784,
      "Ġpainting": 4785,
      "ĠEarly": 4786,
      "Ġappreci": 4787,
      "Ġcy": 4788,
      "ademy": 4789,
      "ĠMhm": 4790,
      "Ġgreater": 4791,
      "ĠGerald": 4792,
      "Ġsouthw": 4793,
      "Ġta": 4794,
      "ĠMat": 4795,
      "ĠUp": 4796,
      "Ġapparent": 4797,
      "Ġteams": 4798,
      "Ġcampaign": 4799,
      "Ġcircle": 4800,
      "Is": 4801,
      "enny": 4802,
      "Ġemer": 4803,
      "ĠMildred": 4804,
      "Ġplane": 4805,
      "ĠJoe": 4806,
      "Ġ2004": 4807,
      "sed": 4808,
      "Ġmeal": 4809,
      "Ġrob": 4810,
      "Ġfeels": 4811,
      "Ġmemory": 4812,
      "pet": 4813,
      "itation": 4814,
      "Ġeld": 4815,
      "Ġgrowing": 4816,
      "Ġwed": 4817,
      "Ġformed": 4818,
      "ilies": 4819,
      "ĠLuc": 4820,
      "Ġmostly": 4821,
      "ĠFrancis": 4822,
      "Ġextreme": 4823,
      "Ġofficers": 4824,
      "Ġbi": 4825,
      "eman": 4826,
      "Ġblind": 4827,
      "Ġsmiled": 4828,
      "Ġ2006": 4829,
      "Ġsoldier": 4830,
      "ĠNether": 4831,
      "Ġorders": 4832,
      "Ġdare": 4833,
      "ĠFire": 4834,
      "Ġflag": 4835,
      "Ġchem": 4836,
      "Ġmentioned": 4837,
      "Ġstomach": 4838,
      "ippi": 4839,
      "Ġcorrect": 4840,
      "kins": 4841,
      "Ġwrest": 4842,
      "reland": 4843,
      "omed": 4844,
      "Ġowned": 4845,
      "Ġruns": 4846,
      "Ġterror": 4847,
      "ĠElizabeth": 4848,
      "fit": 4849,
      "uz": 4850,
      "ishes": 4851,
      "ilities": 4852,
      "Ġknowing": 4853,
      "ĠWind": 4854,
      "ĠOF": 4855,
      "Ġtells": 4856,
      "Ġcarefully": 4857,
      "Ġcolon": 4858,
      "Ġsisters": 4859,
      "Ġamazing": 4860,
      "sing": 4861,
      "Ġsides": 4862,
      "ador": 4863,
      "iel": 4864,
      "ĠWhile": 4865,
      "Ġplans": 4866,
      "ĠEgypt": 4867,
      "ardon": 4868,
      "Ġhandle": 4869,
      "Ġeleven": 4870,
      "Ġdreams": 4871,
      "Ġmodern": 4872,
      "hum": 4873,
      "Ġbub": 4874,
      "orks": 4875,
      "Ġnoble": 4876,
      "Ġorang": 4877,
      "Ġkinds": 4878,
      "Ġtrial": 4879,
      "Ġsafety": 4880,
      "ĠNetherlands": 4881,
      "Do": 4882,
      "Ġtow": 4883,
      "Ġsaus": 4884,
      "Ġplums": 4885,
      "ĠJul": 4886,
      "Ġactress": 4887,
      "ĠSecret": 4888,
      "Ġalex": 4889,
      "Ġwings": 4890,
      "Ġir": 4891,
      "ĠMinn": 4892,
      "Ġgoodness": 4893,
      "Ġrap": 4894,
      "ological": 4895,
      "ealand": 4896,
      "Ġjournal": 4897,
      "Ġrules": 4898,
      "30": 4899,
      "ked": 4900,
      "Ġnick": 4901,
      "Ġintern": 4902,
      "Ġonto": 4903,
      "ĠBill": 4904,
      "Ġknowledge": 4905,
      "ĠVery": 4906,
      "Ġ2003": 4907,
      "Ġindivid": 4908,
      "Ġevents": 4909,
      "reg": 4910,
      "Ġrice": 4911,
      "Ġalt": 4912,
      "Ġunion": 4913,
      "Ġpoet": 4914,
      "Ġswing": 4915,
      "ification": 4916,
      "Ġsteps": 4917,
      "Ġturtle": 4918,
      "Ġideas": 4919,
      "Ġsettled": 4920,
      "sequ": 4921,
      "ĠAlex": 4922,
      "Ġqual": 4923,
      "ĠEric": 4924,
      "Ġdeterm": 4925,
      "ĠScrooge": 4926,
      "nament": 4927,
      "Ġnerv": 4928,
      "kend": 4929,
      "ĠAp": 4930,
      "andy": 4931,
      "Ġpeas": 4932,
      "Ġuhoh": 4933,
      "Ġcenter": 4934,
      "Ġprofessor": 4935,
      "Ġmotion": 4936,
      "Ġexecut": 4937,
      "11": 4938,
      "ault": 4939,
      "dies": 4940,
      "vy": 4941,
      "Ġtone": 4942,
      "Ġmail": 4943,
      "Ġfal": 4944,
      "Ġnomin": 4945,
      "Ġsociety": 4946,
      "Ġsake": 4947,
      "Ġschools": 4948,
      "Ġ1990": 4949,
      "Ġversion": 4950,
      "Ġnormal": 4951,
      "sive": 4952,
      "ship": 4953,
      "ouched": 4954,
      "Ġign": 4955,
      "Ġghost": 4956,
      "aching": 4957,
      "Ġplat": 4958,
      "bey": 4959,
      "Ġretired": 4960,
      "ĠZealand": 4961,
      "Ġess": 4962,
      "ooks": 4963,
      "inda": 4964,
      "issippi": 4965,
      "Ġchanges": 4966,
      "Ġpapers": 4967,
      "Ġfrogs": 4968,
      "fortun": 4969,
      "ĠRobin": 4970,
      "Ġcruel": 4971,
      "Ġpound": 4972,
      "ĠSee": 4973,
      "Ġopening": 4974,
      "Ġcentral": 4975,
      "back": 4976,
      "Ġdun": 4977,
      "omm": 4978,
      "ĠCome": 4979,
      "ĠDel": 4980,
      "Ġworst": 4981,
      "Ġ2000": 4982,
      "Ġloll": 4983,
      "Ġmatches": 4984,
      "Ġeasier": 4985,
      "ĠAustrian": 4986,
      "ĠGuy": 4987,
      "ĠAgnes": 4988,
      "uf": 4989,
      "Ġfold": 4990,
      "lend": 4991,
      "Ġforces": 4992,
      "imate": 4993,
      "ĠGreen": 4994,
      "Ġvot": 4995,
      "Ġuseta": 4996,
      "Ġwaited": 4997,
      "Ġconcerned": 4998,
      "Ġmodel": 4999,
      "Ġoranges": 5000,
      "So": 5001,
      "Ġbare": 5002,
      "Ġfond": 5003,
      "ĠIreland": 5004,
      "ĠCO": 5005,
      "Ġsuc": 5006,
      "Ġhelmet": 5007,
      "Ġseriously": 5008,
      "Ġconstit": 5009,
      "lected": 5010,
      "Ġwilling": 5011,
      "Ġprevent": 5012,
      "Ġjoke": 5013,
      "ilda": 5014,
      "Ġattend": 5015,
      "Ġforgive": 5016,
      "Ġcarrying": 5017,
      "Ġestablished": 5018,
      "craft": 5019,
      "ero": 5020,
      "rial": 5021,
      "ĠTown": 5022,
      "Ġuniversity": 5023,
      "iety": 5024,
      "Ġrocks": 5025,
      "Ġmedical": 5026,
      "Ġsteal": 5027,
      "keep": 5028,
      "ĠTim": 5029,
      "ĠWestern": 5030,
      "Ġplants": 5031,
      "avar": 5032,
      "Ġsmaller": 5033,
      "Ġwindows": 5034,
      "Ġsigned": 5035,
      "ĠScott": 5036,
      "Ġforgotten": 5037,
      "Ġblanket": 5038,
      "ials": 5039,
      "aki": 5040,
      "Ġproceed": 5041,
      "Ġbabies": 5042,
      "Ġsucceed": 5043,
      "gent": 5044,
      "pher": 5045,
      "Ġtheory": 5046,
      "ĠDay": 5047,
      "Ġtext": 5048,
      "place": 5049,
      "Ġfinding": 5050,
      "ĠAssociation": 5051,
      "ĠIslam": 5052,
      "Ġmaj": 5053,
      "199": 5054,
      "ĠBritain": 5055,
      "ĠCollege": 5056,
      "ĠScotland": 5057,
      "Ġconversation": 5058,
      "Ġtongue": 5059,
      "gt": 5060,
      "Ġwished": 5061,
      "erman": 5062,
      "Ġbones": 5063,
      "otion": 5064,
      "ĠBas": 5065,
      "olars": 5066,
      "ĠJoseph": 5067,
      "Ġamb": 5068,
      "ĠBefore": 5069,
      "ĠIsland": 5070,
      "Ġleaders": 5071,
      "ĠFlor": 5072,
      "Ġservices": 5073,
      "Ġdefend": 5074,
      "sych": 5075,
      "ĠAfrica": 5076,
      "Ġshadow": 5077,
      "bly": 5078,
      "Ġx": 5079,
      "ada": 5080,
      "ĠMissouri": 5081,
      "Ġpowerful": 5082,
      "Ġoccasion": 5083,
      "icycle": 5084,
      "ĠIr": 5085,
      "Ġliber": 5086,
      "ĠFil": 5087,
      "Ġwalls": 5088,
      "ĠCanadian": 5089,
      "Ġhighest": 5090,
      "ĠSuper": 5091,
      "bet": 5092,
      "mark": 5093,
      "ĠSince": 5094,
      "Ġprove": 5095,
      "udd": 5096,
      "ĠMississippi": 5097,
      "Ġaware": 5098,
      "Ġburst": 5099,
      "Ġreligious": 5100,
      "ĠCareer": 5101,
      "ĠDistrict": 5102,
      "face": 5103,
      "Ġbother": 5104,
      "Ġpurs": 5105,
      "cel": 5106,
      "ĠPolly": 5107,
      "Ġdownstairs": 5108,
      "rows": 5109,
      "bon": 5110,
      "Ġted": 5111,
      "ĠThank": 5112,
      "Ġwheels": 5113,
      "ĠWil": 5114,
      "ĠGar": 5115,
      "Ġ2001": 5116,
      "ĠEdward": 5117,
      "ĠRoyal": 5118,
      "ĠBecky": 5119,
      "Ġavailable": 5120,
      "IT": 5121,
      "Ġbomb": 5122,
      "Ġcensus": 5123,
      "Ġweight": 5124,
      "ĠBur": 5125,
      "Ġja": 5126,
      "ustr": 5127,
      "ĠPope": 5128,
      "Ġshock": 5129,
      "iano": 5130,
      "Ġeverywhere": 5131,
      "Ġ32": 5132,
      "Ġcreature": 5133,
      "Ġclouds": 5134,
      "melon": 5135,
      "die": 5136,
      "ule": 5137,
      "Ġinvent": 5138,
      "ado": 5139,
      "ola": 5140,
      "ĠRom": 5141,
      "Ġfeelings": 5142,
      "gery": 5143,
      "Ġlollip": 5144,
      "oly": 5145,
      "Ġsite": 5146,
      "Ġocean": 5147,
      "Ġbang": 5148,
      "ening": 5149,
      "Ġrise": 5150,
      "Ġordered": 5151,
      "Ġloves": 5152,
      "Ġadult": 5153,
      "Ġplanet": 5154,
      "Ġapolog": 5155,
      "las": 5156,
      "Ġwaste": 5157,
      "rif": 5158,
      "Ġdism": 5159,
      "Ġbringing": 5160,
      "Ġstreets": 5161,
      "Ġbowl": 5162,
      "Ġrelationship": 5163,
      "year": 5164,
      "Ġcases": 5165,
      "Ġfurn": 5166,
      "Ġgeor": 5167,
      "riff": 5168,
      "ĠDar": 5169,
      "ĠFC": 5170,
      "ĠEven": 5171,
      "Ġkeeps": 5172,
      "Ġpolicy": 5173,
      "Ġyounger": 5174,
      "Ġrelease": 5175,
      "Ġevil": 5176,
      "Ġgradu": 5177,
      "cake": 5178,
      "Ġbon": 5179,
      "Ġpears": 5180,
      "ĠSk": 5181,
      "\"?": 5182,
      "eed": 5183,
      "inal": 5184,
      "Ġcong": 5185,
      "ching": 5186,
      "Ġjung": 5187,
      "Ġrode": 5188,
      "Ġneedta": 5189,
      "izing": 5190,
      "Ġfamilies": 5191,
      "Ġsalt": 5192,
      "ĠMajor": 5193,
      "Ġyard": 5194,
      "rig": 5195,
      "ĠBoy": 5196,
      "Ġconqu": 5197,
      "Ġsmoke": 5198,
      "Ġstarts": 5199,
      "Ġdefinitely": 5200,
      "Ġhanging": 5201,
      "Ġcamera": 5202,
      "Ġmap": 5203,
      "ential": 5204,
      "semb": 5205,
      "Ġjew": 5206,
      "ĠJos": 5207,
      "Ġserve": 5208,
      "ansas": 5209,
      "Ġpickle": 5210,
      "Ġplanning": 5211,
      "ĠSwed": 5212,
      "Ġtarget": 5213,
      "rick": 5214,
      "Ġwore": 5215,
      "Ġdish": 5216,
      "Ġfaster": 5217,
      "iring": 5218,
      "Ġupset": 5219,
      "Ġweekend": 5220,
      "Ġforeign": 5221,
      "Ġgrandfather": 5222,
      "Ġreported": 5223,
      "Ġcopy": 5224,
      "Ġsuccessful": 5225,
      "Ġcomfortable": 5226,
      "Ġcompanies": 5227,
      "Ġreligion": 5228,
      "Ġdegree": 5229,
      "Ġmedicine": 5230,
      "15": 5231,
      "was": 5232,
      "Ġsilly": 5233,
      "Ġmerc": 5234,
      "Ġfaces": 5235,
      "ented": 5236,
      "Ġsomewhat": 5237,
      "Ġwatermelon": 5238,
      "Ġcondition": 5239,
      "Ġdeveloped": 5240,
      "bi": 5241,
      "Ġreign": 5242,
      "Ġdose": 5243,
      "Ġguil": 5244,
      "rans": 5245,
      "ĠCatholic": 5246,
      "Ġsausage": 5247,
      "Ġodd": 5248,
      "Ġbike": 5249,
      "Ġgift": 5250,
      "icles": 5251,
      "Ġstyle": 5252,
      "ĠFar": 5253,
      "Ġsurely": 5254,
      "Ġ189": 5255,
      "Ġaddition": 5256,
      "Ġstrike": 5257,
      "Ġfailed": 5258,
      "ĠGreek": 5259,
      "RE": 5260,
      "rant": 5261,
      "Ġcities": 5262,
      "Ġlap": 5263,
      "ĠCongress": 5264,
      "Ġships": 5265,
      "ĠJud": 5266,
      "ĠUk": 5267,
      "Ġparticip": 5268,
      "Ġglo": 5269,
      "Ġwondering": 5270,
      "Ġcabin": 5271,
      "ga": 5272,
      "thur": 5273,
      "ĠFore": 5274,
      "Ġdepend": 5275,
      "Ġlands": 5276,
      "Ġguns": 5277,
      "ĠJapanese": 5278,
      "ĠDemocratic": 5279,
      "Ġnarrow": 5280,
      "yes": 5281,
      "Ġbunch": 5282,
      "Ġmale": 5283,
      "Ġshoe": 5284,
      "estival": 5285,
      "ĠOther": 5286,
      "rences": 5287,
      "Ġmagaz": 5288,
      "Ġlaws": 5289,
      "Ġscarcely": 5290,
      "Ġrisk": 5291,
      "Ġet": 5292,
      "Ġkick": 5293,
      "ctors": 5294,
      "opher": 5295,
      "Ġcarriage": 5296,
      "oston": 5297,
      "Ġbedroom": 5298,
      "Ġenter": 5299,
      "Ġcircum": 5300,
      "Ġremembered": 5301,
      "Ġnervous": 5302,
      "mission": 5303,
      "Ġmud": 5304,
      "ental": 5305,
      "aming": 5306,
      "Ġrac": 5307,
      "Ġflo": 5308,
      "Ġleague": 5309,
      "ĠChina": 5310,
      "Ġmatters": 5311,
      "Ġincluded": 5312,
      "Ġsalad": 5313,
      "ĠAustria": 5314,
      "Ġpotatoes": 5315,
      "Ġlollipop": 5316,
      "Ġbone": 5317,
      "Ġbunny": 5318,
      "Ġmam": 5319,
      "Ġforced": 5320,
      "ĠMummy": 5321,
      "ĠCons": 5322,
      "ĠBrian": 5323,
      "Ġsomehow": 5324,
      "Ġtroub": 5325,
      "ena": 5326,
      "esome": 5327,
      "Ġplus": 5328,
      "zza": 5329,
      "gging": 5330,
      "ĠChinese": 5331,
      "Ġbecoming": 5332,
      "Ġstaying": 5333,
      "Ġcandid": 5334,
      "Ġvictory": 5335,
      "Ġmac": 5336,
      "Ġreve": 5337,
      "ĠSun": 5338,
      "this": 5339,
      "asty": 5340,
      "Ġexerc": 5341,
      "Ġotherwise": 5342,
      "Ġblame": 5343,
      "Ġmedal": 5344,
      "Ġclearly": 5345,
      "Ġinnoc": 5346,
      "zer": 5347,
      "Ġtie": 5348,
      "imb": 5349,
      "Ġkm": 5350,
      "ĠMos": 5351,
      "ĠCat": 5352,
      "Ġsplend": 5353,
      "Ġserving": 5354,
      "ĠMaria": 5355,
      "Ġkidding": 5356,
      "Ġprisoners": 5357,
      "ĠMerle": 5358,
      "uan": 5359,
      "Ġcourage": 5360,
      "ĠTri": 5361,
      "ima": 5362,
      "Ġancient": 5363,
      "Ġpean": 5364,
      "Ġchap": 5365,
      "Ġtraffic": 5366,
      "Ġpolic": 5367,
      "Ġkingdom": 5368,
      "Ġfigures": 5369,
      "ĠEmpire": 5370,
      "LL": 5371,
      "Ġcit": 5372,
      "Ġcad": 5373,
      "itar": 5374,
      "ĠHel": 5375,
      "Ġshh": 5376,
      "ibility": 5377,
      "ĠProvince": 5378,
      "Ġperforman": 5379,
      "16": 5380,
      "Ġwinning": 5381,
      "Ġfence": 5382,
      "Ġheat": 5383,
      "ĠAEW": 5384,
      "ĠHol": 5385,
      "ĠFe": 5386,
      "Ġsurround": 5387,
      "Ġhearts": 5388,
      "Ġadvice": 5389,
      "Ġveget": 5390,
      "Ġclimate": 5391,
      "Ġissue": 5392,
      "Ġrepeated": 5393,
      "law": 5394,
      "phe": 5395,
      "tt": 5396,
      "Ġfac": 5397,
      "Ġpra": 5398,
      "atory": 5399,
      "Ġroyal": 5400,
      "Ġ188": 5401,
      "ĠWilliams": 5402,
      "ishment": 5403,
      "Ġbrad": 5404,
      "Ġadop": 5405,
      "Ġstring": 5406,
      "Ġgenerally": 5407,
      "Ġorganization": 5408,
      "ĠDonald": 5409,
      "Ġwhispered": 5410,
      "Ġinit": 5411,
      "Ġhiding": 5412,
      "kel": 5413,
      "ĠSim": 5414,
      "ĠScient": 5415,
      "Ġsection": 5416,
      "ĠBoston": 5417,
      "Ġgrey": 5418,
      "Ġsalami": 5419,
      "AS": 5420,
      "has": 5421,
      "hand": 5422,
      "Ġpsych": 5423,
      "asy": 5424,
      "ĠSea": 5425,
      "road": 5426,
      "Ġshell": 5427,
      "fection": 5428,
      "Ġves": 5429,
      "Ġpros": 5430,
      "Ġresc": 5431,
      "Ġhearing": 5432,
      "Ġdrawing": 5433,
      "Ġhasta": 5434,
      "hal": 5435,
      "Ġdeck": 5436,
      "Ġdepart": 5437,
      "Ġfifth": 5438,
      "Ġbrand": 5439,
      "Ġpressure": 5440,
      "Ġopinion": 5441,
      "Ġfreed": 5442,
      "chief": 5443,
      "ĠBund": 5444,
      "hant": 5445,
      "Ġpartner": 5446,
      "Ġdishes": 5447,
      "Ġadminist": 5448,
      "Ġthoughts": 5449,
      "Ġchest": 5450,
      "Ġmountains": 5451,
      "ĠAccording": 5452,
      "ĠSecretary": 5453,
      "BC": 5454,
      "US": 5455,
      "ients": 5456,
      "Ġpred": 5457,
      "Ġlem": 5458,
      "isions": 5459,
      "acon": 5460,
      "roll": 5461,
      "ĠLos": 5462,
      "Ġpresents": 5463,
      "Ġchristmas": 5464,
      "Ġweapons": 5465,
      "writer": 5466,
      "Ġwine": 5467,
      "Ġsam": 5468,
      "Ġbrief": 5469,
      "ĠCont": 5470,
      "----": 5471,
      "Ġproperty": 5472,
      "Ġcurrently": 5473,
      "Ġappearance": 5474,
      "ĠAngela": 5475,
      "ĠGovernment": 5476,
      "ĠUrsula": 5477,
      "yr": 5478,
      "Ġpale": 5479,
      "Ġnation": 5480,
      "ĠMavis": 5481,
      "ols": 5482,
      "ĠJenn": 5483,
      "Ġchuck": 5484,
      "Ġsnake": 5485,
      "Ġ1980": 5486,
      "Ġvalue": 5487,
      "ĠAbout": 5488,
      "ĠAuntie": 5489,
      "aves": 5490,
      "Ġtun": 5491,
      "Ġachie": 5492,
      "Ġdim": 5493,
      "ĠAct": 5494,
      "ability": 5495,
      "Ġscrew": 5496,
      "Ġactive": 5497,
      "Ġdesk": 5498,
      "Ġoblig": 5499,
      "Ġentertain": 5500,
      "Ġmedia": 5501,
      "Ġproduction": 5502,
      "Ġburning": 5503,
      "Ġholes": 5504,
      "ĠPrime": 5505,
      "Ġindustry": 5506,
      "ĠAcademy": 5507,
      "Ġpit": 5508,
      "ĠCos": 5509,
      "ĠRock": 5510,
      "ello": 5511,
      "Ġshape": 5512,
      "engers": 5513,
      "Ġcritic": 5514,
      "Ġarrested": 5515,
      "gers": 5516,
      "Ġalpha": 5517,
      "hanks": 5518,
      "Ġhorri": 5519,
      "ĠPrin": 5520,
      "Ġdisappeared": 5521,
      "bour": 5522,
      "Ġtooth": 5523,
      "ann": 5524,
      "Ġnest": 5525,
      "ĠMore": 5526,
      "Ġgoal": 5527,
      "ĠHave": 5528,
      "istic": 5529,
      "Ġpurple": 5530,
      "Ġpony": 5531,
      "Ġthroat": 5532,
      "Ġfork": 5533,
      "Ġstir": 5534,
      "Ġhadta": 5535,
      "Ġshoulder": 5536,
      "Ġexcit": 5537,
      "Ġplanned": 5538,
      "Ġ1960": 5539,
      "Ġlegal": 5540,
      "Ġhorsie": 5541,
      "yeah": 5542,
      "za": 5543,
      "Ġtouched": 5544,
      "Ġbiggest": 5545,
      "Ġ1995": 5546,
      "ÃŃt": 5547,
      "Ġdarkness": 5548,
      "ING": 5549,
      "ĠMargaret": 5550,
      "Ġlibrary": 5551,
      "In": 5552,
      "ii": 5553,
      "rison": 5554,
      "Ġmama": 5555,
      "Ġchat": 5556,
      "ĠFort": 5557,
      "Ġcode": 5558,
      "Ġrelax": 5559,
      "Ġquietly": 5560,
      "Ġpalace": 5561,
      "ĠGovernor": 5562,
      "aun": 5563,
      "bur": 5564,
      "Ġpil": 5565,
      "Ġanti": 5566,
      "Ġash": 5567,
      "ube": 5568,
      "ĠChief": 5569,
      "Ġfriendly": 5570,
      "they": 5571,
      "Ġtransl": 5572,
      "box": 5573,
      "ĠMexico": 5574,
      "friend": 5575,
      "war": 5576,
      "erable": 5577,
      "Ġborder": 5578,
      "Ġlone": 5579,
      "Ġnorthern": 5580,
      "Ġfrank": 5581,
      "ĠGers": 5582,
      "ggy": 5583,
      "Ġsorts": 5584,
      "Ġbuddy": 5585,
      "Ġmixed": 5586,
      "Ġweapon": 5587,
      "aid": 5588,
      "Ġmyster": 5589,
      "ĠFour": 5590,
      "Ġchase": 5591,
      "Ġowner": 5592,
      "Ġaccess": 5593,
      "Ġvessel": 5594,
      "ua": 5595,
      "Ġtal": 5596,
      "Ġwra": 5597,
      "irlf": 5598,
      "alled": 5599,
      "Ġrout": 5600,
      "Ġshr": 5601,
      "athy": 5602,
      "ĠThree": 5603,
      "Ġpresence": 5604,
      "Ġuseful": 5605,
      "Ġbuildings": 5606,
      "Ġglasses": 5607,
      "yan": 5608,
      "astern": 5609,
      "ette": 5610,
      "Ġdoors": 5611,
      "Ġstaff": 5612,
      "Ġscore": 5613,
      "Ġ1998": 5614,
      "Ġcats": 5615,
      "Ġdrove": 5616,
      "Ġsilent": 5617,
      "Ġtransport": 5618,
      "Ġdelicious": 5619,
      "ID": 5620,
      "iest": 5621,
      "lican": 5622,
      "nan": 5623,
      "Ġtear": 5624,
      "ĠServ": 5625,
      "ĠRay": 5626,
      "ĠEst": 5627,
      "ĠJake": 5628,
      "Ġprint": 5629,
      "Ġunfortun": 5630,
      "Ġpregn": 5631,
      "Ġ2002": 5632,
      "Ġdestroyed": 5633,
      "ether": 5634,
      "ĠHor": 5635,
      "Ġrushed": 5636,
      "Ġboats": 5637,
      "Ġchop": 5638,
      "Ġpoison": 5639,
      "Ġadvert": 5640,
      "Ġsentence": 5641,
      "Ġgrandmother": 5642,
      "Ġservant": 5643,
      "Ġfairly": 5644,
      "Come": 5645,
      "{\\": 5646,
      "Ġ/": 5647,
      "ading": 5648,
      "ĠPan": 5649,
      "Ġriding": 5650,
      "ĠWent": 5651,
      "ulous": 5652,
      "Ġspecific": 5653,
      "ropol": 5654,
      "irlfriend": 5655,
      "Not": 5656,
      "Ġmort": 5657,
      "Ġce": 5658,
      "ancial": 5659,
      "ata": 5660,
      "Ġbee": 5661,
      "Ġrank": 5662,
      "ĠRel": 5663,
      "quar": 5664,
      "Ġsmiling": 5665,
      "Ġapples": 5666,
      "Ġdesert": 5667,
      "Ġhurried": 5668,
      "Ġunderstood": 5669,
      "Ġintellig": 5670,
      "Ġlake": 5671,
      "Ġnuh": 5672,
      "ĠTV": 5673,
      "ĠSomet": 5674,
      "ĠMount": 5675,
      "Ġchoo": 5676,
      "Ġ186": 5677,
      "Ġcupcake": 5678,
      "asing": 5679,
      "aly": 5680,
      "iece": 5681,
      "Ġrod": 5682,
      "Ġquit": 5683,
      "Ġrare": 5684,
      "ucky": 5685,
      "ailed": 5686,
      "Ġclever": 5687,
      "ĠArt": 5688,
      "Ġ1999": 5689,
      "Ġhandsome": 5690,
      "Ġgovernor": 5691,
      "Ġcookie": 5692,
      "Ġmainly": 5693,
      "Ġwitness": 5694,
      "utenant": 5695,
      "14": 5696,
      "Ġwoo": 5697,
      "Ġcards": 5698,
      "Ġlies": 5699,
      "ĠBan": 5700,
      "ĠKent": 5701,
      "Ġ1994": 5702,
      "Ġveh": 5703,
      "ĠAngeles": 5704,
      "Ġapparently": 5705,
      "All": 5706,
      "Ġfired": 5707,
      "Ġfier": 5708,
      "ension": 5709,
      "Ġ1996": 5710,
      "Ġfallen": 5711,
      "Ġsticks": 5712,
      "Ġthousands": 5713,
      "Ġpositive": 5714,
      "Ġmultip": 5715,
      "ĠLabour": 5716,
      "uries": 5717,
      "Ġtough": 5718,
      "lear": 5719,
      "ĠMaine": 5720,
      "ĠHu": 5721,
      "olar": 5722,
      "Ġsports": 5723,
      "ĠVir": 5724,
      "ounce": 5725,
      "Ġtreated": 5726,
      "Ġdivor": 5727,
      "Ġtournament": 5728,
      "Ġtradition": 5729,
      "Ġpillow": 5730,
      "zo": 5731,
      "Ġlosing": 5732,
      "arr": 5733,
      "Ġren": 5734,
      "...?": 5735,
      "uments": 5736,
      "ĠList": 5737,
      "Ġtruly": 5738,
      "Ġinvited": 5739,
      "Ġpriest": 5740,
      "ĠPlay": 5741,
      "ĠEarl": 5742,
      "ĠDisney": 5743,
      "ĠScientists": 5744,
      "Tilda": 5745,
      "corder": 5746,
      "Ġpor": 5747,
      "Ġgain": 5748,
      "isher": 5749,
      "add": 5750,
      "urb": 5751,
      "Ġshame": 5752,
      "Ġburied": 5753,
      "Ġjoe": 5754,
      "Ġprotest": 5755,
      "Ġfairy": 5756,
      "eks": 5757,
      "och": 5758,
      "there": 5759,
      "Ġaver": 5760,
      "ani": 5761,
      "ano": 5762,
      "Ġpity": 5763,
      "Ġgy": 5764,
      "ett": 5765,
      "Ġbeer": 5766,
      "Ġreasons": 5767,
      "Ġjesus": 5768,
      "Ġdrama": 5769,
      "Ġrealize": 5770,
      "Ġtowns": 5771,
      "Ġexciting": 5772,
      "Ġ1970": 5773,
      "Ġevident": 5774,
      "Ġenjoyed": 5775,
      "Ġshooting": 5776,
      "ĠPortug": 5777,
      "Ġsouthwestern": 5778,
      "Ġwedding": 5779,
      "athan": 5780,
      "Ġvent": 5781,
      "ĠMarie": 5782,
      "Ġdesce": 5783,
      "Ġbarn": 5784,
      "ĠAustralian": 5785,
      "ĠTurk": 5786,
      "Ġcitiz": 5787,
      "who": 5788,
      "Ã¦": 5789,
      "Ġfan": 5790,
      "ĠSil": 5791,
      "Ġprefer": 5792,
      "Ġfourteen": 5793,
      "Ġpassing": 5794,
      "ĠRecords": 5795,
      "Ġdess": 5796,
      "Ġtower": 5797,
      "Ġwhoops": 5798,
      "stand": 5799,
      "agn": 5800,
      "Ġafford": 5801,
      "Ġdese": 5802,
      "Ġbreaking": 5803,
      "Ġrelated": 5804,
      "Ġmaid": 5805,
      "ĠWalter": 5806,
      "Ġ0": 5807,
      "Ġbeast": 5808,
      "Ġarrange": 5809,
      "Ġmission": 5810,
      "Ġphilos": 5811,
      "ĠSusan": 5812,
      "Ġdessert": 5813,
      "jamin": 5814,
      "Ġaim": 5815,
      "Ġbicycle": 5816,
      "oni": 5817,
      "istry": 5818,
      "Ġcompos": 5819,
      "Ġkilling": 5820,
      "Ġlistened": 5821,
      "Ġpresently": 5822,
      "Ġcircumst": 5823,
      "wo": 5824,
      "Ġwestern": 5825,
      "Ġmart": 5826,
      "Ġpow": 5827,
      "icide": 5828,
      "urance": 5829,
      "ateg": 5830,
      "Ġconcent": 5831,
      "Ġagre": 5832,
      "ĠStep": 5833,
      "Ġ1992": 5834,
      "Ġteddy": 5835,
      "Ġfant": 5836,
      "osen": 5837,
      "Ġspill": 5838,
      "Ġuses": 5839,
      "Ġacting": 5840,
      "Ġlessons": 5841,
      "Ġcreate": 5842,
      "Ġfortune": 5843,
      "Ġopposite": 5844,
      "onse": 5845,
      "Ġreview": 5846,
      "acha": 5847,
      "Ġkang": 5848,
      "Ġwhoo": 5849,
      "ĠBig": 5850,
      "Ġbodies": 5851,
      "ague": 5852,
      "ĠVal": 5853,
      "ĠAsian": 5854,
      "Ġlocation": 5855,
      "ĠCarol": 5856,
      "Ġexpress": 5857,
      "Ġhoping": 5858,
      "Ġmajesty": 5859,
      "gle": 5860,
      "ware": 5861,
      "Ġast": 5862,
      "Ġthin": 5863,
      "ĠAny": 5864,
      "Ġsuffe": 5865,
      "rene": 5866,
      "Ġcheap": 5867,
      "Ġapartment": 5868,
      "Ġprovince": 5869,
      "Ġsnap": 5870,
      "Ġexcitement": 5871,
      "bby": 5872,
      "heast": 5873,
      "Ġshel": 5874,
      "Ġcreatures": 5875,
      "Ġmirror": 5876,
      "Ġsettlement": 5877,
      "Ġindependent": 5878,
      "stein": 5879,
      "Ġsplendid": 5880,
      "',": 5881,
      "12": 5882,
      "ev": 5883,
      "ugg": 5884,
      "Ġnative": 5885,
      "icans": 5886,
      "ĠMi": 5887,
      "Ġsheep": 5888,
      "Ġseconds": 5889,
      "ibb": 5890,
      "bridge": 5891,
      "Ġteaching": 5892,
      "Ġknocked": 5893,
      "Ġfields": 5894,
      "ĠMartin": 5895,
      "vest": 5896,
      "oria": 5897,
      "ĠPers": 5898,
      "ĠLife": 5899,
      "Ġcomment": 5900,
      "eping": 5901,
      "ĠOut": 5902,
      "ogether": 5903,
      "Ġslipp": 5904,
      "ĠComp": 5905,
      "ĠGroup": 5906,
      "ĠCentral": 5907,
      "iliar": 5908,
      "Ġlonely": 5909,
      "Ġgirlfriend": 5910,
      "Ġrush": 5911,
      "Ġshook": 5912,
      "Ġrefused": 5913,
      "Ġrange": 5914,
      "Ġrequest": 5915,
      "Ġresponsible": 5916,
      "ĠWentworth": 5917,
      "'...": 5918,
      "Ġsigh": 5919,
      "Ġooh": 5920,
      "oned": 5921,
      "onia": 5922,
      "aning": 5923,
      "Ġloose": 5924,
      "ĠApp": 5925,
      "ĠArab": 5926,
      "ĠBest": 5927,
      "Ġremoved": 5928,
      "Ġraise": 5929,
      "Ġairport": 5930,
      "Ġlearning": 5931,
      "Ġrecorded": 5932,
      "Ġformula": 5933,
      "ĠSecond": 5934,
      "Ġamerican": 5935,
      "Ġhorn": 5936,
      "tery": 5937,
      "Ġspo": 5938,
      "Ġours": 5939,
      "Ġtransfer": 5940,
      "ervation": 5941,
      "Ġrespond": 5942,
      "ĠIrish": 5943,
      "Ġ{\\": 5944,
      "Ġmemor": 5945,
      "ĠDen": 5946,
      "Ġprogress": 5947,
      "Ġbadly": 5948,
      "Ġgodd": 5949,
      "bar": 5950,
      "hem": 5951,
      "Ġcone": 5952,
      "aring": 5953,
      "ĠDa": 5954,
      "Ġfeather": 5955,
      "Ġguitar": 5956,
      "Ġchosen": 5957,
      "Ġsche": 5958,
      "erecorder": 5959,
      "Ġhmm": 5960,
      "Ġdistributed": 5961,
      "Ġmethod": 5962,
      "Ġfellows": 5963,
      "Ġreceive": 5964,
      "Ġdaisy": 5965,
      "ĠColumb": 5966,
      "avaria": 5967,
      "Ġguilty": 5968,
      "ias": 5969,
      "ios": 5970,
      "Ġsons": 5971,
      "Ġcups": 5972,
      "Ġpure": 5973,
      "Ġjim": 5974,
      "Ġchampion": 5975,
      "Ġprepar": 5976,
      "Ġindic": 5977,
      "Ġedge": 5978,
      "Ġjobs": 5979,
      "Ġcookies": 5980,
      "Ġtaperecorder": 5981,
      "Ġexpression": 5982,
      "Ġresults": 5983,
      "while": 5984,
      "Ġwid": 5985,
      "Ġsink": 5986,
      "ĠTra": 5987,
      "Ġprince": 5988,
      "Ġgray": 5989,
      "anches": 5990,
      "formed": 5991,
      "Ġstudent": 5992,
      "ĠRev": 5993,
      "Ġ60": 5994,
      "Ġincludes": 5995,
      "Ġcooking": 5996,
      "Ġadvant": 5997,
      "ĠRodger": 5998,
      "Ġcredit": 5999,
      "Ġappreciate": 6000,
      "Ġ[": 6001,
      "Ġrent": 6002,
      "acle": 6003,
      "ĠBavaria": 6004,
      "umps": 6005,
      "emic": 6006,
      "Ġbold": 6007,
      "Ġarran": 6008,
      "Ġthrown": 6009,
      "Ġterrit": 6010,
      "ointment": 6011,
      "Ġdust": 6012,
      "Ġhomes": 6013,
      "ader": 6014,
      "see": 6015,
      "ĠBal": 6016,
      "Ġtroops": 6017,
      "Ġgrant": 6018,
      "Ġuns": 6019,
      "ĠArthur": 6020,
      "ĠScar": 6021,
      "minal": 6022,
      "Ġmaterial": 6023,
      "Ġrapid": 6024,
      "Ġhorrible": 6025,
      "des": 6026,
      "Ġtask": 6027,
      "hamed": 6028,
      "urt": 6029,
      "ĠBa": 6030,
      "ulations": 6031,
      "ĠRon": 6032,
      "Ġwhenever": 6033,
      "Ġvalley": 6034,
      "Ġdesper": 6035,
      "Ġconditions": 6036,
      "Ġentirely": 6037,
      "ĠMickey": 6038,
      "ĠRamsey": 6039,
      "ĠVirgin": 6040,
      "oma": 6041,
      "ĠWall": 6042,
      "ulk": 6043,
      "ulty": 6044,
      "Ġjustice": 6045,
      "ĠStud": 6046,
      "Ġslide": 6047,
      "Ġcrash": 6048,
      "Ġwarri": 6049,
      "Ġ1991": 6050,
      "Ġprim": 6051,
      "ception": 6052,
      "Ġdefeated": 6053,
      "Ġkissed": 6054,
      "Ġcollection": 6055,
      "Ġlocked": 6056,
      "Ġjacket": 6057,
      "Ġconcert": 6058,
      ")}": 6059,
      "Ġnah": 6060,
      "acher": 6061,
      "ĠAND": 6062,
      "urd": 6063,
      "Ġjan": 6064,
      "ĠFI": 6065,
      "Ġconference": 6066,
      "Ġshake": 6067,
      "Ġmighty": 6068,
      "thel": 6069,
      "Ġdrawn": 6070,
      "Ġlarger": 6071,
      "Ġadmit": 6072,
      "Ġpenny": 6073,
      "Ġdirectly": 6074,
      "Ġcustom": 6075,
      "Ġdocument": 6076,
      "Ġsuspic": 6077,
      "fall": 6078,
      "Ġdip": 6079,
      "Ġgang": 6080,
      "rol": 6081,
      "ĠBu": 6082,
      "Ġrat": 6083,
      "Ġbranch": 6084,
      "ĠVan": 6085,
      "Ġexchan": 6086,
      "Ġtreasure": 6087,
      "Ġgrandma": 6088,
      "ĠEarth": 6089,
      "Ġnewspaper": 6090,
      "Ġdetermined": 6091,
      ".--": 6092,
      "car": 6093,
      "xim": 6094,
      "Ġcrew": 6095,
      "acob": 6096,
      "ĠMaster": 6097,
      "elia": 6098,
      "Ġappointed": 6099,
      "Ġcontent": 6100,
      "Ġmeters": 6101,
      "Ġpaying": 6102,
      "bbed": 6103,
      "Ġselling": 6104,
      "Ġeffort": 6105,
      "Ġnuhhuh": 6106,
      "Ġsuffered": 6107,
      "ras": 6108,
      "Ġaid": 6109,
      "Ġboo": 6110,
      "Ġdozen": 6111,
      "Ġug": 6112,
      "stone": 6113,
      "ĠLake": 6114,
      "Ġspare": 6115,
      "Ġpreschool": 6116,
      "Ġavoid": 6117,
      "This": 6118,
      "Ġslept": 6119,
      "Ġtender": 6120,
      "Of": 6121,
      "TV": 6122,
      "book": 6123,
      "fess": 6124,
      "gas": 6125,
      "sters": 6126,
      "eau": 6127,
      "icket": 6128,
      "Ġcontr": 6129,
      "Ġresist": 6130,
      "ĠSocial": 6131,
      "Ġswear": 6132,
      "Ġhurts": 6133,
      "Ġ1981": 6134,
      "Ġcutting": 6135,
      "Ġsignific": 6136,
      "Ġdivided": 6137,
      "Ġdrugs": 6138,
      "Ġperformance": 6139,
      "ED": 6140,
      "iner": 6141,
      "Ġpump": 6142,
      "Ġlou": 6143,
      "Ġrug": 6144,
      "ĠDi": 6145,
      "ĠFoot": 6146,
      "ĠEaster": 6147,
      "Ġbranches": 6148,
      "Ġdelay": 6149,
      "iamond": 6150,
      "Ġissues": 6151,
      "ĠLatin": 6152,
      "Ġproducer": 6153,
      "Ġextremely": 6154,
      "ĠFlorida": 6155,
      "fle": 6156,
      "ko": 6157,
      "tr": 6158,
      "Ġgat": 6159,
      "Ġwithd": 6160,
      "ela": 6161,
      "ĠNana": 6162,
      "ĠOver": 6163,
      "Ġmayor": 6164,
      "ĠAndrew": 6165,
      "Ġbitter": 6166,
      "Ġincrease": 6167,
      "13": 6168,
      "Ã¤": 6169,
      "Ġsixt": 6170,
      "Ġbeans": 6171,
      "ĠSing": 6172,
      "Ġ--": 6173,
      "ĠFair": 6174,
      "ems": 6175,
      "Ġconv": 6176,
      "Ġscreen": 6177,
      "igned": 6178,
      "phy": 6179,
      "Ġsetting": 6180,
      "Ġprize": 6181,
      "Ġsales": 6182,
      "Ġprovide": 6183,
      "Ġsuggested": 6184,
      "stitute": 6185,
      "col": 6186,
      "uing": 6187,
      "Ġtied": 6188,
      "Ġmike": 6189,
      "Ġgay": 6190,
      "ĠCher": 6191,
      "ĠBi": 6192,
      "umn": 6193,
      "ĠRad": 6194,
      "ĠEthel": 6195,
      "ĠLike": 6196,
      "ĠArch": 6197,
      "Ġhonour": 6198,
      "Ġreports": 6199,
      "Ġaffair": 6200,
      "Ġdescribed": 6201,
      "Ġfrench": 6202,
      "Ġgor": 6203,
      "arily": 6204,
      "cho": 6205,
      "ĠLater": 6206,
      "Ġboom": 6207,
      "Ġgrate": 6208,
      "ĠChild": 6209,
      "Ġrecently": 6210,
      "ĠVermont": 6211,
      "Ġtak": 6212,
      "Ġbid": 6213,
      "Ġyum": 6214,
      "Ġder": 6215,
      "Ġpants": 6216,
      "uties": 6217,
      "....": 6218,
      "ĠSqu": 6219,
      "ĠHot": 6220,
      "elled": 6221,
      "emies": 6222,
      "ĠKar": 6223,
      "Ġcontain": 6224,
      "Ġdragon": 6225,
      "Ġattacked": 6226,
      "Ġcrossed": 6227,
      "Ġprincip": 6228,
      "Ġstranger": 6229,
      "Ġsarah": 6230,
      "bell": 6231,
      "lle": 6232,
      "Ġpiano": 6233,
      "Ġgal": 6234,
      "ĠMike": 6235,
      "andra": 6236,
      "ĠGirl": 6237,
      "ĠOl": 6238,
      "ĠUh": 6239,
      "Ġglance": 6240,
      "Ġawesome": 6241,
      "Ġsymb": 6242,
      "ĠSwiss": 6243,
      "Ġfolks": 6244,
      "Ġmagazine": 6245,
      "Ġinnocent": 6246,
      "Ġwealth": 6247,
      "Ġroles": 6248,
      "Ġwrit": 6249,
      "Ġeaten": 6250,
      "Ġfamiliar": 6251,
      "Ġ1993": 6252,
      "Ġauthority": 6253,
      "ĠEmperor": 6254,
      "Ġfalse": 6255,
      "Amer": 6256,
      "nding": 6257,
      "Ġdump": 6258,
      "Ġassoci": 6259,
      "ĠHill": 6260,
      "Ġconce": 6261,
      "Ġpride": 6262,
      "Ġthrone": 6263,
      "Ġfinancial": 6264,
      "Ġpassengers": 6265,
      "ĠOnly": 6266,
      "oking": 6267,
      "ĠClub": 6268,
      "Ġprogramme": 6269,
      "Ġfailure": 6270,
      "Ġchemical": 6271,
      "isa": 6272,
      "ĠHal": 6273,
      "Ġcanton": 6274,
      "ĠDra": 6275,
      "Ġspark": 6276,
      "anche": 6277,
      "Ġ1987": 6278,
      "comune": 6279,
      "ĠBarb": 6280,
      "fficient": 6281,
      "Ġshouted": 6282,
      "Ġbaseball": 6283,
      "cles": 6284,
      "ez": 6285,
      "ipe": 6286,
      "Ġoops": 6287,
      "Ġbren": 6288,
      "ĠLee": 6289,
      "Ġ187": 6290,
      "Ġ1997": 6291,
      "Ġbeneath": 6292,
      "Ġvoices": 6293,
      "!--": 6294,
      "Good": 6295,
      "coh": 6296,
      "low": 6297,
      "Ġsouthern": 6298,
      "Ġmate": 6299,
      "ĠMur": 6300,
      "Ġsees": 6301,
      "raine": 6302,
      "Ġspite": 6303,
      "Ġthroughout": 6304,
      "Ġends": 6305,
      "Ġpossess": 6306,
      "Ġmarked": 6307,
      "Ġburned": 6308,
      "Ġhidden": 6309,
      "down": 6310,
      "gian": 6311,
      "iation": 6312,
      "Ġox": 6313,
      "Ġfart": 6314,
      "Ġlic": 6315,
      "Ġnail": 6316,
      "icago": 6317,
      "ĠBull": 6318,
      "ĠHon": 6319,
      "Ġcomedy": 6320,
      "ĠStar": 6321,
      "Ġoldest": 6322,
      "Ġcommander": 6323,
      "Ġincident": 6324,
      "Ġballoon": 6325,
      "Ġdemon": 6326,
      "Ġproposed": 6327,
      "Ġpizza": 6328,
      "Ġscratch": 6329,
      "Ġdetective": 6330,
      "Ġcottage": 6331,
      "Ġdunno": 6332,
      "nam": 6333,
      "sk": 6334,
      "esh": 6335,
      "esota": 6336,
      "entine": 6337,
      "Ġgettin": 6338,
      "Ġcomr": 6339,
      "ĠYear": 6340,
      "Ġhappiness": 6341,
      "Ġinvol": 6342,
      "Ġhated": 6343,
      "Ġstepped": 6344,
      "Ġbelongs": 6345,
      "Ġdesigned": 6346,
      "ĠRepublican": 6347,
      "Ġcommunic": 6348,
      "Ġhunting": 6349,
      "Ġcounter": 6350,
      "Ġfreedom": 6351,
      "Ġdude": 6352,
      "Ġgather": 6353,
      "ams": 6354,
      "amer": 6355,
      "Ġaside": 6356,
      "ĠBay": 6357,
      "ĠDiv": 6358,
      "Ġconsequ": 6359,
      "hib": 6360,
      "Ġsooner": 6361,
      "Ġ1972": 6362,
      "Ġtreatment": 6363,
      "Ġoriginally": 6364,
      "Ġactivist": 6365,
      "Ġpeanut": 6366,
      "case": 6367,
      "wide": 6368,
      "Ġlink": 6369,
      "lyn": 6370,
      "ĠMill": 6371,
      "ĠMax": 6372,
      "Ġsevere": 6373,
      "ĠPict": 6374,
      "Ġproof": 6375,
      "Ġparties": 6376,
      "Ġchallen": 6377,
      "Ġwaves": 6378,
      "Ġobtain": 6379,
      "Ġ1988": 6380,
      "Ġrecording": 6381,
      "Ġsafely": 6382,
      "Ġcharacters": 6383,
      "Ġcompanion": 6384,
      "Ġseparate": 6385,
      "Ġchampionship": 6386,
      "ji": 6387,
      "rot": 6388,
      "Ġwand": 6389,
      "Ġward": 6390,
      "Ġgained": 6391,
      "Ġgira": 6392,
      "Ġhabit": 6393,
      "ĠTor": 6394,
      "ĠAwards": 6395,
      "Ġjul": 6396,
      "ĠYet": 6397,
      "Ġdreadful": 6398,
      "looking": 6399,
      "Ġromantic": 6400,
      "Ġnearer": 6401,
      "ĠMinnesota": 6402,
      "Ġobliged": 6403,
      "lies": 6404,
      "Ġ:": 6405,
      "Ġwicked": 6406,
      "aroo": 6407,
      "achel": 6408,
      "Ġugh": 6409,
      "ĠTy": 6410,
      "ĠBru": 6411,
      "ĠGra": 6412,
      "Ġclown": 6413,
      "ĠKansas": 6414,
      "ints": 6415,
      "Ġcheeks": 6416,
      "uclear": 6417,
      "Ġswall": 6418,
      "Ġreality": 6419,
      "Ġconfess": 6420,
      "Ġ1950": 6421,
      "Ġmurdered": 6422,
      "ĠPerhaps": 6423,
      "inois": 6424,
      "Ġperformed": 6425,
      "Ġassistant": 6426,
      "Ġaverage": 6427,
      "lings": 6428,
      "Ġlack": 6429,
      "oles": 6430,
      "Ġcommer": 6431,
      "ĠKore": 6432,
      "Ġguests": 6433,
      "Ġmoments": 6434,
      "196": 6435,
      "Ġsquee": 6436,
      "Ġgeorge": 6437,
      "Ġpregnant": 6438,
      "Ġgathered": 6439,
      "mouth": 6440,
      "ĠTer": 6441,
      "ĠTrans": 6442,
      "Ġsurface": 6443,
      "Ġinstit": 6444,
      "Ġinterrupt": 6445,
      "Ġreplaced": 6446,
      "Ġfucking": 6447,
      "Ġhenry": 6448,
      "25": 6449,
      "AL": 6450,
      "An": 6451,
      "OU": 6452,
      "bel": 6453,
      "gia": 6454,
      "wing": 6455,
      "orious": 6456,
      "Ġreck": 6457,
      "geon": 6458,
      "ĠWild": 6459,
      "ĠWrest": 6460,
      "Ġalarm": 6461,
      "Ġvain": 6462,
      "Ġproved": 6463,
      "Ġqueer": 6464,
      "ĠUK": 6465,
      "Ġenemies": 6466,
      "ĠStan": 6467,
      "Ġguest": 6468,
      "Ġchose": 6469,
      "Ġrestaur": 6470,
      "Ġ1989": 6471,
      "Ġsecretary": 6472,
      "ealous": 6473,
      "Ġcowboy": 6474,
      "Ġinfluence": 6475,
      "Ġneighborhood": 6476,
      "RI": 6477,
      "bor": 6478,
      "Ġnibb": 6479,
      "Ġrefe": 6480,
      "Ġforms": 6481,
      "Ġnotes": 6482,
      "Ġunf": 6483,
      "Ġresident": 6484,
      "Ġdrunk": 6485,
      "otted": 6486,
      "Ġgreet": 6487,
      "Ġstudies": 6488,
      "ĠSenate": 6489,
      "Ġindividual": 6490,
      "**": 6491,
      "shire": 6492,
      "hemat": 6493,
      "ĠIra": 6494,
      "ĠBour": 6495,
      "ĠHome": 6496,
      "ĠStill": 6497,
      "Ġrooms": 6498,
      "ĠOnce": 6499,
      "Ġpainted": 6500,
      "iverse": 6501,
      "Ġfleet": 6502,
      "Ġpropos": 6503,
      "Ġwagon": 6504,
      "ĠIllinois": 6505,
      "Ġmi": 6506,
      "ashing": 6507,
      "Ġreward": 6508,
      "Ġseats": 6509,
      "igan": 6510,
      "Ġkeys": 6511,
      "ocr": 6512,
      "Ġpicking": 6513,
      "Ġexplained": 6514,
      "Ġexperi": 6515,
      "Ġrepresented": 6516,
      "Ġbroadcast": 6517,
      "Ġexpensive": 6518,
      "san": 6519,
      "ĠLook": 6520,
      "Ġclient": 6521,
      "Ġfever": 6522,
      "ublic": 6523,
      "rank": 6524,
      "Ġcomplic": 6525,
      "Ġcris": 6526,
      "Ġrecomm": 6527,
      "liver": 6528,
      "Ġ1985": 6529,
      "Ġincred": 6530,
      "Ġconfl": 6531,
      "Ġobserved": 6532,
      "which": 6533,
      "ĠBertha": 6534,
      "Ġfeatures": 6535,
      "Ġcircumstances": 6536,
      "works": 6537,
      "happy": 6538,
      "Ġber": 6539,
      "Ġcub": 6540,
      "Ġgates": 6541,
      "ĠLove": 6542,
      "Ġspect": 6543,
      "Ġresour": 6544,
      "Ġ35": 6545,
      "Ġrelief": 6546,
      "ĠJohnson": 6547,
      "Ġlately": 6548,
      "Ġproperly": 6549,
      "Ġrecognize": 6550,
      "Ġpipe": 6551,
      "ĠMuslim": 6552,
      "Ġsource": 6553,
      "rate": 6554,
      "Ġmichael": 6555,
      "Ġpha": 6556,
      "Ġstole": 6557,
      "ĠPop": 6558,
      "Ġplayers": 6559,
      "ĠAlthough": 6560,
      "Ġpapa": 6561,
      "198": 6562,
      "Ġsending": 6563,
      "Ġmiserable": 6564,
      "Ġinvestigation": 6565,
      "Ġsplit": 6566,
      "ropolitan": 6567,
      "Ah": 6568,
      "wan": 6569,
      "Ġtire": 6570,
      "Ġaye": 6571,
      "Ġwal": 6572,
      "ĠSong": 6573,
      "eps": 6574,
      "Ġeats": 6575,
      "Ġcray": 6576,
      "Ġsorrow": 6577,
      "Ġfalls": 6578,
      "Ġprovided": 6579,
      "Ġdaily": 6580,
      "Ġdelighted": 6581,
      "olarship": 6582,
      "21": 6583,
      "iture": 6584,
      "Ġheav": 6585,
      "ato": 6586,
      "ĠThanks": 6587,
      "Ġmeas": 6588,
      "Ġbron": 6589,
      "Ġshoulders": 6590,
      "Ġwaved": 6591,
      "Ġtribe": 6592,
      "ĠIndians": 6593,
      "Ġmagnets": 6594,
      "AC": 6595,
      "win": 6596,
      "had": 6597,
      "Ġmercy": 6598,
      "orter": 6599,
      "aches": 6600,
      "eable": 6601,
      "Ġknees": 6602,
      "usted": 6603,
      "ĠHealth": 6604,
      "ĠVol": 6605,
      "hens": 6606,
      "Ġ1979": 6607,
      "Ġpolitics": 6608,
      "Ġsupported": 6609,
      "ĠTrump": 6610,
      "Ġruled": 6611,
      "lied": 6612,
      "ooth": 6613,
      "Ġaston": 6614,
      "Ġbrill": 6615,
      "Ġpond": 6616,
      "Ġthir": 6617,
      "ĠAlf": 6618,
      "outs": 6619,
      "Ġknee": 6620,
      "gend": 6621,
      "ĠEv": 6622,
      "Ġtravell": 6623,
      "ĠAnne": 6624,
      "Ġ1984": 6625,
      "Ġconduct": 6626,
      "Ġrevolution": 6627,
      "Ġcereal": 6628,
      "AM": 6629,
      "ju": 6630,
      "vo": 6631,
      "Ġsan": 6632,
      "rend": 6633,
      "Ġfully": 6634,
      "Ġthrill": 6635,
      "aylor": 6636,
      "rose": 6637,
      "Ġsav": 6638,
      "Ġrising": 6639,
      "Ġsport": 6640,
      "Ġbegun": 6641,
      "inson": 6642,
      "ĠArmen": 6643,
      "Ġ1986": 6644,
      "197": 6645,
      "Ġlesson": 6646,
      "ĠReport": 6647,
      "Ġeventually": 6648,
      "Ġlifted": 6649,
      "Ġugly": 6650,
      "22": 6651,
      "Be": 6652,
      "OS": 6653,
      "Ġwolf": 6654,
      "Ġmal": 6655,
      "Ġfishing": 6656,
      "Ġfederal": 6657,
      "ingu": 6658,
      "Ġpardon": 6659,
      "Ġthorough": 6660,
      "Ġjam": 6661,
      "ĠNaz": 6662,
      "Ġbooth": 6663,
      "Ġremains": 6664,
      "icted": 6665,
      "Ġbug": 6666,
      "Ġcriter": 6667,
      "Ġbecomes": 6668,
      "Ġwarning": 6669,
      "ika": 6670,
      "Ġpresidential": 6671,
      "Ġapproach": 6672,
      "Ġoperation": 6673,
      "Ġdoggy": 6674,
      "Ġaccepted": 6675,
      "Ġintroduced": 6676,
      "Ġearnest": 6677,
      "40": 6678,
      "overy": 6679,
      "Ġpup": 6680,
      "ĠIN": 6681,
      "stra": 6682,
      "Ġchris": 6683,
      "Ġcommittee": 6684,
      "Ġbreast": 6685,
      "ĠEduc": 6686,
      "Ġdolls": 6687,
      "Ġ90": 6688,
      "Ġballs": 6689,
      "Ġpulling": 6690,
      "Ġgently": 6691,
      "ĠJersey": 6692,
      "American": 6693,
      "OW": 6694,
      "bing": 6695,
      "cest": 6696,
      "song": 6697,
      "Ġwitch": 6698,
      "rets": 6699,
      "erves": 6700,
      "Ġmuseum": 6701,
      "Ġna": 6702,
      "Ġnut": 6703,
      "Ġforb": 6704,
      "Ġmeasure": 6705,
      "rog": 6706,
      "ĠRog": 6707,
      "ĠGames": 6708,
      "Ġhug": 6709,
      "atherine": 6710,
      "rane": 6711,
      "Ġappears": 6712,
      "Ġribb": 6713,
      "Ġsubs": 6714,
      "Ġhorror": 6715,
      "Ġresponse": 6716,
      "Ġdefeat": 6717,
      "Ġbrennan": 6718,
      "TH": 6719,
      "heim": 6720,
      "Ġwing": 6721,
      "ooke": 6722,
      "Ġdoctors": 6723,
      "Ġashamed": 6724,
      "Ġrichard": 6725,
      "ĠGro": 6726,
      "ĠLand": 6727,
      "Ġlog": 6728,
      "pshire": 6729,
      "ĠChris": 6730,
      "Ġmarch": 6731,
      "ugs": 6732,
      "Ġlanded": 6733,
      "Ġsounded": 6734,
      "Ġservants": 6735,
      "Ġroads": 6736,
      "ĠProfess": 6737,
      "Ġadmir": 6738,
      "Ġautom": 6739,
      "Ã³n": 6740,
      "Here": 6741,
      "LD": 6742,
      "Let": 6743,
      "reck": 6744,
      "Ġmos": 6745,
      "Ġcale": 6746,
      "Ġdom": 6747,
      "ĠTam": 6748,
      "Ġsaving": 6749,
      "Ġupside": 6750,
      "ĠJr": 6751,
      "Ġens": 6752,
      "Ġkindly": 6753,
      "Ġminor": 6754,
      "Ġattended": 6755,
      "shine": 6756,
      "Ġrequired": 6757,
      "Ġcritical": 6758,
      "Ġsuffering": 6759,
      "Ġutter": 6760,
      "Ġimprove": 6761,
      "Ġarchite": 6762,
      "ĠJennie": 6763,
      "Ġkangaroo": 6764,
      "Ġnibbled": 6765,
      "Ġcro": 6766,
      "Ġwashed": 6767,
      "ĠPra": 6768,
      "Ġability": 6769,
      "ancing": 6770,
      "Ġawake": 6771,
      "Ġsneak": 6772,
      "Ġestate": 6773,
      "ylvan": 6774,
      "Ġcloset": 6775,
      "Ġelder": 6776,
      "Ġjournalist": 6777,
      "gues": 6778,
      "nels": 6779,
      "then": 6780,
      "Ġobey": 6781,
      "ora": 6782,
      "Ġrear": 6783,
      "ĠBern": 6784,
      "ĠFather": 6785,
      "Ġplastic": 6786,
      "ĠEll": 6787,
      "Ġspin": 6788,
      "aka": 6789,
      "Ġprevious": 6790,
      "Ġsecure": 6791,
      "Ġdesire": 6792,
      "Ġinspect": 6793,
      "Ġcondu": 6794,
      "Ġhoped": 6795,
      "Ġelectric": 6796,
      "Ġtort": 6797,
      "Ġwhisper": 6798,
      "Ġdamage": 6799,
      "ĠMaggie": 6800,
      "Ġfocus": 6801,
      "Ġfile": 6802,
      "Ġhunt": 6803,
      "ĠJam": 6804,
      "ĠJones": 6805,
      "ĠOur": 6806,
      "Ġcovers": 6807,
      "Ġbrush": 6808,
      "ĠVict": 6809,
      "amples": 6810,
      "Ġreply": 6811,
      "Ġdollar": 6812,
      "ĠProt": 6813,
      "ribution": 6814,
      "sembly": 6815,
      "gency": 6816,
      "lar": 6817,
      "Ġtale": 6818,
      "Ġcash": 6819,
      "oring": 6820,
      "omy": 6821,
      "ĠSur": 6822,
      "Ġjury": 6823,
      "Ġjealous": 6824,
      "hia": 6825,
      "Ġarcher": 6826,
      "Ġrope": 6827,
      "Ġtrunk": 6828,
      "Ġprecious": 6829,
      "ĠArgent": 6830,
      "Ġmurd": 6831,
      "Ġrecognized": 6832,
      "Ġawarded": 6833,
      "Ġnetwork": 6834,
      "Ġexercise": 6835,
      "Ġalphabet": 6836,
      "water": 6837,
      "ĠTele": 6838,
      "ĠSpe": 6839,
      "Ġkings": 6840,
      "Ġgoals": 6841,
      "Ġ(,": 6842,
      "Ġboot": 6843,
      "Ġscri": 6844,
      "ĠChicago": 6845,
      "aws": 6846,
      "Ġstandard": 6847,
      "Ġtrem": 6848,
      "Ġbloody": 6849,
      "Ġforests": 6850,
      "Ġgarage": 6851,
      "ĠNorway": 6852,
      "Ġpersu": 6853,
      "Ġsatisfied": 6854,
      "Ġlatter": 6855,
      "Ġvirus": 6856,
      "keeper": 6857,
      "ĠFootball": 6858,
      "lav": 6859,
      "yla": 6860,
      "Ġmum": 6861,
      "Ġfox": 6862,
      "Ġpages": 6863,
      "ati": 6864,
      "Ġstared": 6865,
      "Ġram": 6866,
      "ĠWay": 6867,
      "umed": 6868,
      "ques": 6869,
      "Ġven": 6870,
      "Ġclay": 6871,
      "Ġcloth": 6872,
      "Ġappeal": 6873,
      "Ġ36": 6874,
      "Ġwondered": 6875,
      "Ġaircraft": 6876,
      "Ġeastern": 6877,
      "Ġfactory": 6878,
      "Ġcurtain": 6879,
      "Ġadvance": 6880,
      "ĠCharlie": 6881,
      "Ġspirits": 6882,
      "Ġstatement": 6883,
      "Ġadventure": 6884,
      "ĠCastle": 6885,
      "aunton": 6886,
      "bow": 6887,
      "Ġopt": 6888,
      "Ġfaint": 6889,
      "Ġinha": 6890,
      "Ġhills": 6891,
      "ĠIII": 6892,
      "ĠSue": 6893,
      "Ġhers": 6894,
      "ĠWin": 6895,
      "ĠNick": 6896,
      "Ġspr": 6897,
      "Ġvice": 6898,
      "ĠOff": 6899,
      "Ġdisplay": 6900,
      "Ġsched": 6901,
      "Ġelev": 6902,
      "ĠClara": 6903,
      "Ġrecords": 6904,
      "Ġdivision": 6905,
      "ĠDepartment": 6906,
      "ĠUkraine": 6907,
      "Ġmultiple": 6908,
      "Ġconflict": 6909,
      "Ġpant": 6910,
      "oos": 6911,
      "ĠWould": 6912,
      "ĠYour": 6913,
      "ĠInstitute": 6914,
      "ĠYoung": 6915,
      "ologist": 6916,
      "ĠFloss": 6917,
      "ĠHarry": 6918,
      "Ġequal": 6919,
      "Ġescaped": 6920,
      "Ġgraduated": 6921,
      "Ġjungle": 6922,
      "ĠBundle": 6923,
      "Ġadvantage": 6924,
      "ghan": 6925,
      "Ġnaught": 6926,
      "Ġbeep": 6927,
      "Ġstup": 6928,
      "sell": 6929,
      "Ġwhist": 6930,
      "ĠEach": 6931,
      "apt": 6932,
      "Ġsupply": 6933,
      "Ġeighteen": 6934,
      "ouncill": 6935,
      "Ġjumping": 6936,
      "Ġilleg": 6937,
      "ĠDoctor": 6938,
      "ĠHungry": 6939,
      "Ġstones": 6940,
      "irk": 6941,
      "ĠSix": 6942,
      "ĠSpen": 6943,
      "Ġanger": 6944,
      "ĠBang": 6945,
      "ĠHem": 6946,
      "Ġalcoh": 6947,
      "Ġseek": 6948,
      "owned": 6949,
      "orney": 6950,
      "ĠUE": 6951,
      "Ġunhappy": 6952,
      "augh": 6953,
      "Ġgreatly": 6954,
      "Ġshower": 6955,
      "Ġhipp": 6956,
      "Ġslipped": 6957,
      "Ġdata": 6958,
      "Ġmunicipal": 6959,
      "Ġfortun": 6960,
      "ĠTeam": 6961,
      "ĠStephen": 6962,
      "foot": 6963,
      "Ġsought": 6964,
      "erk": 6965,
      "only": 6966,
      "Ġstove": 6967,
      "Ġseized": 6968,
      "ĠWee": 6969,
      "ĠDoug": 6970,
      "venue": 6971,
      "ĠStaunton": 6972,
      "Ġfarmer": 6973,
      "Ġtrib": 6974,
      "Ġ80": 6975,
      "Ġconfidence": 6976,
      "Ġprisoner": 6977,
      "Ġcosts": 6978,
      "Ã¡n": 6979,
      "Ġlieutenant": 6980,
      "Ġordinary": 6981,
      "Ġsuffer": 6982,
      "ĠMusic": 6983,
      "IR": 6984,
      "cream": 6985,
      "Ġowe": 6986,
      "orry": 6987,
      "Ġpaul": 6988,
      "Ġstol": 6989,
      "ĠSant": 6990,
      "ĠLu": 6991,
      "Ġarmed": 6992,
      "ender": 6993,
      "odes": 6994,
      "Ġmusical": 6995,
      "Ġ1978": 6996,
      "Ġstronger": 6997,
      "Ġboxes": 6998,
      "ĠPhilip": 6999,
      "ĠPhilipp": 7000,
      "Ġsystems": 7001,
      "Ġsoftly": 7002,
      "Where": 7003,
      "fs": 7004,
      "Ġdiss": 7005,
      "Ġthirst": 7006,
      "Ġbears": 7007,
      "iry": 7008,
      "ĠSol": 7009,
      "Ġsauce": 7010,
      "ĠDire": 7011,
      "osh": 7012,
      "Ġflood": 7013,
      "Ġwave": 7014,
      "Ġ38": 7015,
      "Ġtrained": 7016,
      "Ġawfully": 7017,
      "Ġpointed": 7018,
      "Ġhumans": 7019,
      "Ġsquir": 7020,
      "Ġengaged": 7021,
      "ĠCommittee": 7022,
      "Ġtorn": 7023,
      "ĠHampshire": 7024,
      "ĠMexican": 7025,
      "Ġmanagement": 7026,
      "Ġetc": 7027,
      "Ġarranged": 7028,
      "Al": 7029,
      "cow": 7030,
      "mi": 7031,
      "wa": 7032,
      "Ġtip": 7033,
      "Ġtoast": 7034,
      "owing": 7035,
      "utions": 7036,
      "rah": 7037,
      "Ġracing": 7038,
      "Ġaltern": 7039,
      "Ġspy": 7040,
      "ĠKen": 7041,
      "Ġboyfriend": 7042,
      "Ġtremb": 7043,
      "chair": 7044,
      "ĠPrize": 7045,
      "ĠRegion": 7046,
      "Ġwounded": 7047,
      "ĠWrestling": 7048,
      "gment": 7049,
      "py": 7050,
      "will": 7051,
      "Ġcraw": 7052,
      "Ġlung": 7053,
      "Ġupper": 7054,
      "oli": 7055,
      "ĠOliver": 7056,
      "Ġhundreds": 7057,
      "Ġprior": 7058,
      "Ġ1976": 7059,
      "Ġattacks": 7060,
      "Ġthrowing": 7061,
      "Ġphotograph": 7062,
      "Ġconnected": 7063,
      "Ġbasketball": 7064,
      "Ġborrow": 7065,
      "ylvania": 7066,
      "Ġba": 7067,
      "Ġcouch": 7068,
      "Ġdull": 7069,
      "Ġdiamond": 7070,
      "ithe": 7071,
      "icing": 7072,
      "ĠMen": 7073,
      "ĠBad": 7074,
      "ĠHea": 7075,
      "ĠLong": 7076,
      "Ġgotten": 7077,
      "Ġworkers": 7078,
      "Ġresolved": 7079,
      "Ġtrains": 7080,
      "Ġregret": 7081,
      "Ġofficially": 7082,
      "Ġchecked": 7083,
      "Ġstructure": 7084,
      "Ġbreathe": 7085,
      "ĠAldworth": 7086,
      "Ġshopping": 7087,
      "Ġbark": 7088,
      "Ġdough": 7089,
      "ĠSa": 7090,
      "ĠCub": 7091,
      "Ġjail": 7092,
      "Ġshit": 7093,
      "Ġplates": 7094,
      "ĠGal": 7095,
      "ĠUnder": 7096,
      "Ġprem": 7097,
      "zzy": 7098,
      "Ġsciss": 7099,
      "Ġpermission": 7100,
      "Ġdecor": 7101,
      "Ġmillions": 7102,
      "Ġcompleted": 7103,
      "Ġ1930": 7104,
      "Ġdetails": 7105,
      "Ġcurious": 7106,
      "ĠPrincess": 7107,
      "ĠSometimes": 7108,
      "tles": 7109,
      "tons": 7110,
      "why": 7111,
      "Ġpowers": 7112,
      "ĠHan": 7113,
      "Ġache": 7114,
      "Ġ1983": 7115,
      "ĠProd": 7116,
      "Ġequip": 7117,
      "hetti": 7118,
      "Ġrubber": 7119,
      "Ġvictims": 7120,
      "quarters": 7121,
      "Ġfenc": 7122,
      "ĠAyl": 7123,
      "Ġrum": 7124,
      "ulate": 7125,
      "rang": 7126,
      "ollo": 7127,
      "ocks": 7128,
      "Ġdrum": 7129,
      "ĠJohnny": 7130,
      "Ġdiscover": 7131,
      "Ġ1969": 7132,
      "Ġamerica": 7133,
      "ĠRoad": 7134,
      "Ġsympt": 7135,
      "mm": 7136,
      "Ġyork": 7137,
      "Ġdirt": 7138,
      "Ġheight": 7139,
      "ali": 7140,
      "rier": 7141,
      "ĠHy": 7142,
      "unn": 7143,
      "ĠPerson": 7144,
      "ĠPier": 7145,
      "ardo": 7146,
      "Ġscott": 7147,
      "Ġfunction": 7148,
      "ĠAnother": 7149,
      "Ġsignal": 7150,
      "Ġclosely": 7151,
      "Ġmaintain": 7152,
      "Ġmistress": 7153,
      "Ġteachers": 7154,
      "Ġdisappointed": 7155,
      "Ġhyp": 7156,
      "Ġfavourite": 7157,
      "Ġenvironmental": 7158,
      "ĠRevolution": 7159,
      "Ġthirteen": 7160,
      "AD": 7161,
      "WE": 7162,
      "pos": 7163,
      "sm": 7164,
      "zing": 7165,
      "Ġlamb": 7166,
      "ĠNic": 7167,
      "Ġlee": 7168,
      "Ġunus": 7169,
      "Ġrecent": 7170,
      "Ġpassion": 7171,
      "ĠRepresent": 7172,
      "Ġringing": 7173,
      "Ġrolling": 7174,
      "ynam": 7175,
      "Ġdelightful": 7176,
      "Ġtricks": 7177,
      "Ġoccurred": 7178,
      "atre": 7179,
      "ĠSouthern": 7180,
      "eare": 7181,
      "ĠLy": 7182,
      "Ġgrade": 7183,
      "Ġflash": 7184,
      "Ġhanded": 7185,
      "Ġslip": 7186,
      "ensive": 7187,
      "ï¿½ï¿½ï¿½": 7188,
      "Ġcharged": 7189,
      "Ġpassage": 7190,
      "Ġfriendship": 7191,
      "Ġanimated": 7192,
      "Ġevolution": 7193,
      "Ġ1968": 7194,
      "Ġcorpor": 7195,
      "Ġhousing": 7196,
      "ĠIslamic": 7197,
      "Ġrescue": 7198,
      "Ġfarther": 7199,
      "ĠUEFA": 7200,
      "iot": 7201,
      "rough": 7202,
      "vor": 7203,
      "west": 7204,
      "Ġmas": 7205,
      "Ġmood": 7206,
      "iser": 7207,
      "lease": 7208,
      "ĠMiddle": 7209,
      "unting": 7210,
      "umes": 7211,
      "Ġunit": 7212,
      "Ġcommission": 7213,
      "Ġchart": 7214,
      "Ġ1982": 7215,
      "ĠCarle": 7216,
      "Ġencoura": 7217,
      "Ġbillion": 7218,
      "stitution": 7219,
      "ĠJewish": 7220,
      "ĠPictures": 7221,
      "ĠAylmer": 7222,
      "cr": 7223,
      "walk": 7224,
      "Ġwoke": 7225,
      "Ġmak": 7226,
      "Ġpanc": 7227,
      "Ġrings": 7228,
      "ĠWhe": 7229,
      "Ġmob": 7230,
      "Ġtalks": 7231,
      "Ġhelps": 7232,
      "Ġumm": 7233,
      "Ġhousehold": 7234,
      "Ġkinda": 7235,
      "Ġaccused": 7236,
      "Ġinstr": 7237,
      "Ġinstance": 7238,
      "Ġtypes": 7239,
      "Ġphysical": 7240,
      "Ġaudience": 7241,
      "ĠBruce": 7242,
      "Ġstupid": 7243,
      "23": 7244,
      "Ġeth": 7245,
      "Ġfate": 7246,
      "Ġgle": 7247,
      "Ġchain": 7248,
      "Ġshaw": 7249,
      "lessly": 7250,
      "Ġimage": 7251,
      "Ġsigns": 7252,
      "Ġannoy": 7253,
      "Ġsexual": 7254,
      "Ġrangers": 7255,
      "Ġnominated": 7256,
      "ĠSweden": 7257,
      "Ġgrateful": 7258,
      "Ġgiraffe": 7259,
      "Ġbrilliant": 7260,
      "bu": 7261,
      "rels": 7262,
      "Ġpushing": 7263,
      "ĠTower": 7264,
      "Ġancest": 7265,
      "Ġseal": 7266,
      "ĠBird": 7267,
      "Ġshed": 7268,
      "Ġfeast": 7269,
      "Ġcommitted": 7270,
      "inned": 7271,
      "Ġbegins": 7272,
      "Ġminds": 7273,
      "Ġconsult": 7274,
      "Ġ1971": 7275,
      "Ġsunshine": 7276,
      "Ġprotection": 7277,
      "Ġauthorities": 7278,
      "Ġbasically": 7279,
      "Ġscientific": 7280,
      "Ġstruggle": 7281,
      "Ġaltogether": 7282,
      "ĠService": 7283,
      "five": 7284,
      "hus": 7285,
      "vard": 7286,
      "wers": 7287,
      "Ġwinner": 7288,
      "lled": 7289,
      "omi": 7290,
      "ĠTre": 7291,
      "Ġvast": 7292,
      "Ġloyal": 7293,
      "ĠVo": 7294,
      "aughters": 7295,
      "Ġstands": 7296,
      "Ġhighly": 7297,
      "Ġamongst": 7298,
      "Ġtempt": 7299,
      "ĠCentre": 7300,
      "Ġincreased": 7301,
      "Ġscientists": 7302,
      "Ġsenior": 7303,
      "lemn": 7304,
      "Who": 7305,
      "uous": 7306,
      "Ġbay": 7307,
      "Ġcas": 7308,
      "Ġtomat": 7309,
      "ĠBook": 7310,
      "ĠPenn": 7311,
      "Ġdece": 7312,
      "Ġrude": 7313,
      "gee": 7314,
      "ĠNever": 7315,
      "Ġworn": 7316,
      "venge": 7317,
      "Ġpepper": 7318,
      "Ġintended": 7319,
      "Ġ37": 7320,
      "Ġprime": 7321,
      "iversal": 7322,
      "Ġ1945": 7323,
      "kesp": 7324,
      "Ġemergency": 7325,
      "Ġdivorce": 7326,
      "ĠEducation": 7327,
      "Did": 7328,
      "ties": 7329,
      "ĠÃ¶": 7330,
      "ĠCle": 7331,
      "Ġjane": 7332,
      "ĠWars": 7333,
      "ĠNurse": 7334,
      "ĠLo": 7335,
      "ĠJesus": 7336,
      "Ġunknown": 7337,
      "Ġpreviously": 7338,
      "Ġapplic": 7339,
      "Ġfinds": 7340,
      "Ġinstant": 7341,
      "Ġinstru": 7342,
      "Ġpuppy": 7343,
      "ĠGram": 7344,
      "Ġconnection": 7345,
      "Ġtechnology": 7346,
      "Ġresponsibility": 7347,
      "Ġslightly": 7348,
      "ufact": 7349,
      "Ġalcohol": 7350,
      "uits": 7351,
      "hey": 7352,
      "Ġnuclear": 7353,
      "Ġhes": 7354,
      "Ġwebs": 7355,
      "ĠTod": 7356,
      "ĠAri": 7357,
      "Ġsocks": 7358,
      "unning": 7359,
      "geant": 7360,
      "Ġshy": 7361,
      "Ġvic": 7362,
      "Ġcho": 7363,
      "pton": 7364,
      "onsense": 7365,
      "Ġsixth": 7366,
      "obal": 7367,
      "ĠAtl": 7368,
      "Ġcauses": 7369,
      "Ġindustrial": 7370,
      "Ġaccompl": 7371,
      "Ġapologize": 7372,
      "26": 7373,
      ";\"": 7374,
      "tes": 7375,
      "Ã±": 7376,
      "Ġax": 7377,
      "Ġmile": 7378,
      "Ġdomin": 7379,
      "ito": 7380,
      "uted": 7381,
      "stant": 7382,
      "ĠCa": 7383,
      "Ġlif": 7384,
      "ĠBuck": 7385,
      "ĠBilly": 7386,
      "Ġdeer": 7387,
      "ĠRail": 7388,
      "Ġnights": 7389,
      "Ġimpact": 7390,
      "Ġrealized": 7391,
      "ĠBrad": 7392,
      "Ġlaunch": 7393,
      "Ġmurm": 7394,
      "Ġfootballer": 7395,
      "aura": 7396,
      "Ġbelonged": 7397,
      "Ġpackage": 7398,
      "ĠJews": 7399,
      "ĠFrancisco": 7400,
      "ĠBasil": 7401,
      "Ġstolen": 7402,
      "Ġequipment": 7403,
      "kespeare": 7404,
      "nis": 7405,
      "when": 7406,
      "yard": 7407,
      "zy": 7408,
      "Ã£": 7409,
      "Ġcig": 7410,
      "Ġnik": 7411,
      "Ġhom": 7412,
      "stead": 7413,
      "ieur": 7414,
      "ferences": 7415,
      "Ġrobert": 7416,
      "issy": 7417,
      "Ġteen": 7418,
      "ĠVaud": 7419,
      "neath": 7420,
      "Ġactual": 7421,
      "Ġearned": 7422,
      "Ġmathemat": 7423,
      "Ġentrance": 7424,
      "ĠAtt": 7425,
      "Ġsteel": 7426,
      "Ġimportance": 7427,
      "Ġexplan": 7428,
      "Ġillness": 7429,
      "Ġneighbour": 7430,
      "porary": 7431,
      "ĠAlexander": 7432,
      "ĠScottish": 7433,
      "Ġfurniture": 7434,
      "ĠVirginia": 7435,
      "Ġexchange": 7436,
      "Ġscissors": 7437,
      "CE": 7438,
      "When": 7439,
      "Ġshan": 7440,
      "Ġpul": 7441,
      "Ġgum": 7442,
      "Ġhook": 7443,
      "ĠImp": 7444,
      "oti": 7445,
      "Ġwashing": 7446,
      "also": 7447,
      "Ġkil": 7448,
      "ĠBack": 7449,
      "Ġamy": 7450,
      "onscious": 7451,
      "Ġtrail": 7452,
      "Ġretire": 7453,
      "Ġsurgery": 7454,
      "Ġskill": 7455,
      "Ġpattern": 7456,
      "ĠBlue": 7457,
      "Ġstarring": 7458,
      "Ġscare": 7459,
      "Ġtemple": 7460,
      "Ġclimbed": 7461,
      "ĠWales": 7462,
      "ĠSyrian": 7463,
      "ĠDesmond": 7464,
      "Ġfolk": 7465,
      "Ġstroke": 7466,
      "ĠBattle": 7467,
      "Ġvotes": 7468,
      "Ġsixteen": 7469,
      "Ġchallenge": 7470,
      "ĠFlossie": 7471,
      "OO": 7472,
      "pro": 7473,
      "Ġtent": 7474,
      "nda": 7475,
      "Ġbore": 7476,
      "eding": 7477,
      "eaks": 7478,
      "Ġcann": 7479,
      "ĠFre": 7480,
      "Ġwhoever": 7481,
      "ĠNations": 7482,
      "Ġletting": 7483,
      "Ġcoal": 7484,
      "Ġswift": 7485,
      "arson": 7486,
      "Ġ500": 7487,
      "Ġdawn": 7488,
      "Ġdisappear": 7489,
      "Ġdifficulty": 7490,
      "Ġconnect": 7491,
      "Ġbenefit": 7492,
      "Ġhammer": 7493,
      "Ġeagerly": 7494,
      "Ġcongrat": 7495,
      "phew": 7496,
      "ĠIraq": 7497,
      "pal": 7498,
      "inting": 7499,
      "Ġcert": 7500,
      "Ġthunder": 7501,
      "ĠST": 7502,
      "Ġkim": 7503,
      "ĠMu": 7504,
      "ĠBra": 7505,
      "Ġnephew": 7506,
      "Ġshove": 7507,
      "ĠNorthern": 7508,
      "Ġvoted": 7509,
      "ifer": 7510,
      "alem": 7511,
      "Ġdriven": 7512,
      "Ġdrinks": 7513,
      "Ġ1977": 7514,
      "Ġ1964": 7515,
      "Ġcontinues": 7516,
      "Ġstatue": 7517,
      "Ġaffairs": 7518,
      "Ġoccupied": 7519,
      "ĠPortugal": 7520,
      "dle": 7521,
      "Ġfo": 7522,
      "Ġfury": 7523,
      "isl": 7524,
      "ĠAng": 7525,
      "ĠCy": 7526,
      "Ġsoap": 7527,
      "ĠRimb": 7528,
      "berry": 7529,
      "Ġcla": 7530,
      "Ġunited": 7531,
      "Ġbelt": 7532,
      "Ġslave": 7533,
      "Ġ34": 7534,
      "ockey": 7535,
      "Ġsticking": 7536,
      "zech": 7537,
      "Ġexpecting": 7538,
      "Ġhealthy": 7539,
      "Ġholy": 7540,
      "Ġmotorcy": 7541,
      "Ġdanny": 7542,
      "Ġsacrif": 7543,
      "Ġagreement": 7544,
      "Ġgoddess": 7545,
      "Ġresources": 7546,
      "belt": 7547,
      "eenth": 7548,
      "Ġpoo": 7549,
      "adium": 7550,
      "iro": 7551,
      "ĠBon": 7552,
      "ulated": 7553,
      "ĠFestival": 7554,
      "ighed": 7555,
      "oses": 7556,
      "ardy": 7557,
      "ĠInter": 7558,
      "Ġmothers": 7559,
      "Ġharder": 7560,
      "Ġcolour": 7561,
      "Ġ44": 7562,
      "Ġanswers": 7563,
      "Ġmadam": 7564,
      "ĠChampionships": 7565,
      "Ġfoolish": 7566,
      "Ġplatform": 7567,
      "bie": 7568,
      "Ġthief": 7569,
      "sect": 7570,
      "Ġgolf": 7571,
      "ĠBoth": 7572,
      "Ġsolemn": 7573,
      "igg": 7574,
      "ĠGard": 7575,
      "Ġspider": 7576,
      "Ġloving": 7577,
      "ordan": 7578,
      "ivity": 7579,
      "Ġpolite": 7580,
      "ĠAlice": 7581,
      "Ġconfir": 7582,
      "Ġparliament": 7583,
      "Ġinterp": 7584,
      "ervative": 7585,
      "Ġworthy": 7586,
      "Ġinjured": 7587,
      "Ġpotato": 7588,
      "Ġfrequ": 7589,
      "Ġholidays": 7590,
      "ĠCambridge": 7591,
      "fire": 7592,
      "yo": 7593,
      "Ġtig": 7594,
      "eral": 7595,
      "Ġbent": 7596,
      "Ġyer": 7597,
      "eness": 7598,
      "atal": 7599,
      "Ġbeings": 7600,
      "keys": 7601,
      "ĠHaw": 7602,
      "Ġrack": 7603,
      "ĠWater": 7604,
      "aghetti": 7605,
      "Ġputs": 7606,
      "ĠStella": 7607,
      "actor": 7608,
      "aval": 7609,
      "Ġunderneath": 7610,
      "Ġrelie": 7611,
      "Ġ185": 7612,
      "Ġincome": 7613,
      "Ġpresented": 7614,
      "Ġproduce": 7615,
      "Ġ1946": 7616,
      "Ġchairman": 7617,
      "Ġillustr": 7618,
      "Ġvisitors": 7619,
      "Ġrequire": 7620,
      "ĠOxfordshire": 7621,
      "ĠGreece": 7622,
      "Ġbalance": 7623,
      "Ġconstitu": 7624,
      "Ġcitizens": 7625,
      "Ġsymptoms": 7626,
      "fa": 7627,
      "giving": 7628,
      "Ġ;": 7629,
      "Ġwire": 7630,
      "nday": 7631,
      "Ġfare": 7632,
      "ĠBus": 7633,
      "Ġjon": 7634,
      "Ġcomin": 7635,
      "ivered": 7636,
      "Ġnowhere": 7637,
      "Ġmanufact": 7638,
      "aging": 7639,
      "icks": 7640,
      "Ġcompared": 7641,
      "Ġcops": 7642,
      "Ġbanks": 7643,
      "Ġconcern": 7644,
      "Ġviolence": 7645,
      "Ġfaithful": 7646,
      "Ġeconomic": 7647,
      "Ġculture": 7648,
      "Ġsucceeded": 7649,
      "Ġcrisis": 7650,
      "rative": 7651,
      "Ġcows": 7652,
      "Ġdu": 7653,
      "Ġpeter": 7654,
      "enger": 7655,
      "Ġonline": 7656,
      "ĠMouse": 7657,
      "ĠAha": 7658,
      "Ġselected": 7659,
      "ĠNonna": 7660,
      "orted": 7661,
      "Ġscra": 7662,
      "Ġumbre": 7663,
      "ĠThus": 7664,
      "Ġslaves": 7665,
      "Ġ33": 7666,
      "Ġcricket": 7667,
      "Ġgrab": 7668,
      "Ġgrape": 7669,
      "Ġeditor": 7670,
      "Ġpubl": 7671,
      "Ġshortly": 7672,
      "Ġ1959": 7673,
      "Ġchairs": 7674,
      "Ġclasses": 7675,
      "Ġmajority": 7676,
      "Ġeffects": 7677,
      "hetic": 7678,
      "Ġembarr": 7679,
      "Ġargument": 7680,
      "Ġevidently": 7681,
      "ĠRimbolt": 7682,
      "Com": 7683,
      "May": 7684,
      "dge": 7685,
      "Ġsin": 7686,
      "Ġlaughter": 7687,
      "leg": 7688,
      "ĠMerc": 7689,
      "Ġsheet": 7690,
      "ĠEs": 7691,
      "empl": 7692,
      "Ġconcl": 7693,
      "Ġbackground": 7694,
      "Ġchill": 7695,
      "awa": 7696,
      "Ġ45": 7697,
      "Ġ1974": 7698,
      "Ġwooden": 7699,
      "Ġpurcha": 7700,
      "ĠDora": 7701,
      "Ġpressed": 7702,
      "Ġturkey": 7703,
      "adesh": 7704,
      "ĠGreater": 7705,
      "Ġbenjamin": 7706,
      "Ġprepare": 7707,
      "ĠBetty": 7708,
      "ĠFilm": 7709,
      "Ġadopted": 7710,
      "Ġembarrass": 7711,
      "ET": 7712,
      "pired": 7713,
      "Ġfed": 7714,
      "Ġgri": 7715,
      "ĠShan": 7716,
      "ĠCorn": 7717,
      "uns": 7718,
      "olas": 7719,
      "Ġshining": 7720,
      "ĠEastern": 7721,
      "Ġcliff": 7722,
      "ending": 7723,
      "Ġpoll": 7724,
      "Ġraining": 7725,
      "Ġmarble": 7726,
      "Ġzeb": 7727,
      "Ġartists": 7728,
      "Ġsquad": 7729,
      "Ġicecream": 7730,
      "Ġorganized": 7731,
      "Ġwaters": 7732,
      "ĠGlad": 7733,
      "Ġdamn": 7734,
      "Ġpersons": 7735,
      "Ġrepeat": 7736,
      "Ġproducts": 7737,
      "Ġmamma": 7738,
      "Ġscheme": 7739,
      "To": 7740,
      "good": 7741,
      "jan": 7742,
      "aned": 7743,
      "arant": 7744,
      "Ġkira": 7745,
      "umble": 7746,
      "ĠGi": 7747,
      "ĠJon": 7748,
      "Ġsprang": 7749,
      "Ġlob": 7750,
      "Ġuncom": 7751,
      "Ġprec": 7752,
      "Ġfled": 7753,
      "Ġsmooth": 7754,
      "Ġperform": 7755,
      "Ġacted": 7756,
      "Ġcommit": 7757,
      "Ġconscious": 7758,
      "Ġdrag": 7759,
      "ĠChristopher": 7760,
      "ĠMayor": 7761,
      "Ġenglish": 7762,
      "Ġcamps": 7763,
      "Ġvolume": 7764,
      "Ġcaptured": 7765,
      "ĠEsther": 7766,
      "cu": 7767,
      "sa": 7768,
      "Ġduties": 7769,
      "Ġpenn": 7770,
      "Ġgerman": 7771,
      "itated": 7772,
      "ĠMans": 7773,
      "raph": 7774,
      "ĠPo": 7775,
      "ĠRub": 7776,
      "ĠFree": 7777,
      "Ġsufficient": 7778,
      "Ġplot": 7779,
      "ĠJun": 7780,
      "Ġvirt": 7781,
      "issa": 7782,
      "Ġkeen": 7783,
      "Ġchew": 7784,
      "Ġhath": 7785,
      "ĠAfghan": 7786,
      "Ġzero": 7787,
      "Ġ1975": 7788,
      "Ġinsurance": 7789,
      "ĠCarl": 7790,
      "Ġpupp": 7791,
      "Ġlabor": 7792,
      "Ġlabel": 7793,
      "Ġpossibility": 7794,
      "Ġticket": 7795,
      "Ġcheerful": 7796,
      "Ġhistorical": 7797,
      "Ġcomplain": 7798,
      "Ġsymbol": 7799,
      "ĠBarbara": 7800,
      "Ġrestaurant": 7801,
      "lon": 7802,
      "uals": 7803,
      "Ãª": 7804,
      "Ġdea": 7805,
      "Ġpir": 7806,
      "lets": 7807,
      "Ġmechan": 7808,
      "Ġseasons": 7809,
      "ĠHoo": 7810,
      "ĠWat": 7811,
      "ĠGet": 7812,
      "Ġcharges": 7813,
      "Ġbeds": 7814,
      "gedy": 7815,
      "Ġconsist": 7816,
      "Ġarticle": 7817,
      "Ġ1947": 7818,
      "Ġadvanced": 7819,
      "Ġsweetheart": 7820,
      "ĠXX": 7821,
      "Ġdirections": 7822,
      "Ġdelicate": 7823,
      "Ġdeliver": 7824,
      "Ġnursery": 7825,
      "Ġcandidate": 7826,
      "ĠReliance": 7827,
      "Bill": 7828,
      "Ġtha": 7829,
      "Ġtales": 7830,
      "Ġlit": 7831,
      "Ġranger": 7832,
      "ĠDown": 7833,
      "ĠLaura": 7834,
      "Ġcarpet": 7835,
      "Ġfounder": 7836,
      "Ġmarks": 7837,
      "Ġoccas": 7838,
      "Ġcompanions": 7839,
      "Ġanxiety": 7840,
      "Ġclaims": 7841,
      "aurs": 7842,
      "lers": 7843,
      "alo": 7844,
      "ĠSuch": 7845,
      "Ġath": 7846,
      "ĠRap": 7847,
      "Ġsuicide": 7848,
      "abor": 7849,
      "ĠLes": 7850,
      "Ġvision": 7851,
      "agon": 7852,
      "Ġclo": 7853,
      "ogne": 7854,
      "Ġyoungest": 7855,
      "ĠDef": 7856,
      "okay": 7857,
      "Ġbasis": 7858,
      "incol": 7859,
      "Ġblew": 7860,
      "Ġmicro": 7861,
      "Ġgazed": 7862,
      "pherd": 7863,
      "Ġprospect": 7864,
      "Ġbronze": 7865,
      "gl": 7866,
      "mn": 7867,
      "sylvania": 7868,
      "Ġbord": 7869,
      "Ġdared": 7870,
      "Ġdaughters": 7871,
      "Ġtoss": 7872,
      "enes": 7873,
      "arms": 7874,
      "ĠTour": 7875,
      "Ġgosh": 7876,
      "ĠNext": 7877,
      "ĠOrd": 7878,
      "Ġquant": 7879,
      "Ġunable": 7880,
      "Ġunlike": 7881,
      "mann": 7882,
      "ĠDev": 7883,
      "Ġindign": 7884,
      "umbled": 7885,
      "Ġfigured": 7886,
      "Ġsweetie": 7887,
      "Ġorganis": 7888,
      "Ġvalu": 7889,
      "Ġpacked": 7890,
      "III": 7891,
      "Ġthreatened": 7892,
      "ĠDouglas": 7893,
      "As": 7894,
      "gro": 7895,
      "long": 7896,
      "rac": 7897,
      "Ġsung": 7898,
      "Ġsector": 7899,
      "Ġconvin": 7900,
      "Ġbuying": 7901,
      "Ġundert": 7902,
      "Ġconfused": 7903,
      "Ġ1956": 7904,
      "Ġcriminal": 7905,
      "ĠDrum": 7906,
      "Ġthoroughly": 7907,
      "iar": 7908,
      "uv": 7909,
      "wick": 7910,
      "wait": 7911,
      "zburg": 7912,
      "Ã§": 7913,
      "hall": 7914,
      "Ġcage": 7915,
      "anny": 7916,
      "edic": 7917,
      "Ġincl": 7918,
      "Ġweb": 7919,
      "ĠAuthor": 7920,
      "ĠCzech": 7921,
      "ĠBes": 7922,
      "ĠBol": 7923,
      "unte": 7924,
      "Ġruss": 7925,
      "ĠFive": 7926,
      "ĠGriff": 7927,
      "resp": 7928,
      "akistan": 7929,
      "ĠStone": 7930,
      "Ġguards": 7931,
      "Ġdisag": 7932,
      "Ġflies": 7933,
      "ĠChampion": 7934,
      "ipper": 7935,
      "Ġcomplex": 7936,
      "Ġadmitted": 7937,
      "Ġelections": 7938,
      "Ġnaturally": 7939,
      "Ġestablish": 7940,
      "ĠScholarship": 7941,
      "Ġinquired": 7942,
      "Ġcolonel": 7943,
      "ĠRomans": 7944,
      "ĠProfessor": 7945,
      "rep": 7946,
      "Ġbree": 7947,
      "Ġcents": 7948,
      "ĠTa": 7949,
      "Ġstool": 7950,
      "Ġsteak": 7951,
      "sex": 7952,
      "ophy": 7953,
      "Ġanyhow": 7954,
      "agne": 7955,
      "Ġamuse": 7956,
      "Ġbetray": 7957,
      "Ġjoint": 7958,
      "Ġelement": 7959,
      "ĠBrother": 7960,
      "Ġcapable": 7961,
      "ĠIndepend": 7962,
      "Ġ1967": 7963,
      "Ġ1940": 7964,
      "Ġprograms": 7965,
      "Ġspending": 7966,
      "ĠMilan": 7967,
      "Ġï¿½ï¿½ï¿½ï¿½ï¿½ï¿½ï¿½ï¿½": 7968,
      "Ġefforts": 7969,
      "Ġexecutive": 7970,
      "ĠScarfe": 7971,
      "Ġrapidly": 7972,
      "ĠSpencer": 7973,
      "dad": 7974,
      "rated": 7975,
      "Ġwreck": 7976,
      "Ġdale": 7977,
      "Ġfetch": 7978,
      "ĠAss": 7979,
      "ĠCaterpillar": 7980,
      "ĠPac": 7981,
      "ĠFer": 7982,
      "ĠFound": 7983,
      "Ġunits": 7984,
      "bec": 7985,
      "ĠAmericans": 7986,
      "thew": 7987,
      "Ġconfident": 7988,
      "Ġ1948": 7989,
      "Ġcleaning": 7990,
      "flies": 7991,
      "Ġhopes": 7992,
      "Ġboring": 7993,
      "ĠMoscow": 7994,
      "ĠHelen": 7995,
      "Ġdesperate": 7996,
      "uj": 7997,
      "Ġdign": 7998,
      "Ġtox": 7999,
      "Ġhay": 8000,
      "ĠHad": 8001,
      "Ġsore": 8002,
      "ĠPoint": 8003,
      "estic": 8004,
      "istics": 8005,
      "Ġquality": 8006,
      "Ġbrings": 8007,
      "Ġrage": 8008,
      "Ġmomma": 8009,
      "Ġchanging": 8010,
      "Ġ39": 8011,
      "Ġhorrid": 8012,
      "Ġladder": 8013,
      "Ġbottles": 8014,
      "Ġstores": 8015,
      "Ġdegrees": 8016,
      "Ġignor": 8017,
      "burgh": 8018,
      "ĠCompany": 8019,
      "Ġillegal": 8020,
      "Ġummhm": 8021,
      "24": 8022,
      "Ġbegged": 8023,
      "rily": 8024,
      "ademic": 8025,
      "ĠAmb": 8026,
      "ĠBow": 8027,
      "unched": 8028,
      "thony": 8029,
      "ĠDog": 8030,
      "ĠRea": 8031,
      "ĠRem": 8032,
      "Ġhappily": 8033,
      "izes": 8034,
      "Ġchildhood": 8035,
      "Ġbits": 8036,
      "ĠAsh": 8037,
      "Ġkidna": 8038,
      "Ġparade": 8039,
      "Ġmerely": 8040,
      "Ġachieve": 8041,
      "Ġfierce": 8042,
      "Ġfeathers": 8043,
      "Ġheavily": 8044,
      "Ġnaughty": 8045,
      "ĠDrummond": 8046,
      "CH": 8047,
      "jack": 8048,
      "kind": 8049,
      "lock": 8050,
      "mitted": 8051,
      "Ġseated": 8052,
      "Ġjames": 8053,
      "oples": 8054,
      "olk": 8055,
      "ĠRaby": 8056,
      "Ġspaghetti": 8057,
      "Ġagents": 8058,
      "Ġenorm": 8059,
      "ubrey": 8060,
      "Ġglanced": 8061,
      "Ġattorney": 8062,
      "life": 8063,
      "ĠIslands": 8064,
      "enez": 8065,
      "Ġ1973": 8066,
      "ÃŃn": 8067,
      "ĠGuard": 8068,
      "Ġmistakes": 8069,
      "Ġexpert": 8070,
      "ĠCommun": 8071,
      "ĠShakespeare": 8072,
      "Ġcommonly": 8073,
      "Ġactivities": 8074,
      "Ġsubjects": 8075,
      "Ġnormally": 8076,
      "Ġexistence": 8077,
      "ĠHungary": 8078,
      "Ġnapkin": 8079,
      "ĠBrazilian": 8080,
      "Ġtemperature": 8081,
      "Mr": 8082,
      "UN": 8083,
      "mun": 8084,
      "ront": 8085,
      "Ġtad": 8086,
      "erous": 8087,
      "Ġpile": 8088,
      "Ġgee": 8089,
      "asp": 8090,
      "aya": 8091,
      "Ġknight": 8092,
      "Ġmyth": 8093,
      "Ġaband": 8094,
      "ĠNep": 8095,
      "ĠHead": 8096,
      "Ġguarant": 8097,
      "onsieur": 8098,
      "Ġdistant": 8099,
      "Ġpops": 8100,
      "Ġ1965": 8101,
      "Ġestim": 8102,
      "Ġexperiment": 8103,
      "Ġclothing": 8104,
      "Ġextraord": 8105,
      "Ġindependence": 8106,
      "Ġvacation": 8107,
      "Ġtroubles": 8108,
      "Ġvehicle": 8109,
      "ĠPersonal": 8110,
      "dam": 8111,
      "rad": 8112,
      "Ġtan": 8113,
      "ndar": 8114,
      "Ġfits": 8115,
      "Ġheap": 8116,
      "ĠMam": 8117,
      "ĠAra": 8118,
      "elp": 8119,
      "ĠLar": 8120,
      "ĠKim": 8121,
      "Ġlegend": 8122,
      "Ġamen": 8123,
      "Ġdeserve": 8124,
      "Ġcharles": 8125,
      "Ġmmm": 8126,
      "mination": 8127,
      "ĠNothing": 8128,
      "ĠPolish": 8129,
      "Ġpunishment": 8130,
      "ENT": 8131,
      "Ġrailway": 8132,
      "ĠMetropolitan": 8133,
      "ĠGolden": 8134,
      "ĠWindows": 8135,
      "Ġnickn": 8136,
      "ĠColumbia": 8137,
      "ĠHeaven": 8138,
      "dro": 8139,
      "net": 8140,
      "rus": 8141,
      "ridge": 8142,
      "tis": 8143,
      "Ġouch": 8144,
      "Ġsou": 8145,
      "Ġcave": 8146,
      "Ġnort": 8147,
      "Ġbeating": 8148,
      "utation": 8149,
      "acious": 8150,
      "ĠMod": 8151,
      "ĠDoub": 8152,
      "ĠNord": 8153,
      "igen": 8154,
      "Ġfeature": 8155,
      "onder": 8156,
      "ĠVill": 8157,
      "Ġeatin": 8158,
      "Ġbuck": 8159,
      "Ġbuff": 8160,
      "Ġrelative": 8161,
      "Ġcollea": 8162,
      "Ġesc": 8163,
      "Ġ1942": 8164,
      "Ġrolled": 8165,
      "Ġruler": 8166,
      "Ġconsiderable": 8167,
      "Ġviews": 8168,
      "ederation": 8169,
      "rafton": 8170,
      "Ġdinosaurs": 8171,
      "Ġsurviv": 8172,
      "ĠMargot": 8173,
      "ĠSteve": 8174,
      "Ġaffected": 8175,
      "ĠForest": 8176,
      "Ġrevealed": 8177,
      "Ġunfortunately": 8178,
      "Ġsignificant": 8179,
      "Ch": 8180,
      "OM": 8181,
      "nut": 8182,
      "part": 8183,
      "Ġwipe": 8184,
      "Ġtoe": 8185,
      "orf": 8186,
      "Ġpunch": 8187,
      "Ġgrief": 8188,
      "ĠitÃŃs": 8189,
      "ĠMid": 8190,
      "ĠCelia": 8191,
      "ĠBunny": 8192,
      "ĠNa": 8193,
      "ĠNight": 8194,
      "Ġintense": 8195,
      "Ġbackwards": 8196,
      "aren": 8197,
      "cipl": 8198,
      "Ġgrat": 8199,
      "Ġtryin": 8200,
      "ĠDeath": 8201,
      "Ġdistinct": 8202,
      "Ġpossession": 8203,
      "Ġgrandpa": 8204,
      "ĠPoland": 8205,
      "Ġpoliceman": 8206,
      "Ġsurrounded": 8207,
      "standing": 8208,
      "Ġumbrella": 8209,
      "sur": 8210,
      "woman": 8211,
      "Ġfasc": 8212,
      "Ġpear": 8213,
      "Ġnothin": 8214,
      "Ġaloud": 8215,
      "ĠRh": 8216,
      "osity": 8217,
      "Ġtwila": 8218,
      "Ġaffection": 8219,
      "Ġshared": 8220,
      "ccer": 8221,
      "Ġholds": 8222,
      "Ġdrift": 8223,
      "Ġ1943": 8224,
      "Ġdreamed": 8225,
      "Ġburnt": 8226,
      "Ġbeaten": 8227,
      "Ġviolent": 8228,
      "ĠTurkish": 8229,
      "Ġthirsty": 8230,
      "80": 8231,
      "bird": 8232,
      "iac": 8233,
      "wen": 8234,
      "inity": 8235,
      "Ġcra": 8236,
      "Ġcries": 8237,
      "Ġinfect": 8238,
      "ĠTime": 8239,
      "Ġjapan": 8240,
      "una": 8241,
      "Ġray": 8242,
      "Ġabo": 8243,
      "ĠGhost": 8244,
      "ĠLinda": 8245,
      "ĠUN": 8246,
      "Ġsometime": 8247,
      "Ġunif": 8248,
      "Ġchin": 8249,
      "Ġflu": 8250,
      "ĠThose": 8251,
      "Ġchannels": 8252,
      "Ġstops": 8253,
      "ĠAsia": 8254,
      "Ġawoh": 8255,
      "Ġcollap": 8256,
      "ĠShar": 8257,
      "Ġsolid": 8258,
      "Ġremarked": 8259,
      "Ġhonestly": 8260,
      "ĠApollo": 8261,
      "Ġdipl": 8262,
      "ĠPennsylvania": 8263,
      "De": 8264,
      "mates": 8265,
      "erial": 8266,
      "Ġfuss": 8267,
      "Ġpoured": 8268,
      "Ġnood": 8269,
      "Ġhaha": 8270,
      "Ġell": 8271,
      "uto": 8272,
      "amas": 8273,
      "ĠSn": 8274,
      "ĠSister": 8275,
      "Ġlied": 8276,
      "chuck": 8277,
      "ĠBall": 8278,
      "ĠGrafton": 8279,
      "ĠJacob": 8280,
      "ĠOri": 8281,
      "Ġexha": 8282,
      "Ġclaimed": 8283,
      "Ġfee": 8284,
      "Ġpartly": 8285,
      "ulture": 8286,
      "pected": 8287,
      "Ġcolored": 8288,
      "Ġcharts": 8289,
      "ĠChair": 8290,
      "Ã©e": 8291,
      "Ġdressing": 8292,
      "Ġenjoying": 8293,
      "ĠJackson": 8294,
      "ĠSpani": 8295,
      "Ġintroduce": 8296,
      "ĠÂ¶": 8297,
      "Ġwarrior": 8298,
      "Ġprimary": 8299,
      "ĠFIFA": 8300,
      "BER": 8301,
      "bach": 8302,
      "cing": 8303,
      "fish": 8304,
      "laugh": 8305,
      "ndry": 8306,
      "Ġcord": 8307,
      "Ġcakes": 8308,
      "Ġding": 8309,
      "Ġpine": 8310,
      "Ġnonsense": 8311,
      "itors": 8312,
      "iceless": 8313,
      "amen": 8314,
      "ĠCad": 8315,
      "ĠBell": 8316,
      "ĠWWE": 8317,
      "ĠOs": 8318,
      "ĠUs": 8319,
      "ĠVen": 8320,
      "Ġperman": 8321,
      "iva": 8322,
      "ection": 8323,
      "Ġending": 8324,
      "Ġswitch": 8325,
      "Ġstrict": 8326,
      "Ġdragged": 8327,
      "Ġfacts": 8328,
      "Ġbearing": 8329,
      "Ġ1951": 8330,
      "ĠLeg": 8331,
      "Ġdetail": 8332,
      "Ġarrive": 8333,
      "Ġphoto": 8334,
      "Ġmidst": 8335,
      "Ġnegative": 8336,
      "ĠAnton": 8337,
      "Ġpilot": 8338,
      "Ġincredible": 8339,
      "Ġunusual": 8340,
      "incoln": 8341,
      "Are": 8342,
      "ught": 8343,
      "Ġtummy": 8344,
      "Ġga": 8345,
      "itable": 8346,
      "riger": 8347,
      "alle": 8348,
      "ĠRuth": 8349,
      "ĠGre": 8350,
      "ĠLuke": 8351,
      "Ġarrow": 8352,
      "ĠKong": 8353,
      "Ġheading": 8354,
      "Ġcharming": 8355,
      "Ġenthus": 8356,
      "Ġsteam": 8357,
      "Ġvisited": 8358,
      "Ġ1952": 8359,
      "Ġstaring": 8360,
      "Ġabsor": 8361,
      "Ġcrept": 8362,
      "Ġtastes": 8363,
      "Ġridic": 8364,
      "Ġcousins": 8365,
      "Ġsurvive": 8366,
      "break": 8367,
      "Ġtommy": 8368,
      "ĠHoover": 8369,
      "45": 8370,
      "iven": 8371,
      "kun": 8372,
      "mad": 8373,
      "pers": 8374,
      "aru": 8375,
      "atie": 8376,
      "ĠSud": 8377,
      "ĠHas": 8378,
      "Ġsale": 8379,
      "akh": 8380,
      "Ġguide": 8381,
      "Ġthrust": 8382,
      "Ġperce": 8383,
      "Ġlasted": 8384,
      "ruct": 8385,
      "Ġcheek": 8386,
      "Ġheadquarters": 8387,
      "Ġimpression": 8388,
      "ĠAssembly": 8389,
      "Ġinvite": 8390,
      "Ġdropping": 8391,
      "Ġgreenbelt": 8392,
      "Ġpatients": 8393,
      "Ġpurse": 8394,
      "Ġruin": 8395,
      "Ġgenius": 8396,
      "Ġbelly": 8397,
      "Ġdiscussion": 8398,
      "Donald": 8399,
      "ergus": 8400,
      "Ġintelligence": 8401,
      "Ġcommercial": 8402,
      "ais": 8403,
      "rm": 8404,
      "Ġtrop": 8405,
      "hara": 8406,
      "Ġcaut": 8407,
      "Ġdates": 8408,
      "onel": 8409,
      "anes": 8410,
      "ĠIrene": 8411,
      "outheast": 8412,
      "Ġshepherd": 8413,
      "Ġages": 8414,
      "ĠVien": 8415,
      "iped": 8416,
      "Ġstopping": 8417,
      "theless": 8418,
      "Ġhats": 8419,
      "Ġmusician": 8420,
      "cript": 8421,
      "Ġvolunte": 8422,
      "Ġducks": 8423,
      "Ġdebt": 8424,
      "Ġcounsel": 8425,
      "Ġstretched": 8426,
      "Ġlemon": 8427,
      "Ġroute": 8428,
      "iber": 8429,
      "last": 8430,
      "Äĩ": 8431,
      "Ġay": 8432,
      "Ġwishes": 8433,
      "ndy": 8434,
      "orpor": 8435,
      "ario": 8436,
      "Ġinsect": 8437,
      "Ġholly": 8438,
      "uther": 8439,
      "Ġrejo": 8440,
      "ĠTilly": 8441,
      "amily": 8442,
      "ĠSab": 8443,
      "Ġframe": 8444,
      "umper": 8445,
      "ĠNob": 8446,
      "Ġworm": 8447,
      "quis": 8448,
      "resents": 8449,
      "Ġquack": 8450,
      "Ġpartners": 8451,
      "ĠVava": 8452,
      "Ġsecrets": 8453,
      "Ġ300": 8454,
      "Ġcleared": 8455,
      "Ġconsum": 8456,
      "Ġdrawer": 8457,
      "Ġcared": 8458,
      "Ġalongside": 8459,
      "Ġaddressed": 8460,
      "bbing": 8461,
      "Ġprofession": 8462,
      "Ġbags": 8463,
      "ĠAgain": 8464,
      "Ã¼r": 8465,
      "ĠIranian": 8466,
      "Ġsacrifice": 8467,
      "Billboard": 8468,
      "Ġvaluable": 8469,
      "IV": 8470,
      "inated": 8471,
      "Ġdrank": 8472,
      "Ġluc": 8473,
      "Ġgif": 8474,
      "icians": 8475,
      "ĠSand": 8476,
      "ĠSky": 8477,
      "stream": 8478,
      "ĠCart": 8479,
      "Ġatm": 8480,
      "reek": 8481,
      "----\"": 8482,
      "ĠUr": 8483,
      "Ġunex": 8484,
      "Ġmustn": 8485,
      "Ġimpress": 8486,
      "Ġmarched": 8487,
      "vention": 8488,
      "ĠArts": 8489,
      "Ġ1966": 8490,
      "Ġ1944": 8491,
      "Ġgrowth": 8492,
      "Ġtreaty": 8493,
      "Ġparking": 8494,
      "Ġconstant": 8495,
      "ynasty": 8496,
      "Ġmidnight": 8497,
      "ĠDaniel": 8498,
      "Ġvegetables": 8499,
      "Ġrodney": 8500,
      "Ġwithdraw": 8501,
      "Ġsqueeze": 8502,
      "ouncillor": 8503,
      "Ġexplanation": 8504,
      "Ġconfirmed": 8505,
      "Can": 8506,
      "On": 8507,
      "mate": 8508,
      "some": 8509,
      "Ãº": 8510,
      "Ġawards": 8511,
      "Ġfab": 8512,
      "Ġpier": 8513,
      "ushes": 8514,
      "ĠTha": 8515,
      "ĠTem": 8516,
      "ĠMuseum": 8517,
      "stal": 8518,
      "uled": 8519,
      "Ġvow": 8520,
      "Ġbond": 8521,
      "Ġlecture": 8522,
      "Ġblaz": 8523,
      "hmm": 8524,
      "Ġattached": 8525,
      "Ġstays": 8526,
      "Ġrepresents": 8527,
      "Ġgrain": 8528,
      "them": 8529,
      "Ġsnip": 8530,
      "oked": 8531,
      "Ġze": 8532,
      "Ġdiscovery": 8533,
      "ĠForm": 8534,
      "Ġreturning": 8535,
      "Ġexplos": 8536,
      "Ġchecking": 8537,
      "ova": 8538,
      "Ġconstruction": 8539,
      "urious": 8540,
      "Ġlevels": 8541,
      "ĠPolice": 8542,
      "ĠCenter": 8543,
      "Ġdescribe": 8544,
      "Ġliterature": 8545,
      "Ġacquaint": 8546,
      "ĠGeography": 8547,
      "ĠRaymond": 8548,
      "Ġcalendar": 8549,
      "AY": 8550,
      "Fran": 8551,
      "Ġack": 8552,
      "Ġwret": 8553,
      "Ġly": 8554,
      "ĠMem": 8555,
      "ĠAN": 8556,
      "ĠBud": 8557,
      "ĠBBC": 8558,
      "unted": 8559,
      "ĠWork": 8560,
      "ĠRhod": 8561,
      "Ġdisg": 8562,
      "Ġflung": 8563,
      "aug": 8564,
      "Ġimpat": 8565,
      "Ġleads": 8566,
      "Ġ70": 8567,
      "Ġsunny": 8568,
      "Ġbusinessman": 8569,
      "Ġlaura": 8570,
      "Ġlaunched": 8571,
      "Ġengage": 8572,
      "ĠWhich": 8573,
      "ĠGeorgia": 8574,
      "Ġlimit": 8575,
      "Ġprayer": 8576,
      "Ġexecution": 8577,
      "Ġsatisfaction": 8578,
      "Ġdebate": 8579,
      "Ġeconomy": 8580,
      "Ġalexander": 8581,
      "Ġtraditional": 8582,
      "ĠBangl": 8583,
      "ĠHemings": 8584,
      "brew": 8585,
      "door": 8586,
      "Ġtag": 8587,
      "Ġaubrey": 8588,
      "Ġbars": 8589,
      "Ġmary": 8590,
      "Ġpork": 8591,
      "Ġrevenge": 8592,
      "irts": 8593,
      "aman": 8594,
      "ĠSene": 8595,
      "ĠMir": 8596,
      "ĠHong": 8597,
      "ĠGor": 8598,
      "Ġload": 8599,
      "Ġprices": 8600,
      "Ġscored": 8601,
      "Ġtalkin": 8602,
      "angle": 8603,
      "Ġdrill": 8604,
      "Ġtribes": 8605,
      "Ġsleepy": 8606,
      "Ġlanding": 8607,
      "Ġassault": 8608,
      "Ġ1963": 8609,
      "ĠWilly": 8610,
      "ĠHarvard": 8611,
      "ĠPeters": 8612,
      "Ġscreaming": 8613,
      "Ġrecommend": 8614,
      "Ġarchitect": 8615,
      "Ġinhabit": 8616,
      "ĠGriffith": 8617,
      "For": 8618,
      "ni": 8619,
      "oa": 8620,
      "Ġdining": 8621,
      "etic": 8622,
      "rib": 8623,
      "Ġstab": 8624,
      "Ġstamp": 8625,
      "lying": 8626,
      "...\"": 8627,
      "ĠPre": 8628,
      "ando": 8629,
      "Ġtheme": 8630,
      "Ġspots": 8631,
      "Ġwanting": 8632,
      "Ġvoy": 8633,
      "Ġpee": 8634,
      "Ġblast": 8635,
      "Ġchamber": 8636,
      "Ġkindness": 8637,
      "Ġtrap": 8638,
      "ocal": 8639,
      "force": 8640,
      "Ġdisturb": 8641,
      "Ġunderstanding": 8642,
      "Ġinsult": 8643,
      "Ġinspired": 8644,
      "ronic": 8645,
      "ĠLeon": 8646,
      "Ġdeeply": 8647,
      "Ġimagined": 8648,
      "Ġbreathing": 8649,
      "Ġpretending": 8650,
      "Ġcells": 8651,
      "ĠHungarian": 8652,
      "Ġmerged": 8653,
      "Ġdespite": 8654,
      "Ġjunior": 8655,
      "Ġbarely": 8656,
      "Ġdescend": 8657,
      "Ġcriteria": 8658,
      "Ġscript": 8659,
      "rigerator": 8660,
      "\").": 8661,
      "28": 8662,
      "Ġwins": 8663,
      "Ġcran": 8664,
      "orters": 8665,
      "Ġhal": 8666,
      "Ġbend": 8667,
      "amps": 8668,
      "Ġkitt": 8669,
      "ĠCould": 8670,
      "ĠPoor": 8671,
      "Ġric": 8672,
      "Ġfran": 8673,
      "ĠDun": 8674,
      "ĠOoh": 8675,
      "Ġstudying": 8676,
      "ĠSpring": 8677,
      "engu": 8678,
      "Ġtouching": 8679,
      "Ġorganiz": 8680,
      "Ġhastily": 8681,
      "Ġissued": 8682,
      "Ġphotos": 8683,
      "Ġclimbing": 8684,
      "Ġmacar": 8685,
      "ĠHolmes": 8686,
      "Ġshelter": 8687,
      "Ġcomrades": 8688,
      "Ġribbon": 8689,
      "Thank": 8690,
      "Your": 8691,
      "Ġwis": 8692,
      "Ġoven": 8693,
      "Ġmask": 8694,
      "Ġcongress": 8695,
      "otam": 8696,
      "Ġecho": 8697,
      "Ġstern": 8698,
      "Ġaspect": 8699,
      "unts": 8700,
      "ichigan": 8701,
      "Ġtrace": 8702,
      "psy": 8703,
      "Ġpotential": 8704,
      "Ġprotected": 8705,
      "ĠJustice": 8706,
      "Ġlatest": 8707,
      "Ġaccompan": 8708,
      "Ġjeff": 8709,
      "ĠSkinner": 8710,
      "Ġresponded": 8711,
      "Ġatmosp": 8712,
      "bra": 8713,
      "egr": 8714,
      "pool": 8715,
      "upp": 8716,
      "uge": 8717,
      "vant": 8718,
      "Ġarose": 8719,
      "Ġbot": 8720,
      "Ġfeared": 8721,
      "Ġlamp": 8722,
      "ashes": 8723,
      "child": 8724,
      "Ġintention": 8725,
      "ureau": 8726,
      "Ġrecon": 8727,
      "Ġrecall": 8728,
      "Ġrifle": 8729,
      "Ġinterests": 8730,
      "axy": 8731,
      "Ġdresses": 8732,
      "Ġalbums": 8733,
      "ographer": 8734,
      "ĠCommission": 8735,
      "Ġdanced": 8736,
      "ĠHuman": 8737,
      "ĠTurkey": 8738,
      "Ġlimited": 8739,
      "Ġbabe": 8740,
      "Ġangel": 8741,
      "Ġtremend": 8742,
      "ĠGrammy": 8743,
      "Ġextraordinary": 8744,
      "found": 8745,
      "Ġcateg": 8746,
      "Ġlux": 8747,
      "Ġreference": 8748,
      "imme": 8749,
      "ĠSub": 8750,
      "Ġliqu": 8751,
      "teries": 8752,
      "ĠBor": 8753,
      "geous": 8754,
      "Ġabroad": 8755,
      "ĠFergus": 8756,
      "eline": 8757,
      "Ġorphan": 8758,
      "Ġspoons": 8759,
      "akota": 8760,
      "Ġcarbon": 8761,
      "Ġjoking": 8762,
      "Ġcounting": 8763,
      "Ġwarn": 8764,
      "obile": 8765,
      "Ġdrain": 8766,
      "Ġstrongly": 8767,
      "ĠHarwood": 8768,
      "Ġemot": 8769,
      "ĠElite": 8770,
      "ĠTommy": 8771,
      "Ġblowing": 8772,
      "Ġsearching": 8773,
      "Ġidentity": 8774,
      "Ġterritory": 8775,
      "Ġconstituency": 8776,
      "Ġlobster": 8777,
      "cuse": 8778,
      "cope": 8779,
      "tÃ©": 8780,
      "two": 8781,
      "ygen": 8782,
      "held": 8783,
      "Ġbass": 8784,
      "Ġyield": 8785,
      "Ġdavid": 8786,
      "Ġgross": 8787,
      "Ġweary": 8788,
      "ĠTag": 8789,
      "Ġjelly": 8790,
      "Ġsailed": 8791,
      "opotam": 8792,
      "ĠPakistan": 8793,
      "umph": 8794,
      "ĠFederal": 8795,
      "Ġpeep": 8796,
      "Ġpeoples": 8797,
      "ĠKu": 8798,
      "Ġpron": 8799,
      "Ġcomposed": 8800,
      "Ġpole": 8801,
      "Ġhired": 8802,
      "ultural": 8803,
      "Ġglory": 8804,
      "Ġelements": 8805,
      "Ġmuscles": 8806,
      "Ġdeaths": 8807,
      "Ġ1954": 8808,
      "Ġ1955": 8809,
      "Ġ1957": 8810,
      "airies": 8811,
      "cription": 8812,
      "Ġarrival": 8813,
      "Ġdevice": 8814,
      "Ġprayers": 8815,
      "Ġbullet": 8816,
      "Ġnegoti": 8817,
      "Ġdepends": 8818,
      "Ġpowder": 8819,
      "Ġenormous": 8820,
      "rors": 8821,
      "your": 8822,
      "Ġsne": 8823,
      "Ġms": 8824,
      "Ġhamb": 8825,
      "oto": 8826,
      "ĠTen": 8827,
      "ĠBea": 8828,
      "Ġknights": 8829,
      "Ġjolly": 8830,
      "ores": 8831,
      "ĠPoll": 8832,
      "Ġsup": 8833,
      "ĠNap": 8834,
      "Ġroot": 8835,
      "ĠKaz": 8836,
      "intendo": 8837,
      "Ġworldwide": 8838,
      "Ġwarrant": 8839,
      "Ġdistingu": 8840,
      "Ġ1961": 8841,
      "Ġdealing": 8842,
      "Ġdefense": 8843,
      "Ġdevil": 8844,
      "Ġgenus": 8845,
      "ĠLiber": 8846,
      "Ġbubble": 8847,
      "Ġnikki": 8848,
      "eel": 8849,
      "kers": 8850,
      "lan": 8851,
      "tie": 8852,
      "uay": 8853,
      "Ġak": 8854,
      "Ġfaced": 8855,
      "orse": 8856,
      "Ġgroom": 8857,
      "Ġandy": 8858,
      "itter": 8859,
      "ĠInt": 8860,
      "Ġstew": 8861,
      "ĠSel": 8862,
      "ĠShow": 8863,
      "Ġkar": 8864,
      "ĠMall": 8865,
      "ĠBam": 8866,
      "ĠBurg": 8867,
      "Ġjer": 8868,
      "ĠPur": 8869,
      "arts": 8870,
      "ĠGulf": 8871,
      "Ġexped": 8872,
      "agger": 8873,
      "Ġactions": 8874,
      "ruck": 8875,
      "Ġrecover": 8876,
      "Ġbelief": 8877,
      "ĠAnna": 8878,
      "eaking": 8879,
      "ĠNews": 8880,
      "Ġ1949": 8881,
      "Ġconstantly": 8882,
      "Ġhaste": 8883,
      "ĠTwenty": 8884,
      "Ġseventeen": 8885,
      "Ġvanished": 8886,
      "ĠJohan": 8887,
      "Ġliberty": 8888,
      "Ġmystery": 8889,
      "Ġinhabitants": 8890,
      "27": 8891,
      "Just": 8892,
      "hh": 8893,
      "zed": 8894,
      "Ġwil": 8895,
      "Ġgrie": 8896,
      "asha": 8897,
      "Ġult": 8898,
      "ĠSay": 8899,
      "ĠSnow": 8900,
      "Ġrust": 8901,
      "Ġrhy": 8902,
      "Ġsuitc": 8903,
      "nah": 8904,
      "ĠJenny": 8905,
      "Ġwherever": 8906,
      "agle": 8907,
      "Ġtray": 8908,
      "Ġera": 8909,
      "Ġchina": 8910,
      "Ġbuzz": 8911,
      "Ġcrashed": 8912,
      "Ġdating": 8913,
      "Ġsurvey": 8914,
      "Ġ184": 8915,
      "Ġinvitation": 8916,
      "Ġcares": 8917,
      "clude": 8918,
      "cluded": 8919,
      "Ġedie": 8920,
      "Ġ1958": 8921,
      "Ġannual": 8922,
      "ĠCrown": 8923,
      "Ġvalentine": 8924,
      "Ġterribly": 8925,
      "Ġcreation": 8926,
      "Ġcommanded": 8927,
      "Ġremarkable": 8928,
      "Ġregarded": 8929,
      "ĠFranklin": 8930,
      "Ġdemanded": 8931,
      "Ġwrapped": 8932,
      "Ġwidow": 8933,
      "Ġpumpkin": 8934,
      "ĠGladys": 8935,
      "ĠDoubs": 8936,
      "Ġunexpected": 8937,
      "Ġmacaroni": 8938,
      "500": 8939,
      "lace": 8940,
      "zes": 8941,
      "Ġnuts": 8942,
      "Ġnasty": 8943,
      "lection": 8944,
      "Ġbeard": 8945,
      "vering": 8946,
      "ĠTurn": 8947,
      "imp": 8948,
      "ĠMun": 8949,
      "Ġsequ": 8950,
      "Ġnodd": 8951,
      "ĠHay": 8952,
      "ilia": 8953,
      "ĠRab": 8954,
      "Ġouter": 8955,
      "elope": 8956,
      "ĠNintendo": 8957,
      "ĠGall": 8958,
      "ĠStand": 8959,
      "ĠValley": 8960,
      "Ġremove": 8961,
      "Ġthankful": 8962,
      "Ġcontains": 8963,
      "erer": 8964,
      "Ġregional": 8965,
      "byn": 8966,
      "ĠSpir": 8967,
      "Ġrefuse": 8968,
      "ĠLeo": 8969,
      "umbling": 8970,
      "Ġreceiving": 8971,
      "Ġscale": 8972,
      "ĠRussians": 8973,
      "Ġ1929": 8974,
      "Ġlabour": 8975,
      "Ġdevoted": 8976,
      "ĠAmong": 8977,
      "Ġactivity": 8978,
      "ĠMcC": 8979,
      "shall": 8980,
      "hearted": 8981,
      "ĠMatthew": 8982,
      "Ġashore": 8983,
      "ĠCarolina": 8984,
      "ĠGirls": 8985,
      "Ġforbid": 8986,
      "Ġcigaret": 8987,
      "Ġpennies": 8988,
      "Mar": 8989,
      "girl": 8990,
      "inet": 8991,
      "Ġdna": 8992,
      "Ġfires": 8993,
      "oween": 8994,
      "Ġbean": 8995,
      "idy": 8996,
      "Ġstated": 8997,
      "section": 8998,
      "ĠManche": 8999,
      "ilton": 9000,
      "ĠLib": 9001,
      "Ġlover": 9002,
      "orne": 9003,
      "ordon": 9004,
      "Ġneedle": 9005,
      "Ġglorious": 9006,
      "Ġimprison": 9007,
      "Ġconspir": 9008,
      "Ġgenerous": 9009,
      "Ġtyp": 9010,
      "Ġcalcul": 9011,
      "Ġseventh": 9012,
      "Ġsolution": 9013,
      "ĠParker": 9014,
      "Ġpoetry": 9015,
      "Ġmemories": 9016,
      "Ġprincipal": 9017,
      "ĠDivision": 9018,
      "ĠRepresentatives": 9019,
      "ĠToday": 9020,
      "hun": 9021,
      "pat": 9022,
      "Ġoak": 9023,
      "ndon": 9024,
      "Ġmild": 9025,
      "Ġyards": 9026,
      "Ġcough": 9027,
      "Ġdwell": 9028,
      "Ġpy": 9029,
      "itals": 9030,
      "ĠIce": 9031,
      "Ġislands": 9032,
      "utive": 9033,
      "verse": 9034,
      "ĠTar": 9035,
      "ĠHoly": 9036,
      "ĠPy": 9037,
      "Ġalike": 9038,
      "ĠEls": 9039,
      "ema": 9040,
      "Ġpecul": 9041,
      "Ġoffering": 9042,
      "assador": 9043,
      "ggie": 9044,
      "Ġcontest": 9045,
      "Ġbush": 9046,
      "ĠAnim": 9047,
      "ĠAlso": 9048,
      "Ġobst": 9049,
      "Ġconscience": 9050,
      "Ġfollows": 9051,
      "Ġtennis": 9052,
      "ighs": 9053,
      "Ġ1962": 9054,
      "Ġ1953": 9055,
      "Ġruined": 9056,
      "Ġcollected": 9057,
      "Ġbehalf": 9058,
      "Ġremaining": 9059,
      "Ġunconscious": 9060,
      "Ġfantastic": 9061,
      "Ġjanet": 9062,
      "Ġassociated": 9063,
      "Ġoxygen": 9064,
      "ocracy": 9065,
      "Ã£o": 9066,
      "Ġaboard": 9067,
      "ĠVienna": 9068,
      "Ġacknow": 9069,
      "Ġpeculiar": 9070,
      "\"),": 9071,
      "29": 9072,
      "gins": 9073,
      "hol": 9074,
      "mail": 9075,
      "Ġwrap": 9076,
      "Ġmister": 9077,
      "Ġlane": 9078,
      "Ġbees": 9079,
      "utor": 9080,
      "riot": 9081,
      "Ġstair": 9082,
      "ĠHur": 9083,
      "ĠWel": 9084,
      "agers": 9085,
      "ĠVenez": 9086,
      "Ġ2024": 9087,
      "Ġmonarch": 9088,
      "Ġretreat": 9089,
      "Ġinstantly": 9090,
      "Ġsatell": 9091,
      "Ġexpressed": 9092,
      "Ġ1939": 9093,
      "Ġbands": 9094,
      "Ġclosing": 9095,
      "Ġpuzzled": 9096,
      "Ġinjury": 9097,
      "ĠRosam": 9098,
      "Ġstrangers": 9099,
      "Ġcabinet": 9100,
      "ĠChildren": 9101,
      "ynamite": 9102,
      "ĠMansfield": 9103,
      "Ind": 9104,
      "vation": 9105,
      "Ġwars": 9106,
      "Ġske": 9107,
      "haw": 9108,
      "Ġmice": 9109,
      "Ġthumb": 9110,
      "unks": 9111,
      "ĠNich": 9112,
      "Ġblah": 9113,
      "Ġscot": 9114,
      "encies": 9115,
      "Ġsits": 9116,
      "ĠAnthony": 9117,
      "ĠClare": 9118,
      "ipping": 9119,
      "coming": 9120,
      "ĠBroad": 9121,
      "Ġpause": 9122,
      "Ġbasic": 9123,
      "Ġfeeding": 9124,
      "Ġsympathy": 9125,
      "ĠBerlin": 9126,
      "Ġporch": 9127,
      "ĠPrague": 9128,
      "igenous": 9129,
      "away": 9130,
      "Ġtub": 9131,
      "Ġeuro": 9132,
      "ooh": 9133,
      "riam": 9134,
      "Ġkicked": 9135,
      "Ġketch": 9136,
      "Ġalley": 9137,
      "ĠPitt": 9138,
      "ĠWolf": 9139,
      "uma": 9140,
      "ulpt": 9141,
      "ĠElo": 9142,
      "igator": 9143,
      "ements": 9144,
      "ousin": 9145,
      "Ġarrows": 9146,
      "Ġresign": 9147,
      "Ġheaded": 9148,
      "ĠSociety": 9149,
      "Ġswiss": 9150,
      "ĠBrooke": 9151,
      "Ġmetres": 9152,
      "Ġfrost": 9153,
      "Ġconfusion": 9154,
      "Ġrecorder": 9155,
      "boat": 9156,
      "Ġbutterflies": 9157,
      "ĠMean": 9158,
      "Ġadventures": 9159,
      "Ġexecuted": 9160,
      "Ġcadet": 9161,
      "Ġswallow": 9162,
      "Ġnodded": 9163,
      "ares": 9164,
      "dog": 9165,
      "mic": 9166,
      "mers": 9167,
      "pent": 9168,
      "Äģ": 9169,
      "Ġing": 9170,
      "Ġtu": 9171,
      "Ġdow": 9172,
      "Ġfer": 9173,
      "Ġfame": 9174,
      "Ġhits": 9175,
      "Ġstiff": 9176,
      "Ġkate": 9177,
      "ĠCD": 9178,
      "ĠCind": 9179,
      "Ġseas": 9180,
      "ĠBank": 9181,
      "ĠBishop": 9182,
      "Ġraces": 9183,
      "uls": 9184,
      "Ġshone": 9185,
      "elling": 9186,
      "Ġmanners": 9187,
      "Ġmoves": 9188,
      "oused": 9189,
      "Ġune": 9190,
      "Ġnicely": 9191,
      "Ġmarbles": 9192,
      "Ġacademic": 9193,
      "Ġrivers": 9194,
      "Ġskills": 9195,
      "Ġtripp": 9196,
      "ĠBecket": 9197,
      "ikes": 9198,
      "headed": 9199,
      "Ġexpand": 9200,
      "Ġ1938": 9201,
      "Ġcrossing": 9202,
      "Ġmagnific": 9203,
      "ĠMaryland": 9204,
      "Ġconsidering": 9205,
      "Ġquarters": 9206,
      "ĠSupp": 9207,
      "Ġcycl": 9208,
      "Ġtowel": 9209,
      "Ġparticipated": 9210,
      "Ġtalent": 9211,
      "Ġconductor": 9212,
      "Ġmakin": 9213,
      "35": 9214,
      "AA": 9215,
      "UR": 9216,
      "may": 9217,
      "mod": 9218,
      "master": 9219,
      "Ġtus": 9220,
      "Ġsust": 9221,
      "Ġoath": 9222,
      "Ġinher": 9223,
      "Ġstable": 9224,
      "ĠMP": 9225,
      "chran": 9226,
      "ĠBart": 9227,
      "Ġtwin": 9228,
      "Ġclergy": 9229,
      "Ġblo": 9230,
      "ibly": 9231,
      "Ġmovements": 9232,
      "Ġcenturies": 9233,
      "Ġassass": 9234,
      "Ġsteep": 9235,
      "Ġlawn": 9236,
      "Ġburden": 9237,
      "Ġcopies": 9238,
      "Ġcandle": 9239,
      "Ġappropri": 9240,
      "Ġvariety": 9241,
      "Ġtracks": 9242,
      "ĠCorbyn": 9243,
      "ĠBelg": 9244,
      "Ġscientist": 9245,
      "ĠIsraeli": 9246,
      "Ġopposition": 9247,
      "Ġceased": 9248,
      "ĠOlive": 9249,
      "Ġinspector": 9250,
      "Ġtigers": 9251,
      "Ġconvinced": 9252,
      "gi": 9253,
      "iat": 9254,
      "lant": 9255,
      "inent": 9256,
      "ington": 9257,
      "itical": 9258,
      "Ġegypt": 9259,
      "aling": 9260,
      "alys": 9261,
      "ĠCop": 9262,
      "Ġnotable": 9263,
      "ĠHulk": 9264,
      "osis": 9265,
      "Ġvig": 9266,
      "Ġleather": 9267,
      "Ġbund": 9268,
      "Ġsmoking": 9269,
      "Ġsergeant": 9270,
      "Ġrecovered": 9271,
      "Ġswept": 9272,
      "Ġphr": 9273,
      "Ġdistress": 9274,
      "Ġedition": 9275,
      "chestra": 9276,
      "Ġanswering": 9277,
      "ĠConf": 9278,
      "Ġstrawberry": 9279,
      "ĠJosÃ©": 9280,
      "ĠBourg": 9281,
      "Ġcloak": 9282,
      "ĠVenezuel": 9283,
      ".)": 9284,
      "bble": 9285,
      "ipt": 9286,
      "rical": 9287,
      "Ã¢": 9288,
      "Ġcraft": 9289,
      "Ġfestival": 9290,
      "Ġpitch": 9291,
      "Ġgook": 9292,
      "Ġgimme": 9293,
      "Ġniece": 9294,
      "itled": 9295,
      "ettle": 9296,
      "Ġere": 9297,
      "Ġreject": 9298,
      "ĠSure": 9299,
      "ĠMeg": 9300,
      "Ġbuttons": 9301,
      "Ġsailing": 9302,
      "ĠPage": 9303,
      "ĠRud": 9304,
      "ĠFriend": 9305,
      "ĠLew": 9306,
      "Ġexceed": 9307,
      "Ġmock": 9308,
      "Ġeric": 9309,
      "Ġshade": 9310,
      "Ġshaking": 9311,
      "Ġscorn": 9312,
      "Ġattitude": 9313,
      "ĠAlright": 9314,
      "atural": 9315,
      "Ġempire": 9316,
      "Ġtemp": 9317,
      "Ġmistaken": 9318,
      "Ġbudget": 9319,
      "ĠJoan": 9320,
      "Ġvirgin": 9321,
      "Ġcadets": 9322,
      "ĠBiography": 9323,
      "Ġreckon": 9324,
      "ĠOffice": 9325,
      "Ġwebsite": 9326,
      "Ġdiplom": 9327,
      "Ġatmosphere": 9328,
      "CO": 9329,
      "CT": 9330,
      "Miss": 9331,
      "ST": 9332,
      "kward": 9333,
      "rup": 9334,
      "ser": 9335,
      "Ġtires": 9336,
      "Ġwoof": 9337,
      "Ġdedic": 9338,
      "ingle": 9339,
      "Ġginger": 9340,
      "itol": 9341,
      "Ġbew": 9342,
      "Ġbeet": 9343,
      "Ġmead": 9344,
      "Ġsovere": 9345,
      "ĠPa": 9346,
      "gel": 9347,
      "oland": 9348,
      "ĠLomb": 9349,
      "ĠJessie": 9350,
      "Ġbobby": 9351,
      "Ġflesh": 9352,
      "Ġlonging": 9353,
      "Ġscold": 9354,
      "olley": 9355,
      "Ġrelation": 9356,
      "Ġobvious": 9357,
      "Ġconsent": 9358,
      "Ġtries": 9359,
      "Ġtriumph": 9360,
      "Ġcausing": 9361,
      "Ġnearby": 9362,
      "ĠBevis": 9363,
      "okes": 9364,
      "Ġofficials": 9365,
      "coma": 9366,
      "Ġvillages": 9367,
      "Ġgallant": 9368,
      "Ġcapture": 9369,
      "ĠJimmy": 9370,
      "Ġcelebrate": 9371,
      "Ġsacred": 9372,
      "Ġnearest": 9373,
      "Ġreviews": 9374,
[...]
