{
  "version": "1.0",
  "truncation": null,
  "padding": null,
  "added_tokens": [
    {
      "id": 0,
      "content": "<|endoftext|>",
      "single_word": false,
      "lstrip": false,
      "rstrip": false,
      "normalized": false,
      "special": true
    }
  ],
  "normalizer": null,
  "pre_tokenizer": {
    "type": "ByteLevel",
    "add_prefix_space": true,
    "trim_offsets": true,
    "use_regex": true
  },
  "post_processor": null,
  "decoder": {
    "type": "ByteLevel",
    "add_prefix_space": true,
    "trim_offsets": true,
    "use_regex": true
  },
  "model": {
    "type": "BPE",
    "dropout": null,
    "unk_token": null,
    "continuing_subword_prefix": null,
    "end_of_word_suffix": null,
    "fuse_unk": false,
    "byte_fallback": false,
    "ignore_merges": false,
    "vocab": {
      "<|endoftext|>": 0,
      "!": 1,
      "\"": 2,
      "#": 3,
      "$": 4,
      "%": 5,
      "&": 6,
      "'": 7,
      "(": 8,
      ")": 9,
      "*": 10,
      "+": 11,
      ",": 12,
      "-": 13,
      ".": 14,
      "/": 15,
      "0": 16,
      "1": 17,
      "2": 18,
      "3": 19,
      "4": 20,
      "5": 21,
      "6": 22,
      "7": 23,
      "8": 24,
      "9": 25,
      ":": 26,
      ";": 27,
      "<": 28,
      "=": 29,
      ">": 30,
      "?": 31,
      "@": 32,
      "A": 33,
      "B": 34,
      "C": 35,
      "D": 36,
      "E": 37,
      "F": 38,
      "G": 39,
      "H": 40,
      "I": 41,
      "J": 42,
      "K": 43,
      "L": 44,
      "M": 45,
      "N": 46,
      "O": 47,
      "P": 48,
      "Q": 49,
      "R": 50,
      "S": 51,
      "T": 52,
      "U": 53,
      "V": 54,
      "W": 55,
      "X": 56,
      "Y": 57,
      "Z": 58,
      "[": 59,
      "\\": 60,
      "]": 61,
      "^": 62,
      "_": 63,
      "`": 64,
      "a": 65,
      "b": 66,
      "c": 67,
      "d": 68,
      "e": 69,
      "f": 70,
      "g": 71,
      "h": 72,
      "i": 73,
      "j": 74,
      "k": 75,
      "l": 76,
      "m": 77,
      "n": 78,
      "o": 79,
      "p": 80,
      "q": 81,
      "r": 82,
      "s": 83,
      "t": 84,
      "u": 85,
      "v": 86,
      "w": 87,
      "x": 88,
      "y": 89,
      "z": 90,
      "{": 91,
      "|": 92,
      "}": 93,
      "~": 94,
      "¡": 95,
      "¢": 96,
      "£": 97,
      "¤": 98,
      "¥": 99,
      "¦": 100,
      "§": 101,
      "¨": 102,
      "©": 103,
      "ª": 104,
      "«": 105,
      "¬": 106,
      "®": 107,
      "¯": 108,
      "°": 109,
      "±": 110,
      "²": 111,
      "³": 112,
      "´": 113,
      "µ": 114,
      "¶": 115,
      "·": 116,
      "¸": 117,
      "¹": 118,
      "º": 119,
      "»": 120,
      "¼": 121,
      "½": 122,
      "¾": 123,
      "¿": 124,
      "À": 125,
      "Á": 126,
      "Â": 127,
      "Ã": 128,
      "Ä": 129,
      "Å": 130,
      "Æ": 131,
      "Ç": 132,
      "È": 133,
      "É": 134,
      "Ê": 135,
      "Ë": 136,
      "Ì": 137,
      "Í": 138,
      "Î": 139,
      "Ï": 140,
      "Ð": 141,
      "Ñ": 142,
      "Ò": 143,
      "Ó": 144,
      "Ô": 145,
      "Õ": 146,
      "Ö": 147,
      "×": 148,
      "Ø": 149,
      "Ù": 150,
      "Ú": 151,
      "Û": 152,
      "Ü": 153,
      "Ý": 154,
      "Þ": 155,
      "ß": 156,
      "à": 157,
      "á": 158,
      "â": 159,
      "ã": 160,
      "ä": 161,
      "å": 162,
      "æ": 163,
      "ç": 164,
      "è": 165,
      "é": 166,
      "ê": 167,
      "ë": 168,
      "ì": 169,
      "í": 170,
      "î": 171,
      "ï": 172,
      "ð": 173,
      "ñ": 174,
      "ò": 175,
      "ó": 176,
      "ô": 177,
      "õ": 178,
      "ö": 179,
      "÷": 180,
      "ø": 181,
      "ù": 182,
      "ú": 183,
      "û": 184,
      "ü": 185,
      "ý": 186,
      "þ": 187,
      "ÿ": 188,
      "Ā": 189,
      "ā": 190,
      "Ă": 191,
      "ă": 192,
      "Ą": 193,
      "ą": 194,
      "Ć": 195,
      "ć": 196,
      "Ĉ": 197,
      "ĉ": 198,
      "Ċ": 199,
      "ċ": 200,
      "Č": 201,
      "č": 202,
      "Ď": 203,
      "ď": 204,
      "Đ": 205,
      "đ": 206,
      "Ē": 207,
      "ē": 208,
      "Ĕ": 209,
      "ĕ": 210,
      "Ė": 211,
      "ė": 212,
      "Ę": 213,
      "ę": 214,
      "Ě": 215,
      "ě": 216,
      "Ĝ": 217,
      "ĝ": 218,
      "Ğ": 219,
      "ğ": 220,
      "Ġ": 221,
      "ġ": 222,
      "Ģ": 223,
      "ģ": 224,
      "Ĥ": 225,
      "ĥ": 226,
      "Ħ": 227,
      "ħ": 228,
      "Ĩ": 229,
      "ĩ": 230,
      "Ī": 231,
      "ī": 232,
      "Ĭ": 233,
      "ĭ": 234,
      "Į": 235,
      "į": 236,
      "İ": 237,
      "ı": 238,
      "Ĳ": 239,
      "ĳ": 240,
      "Ĵ": 241,
      "ĵ": 242,
      "Ķ": 243,
      "ķ": 244,
      "ĸ": 245,
      "Ĺ": 246,
      "ĺ": 247,
      "Ļ": 248,
      "ļ": 249,
      "Ľ": 250,
      "ľ": 251,
      "Ŀ": 252,
      "ŀ": 253,
      "Ł": 254,
      "ł": 255,
      "Ń": 256,
      "Ġt": 257,
      "he": 258,
      "Ġa": 259,
      "in": 260,
      "Ġw": 261,
      "Ġthe": 262,
      "Ġs": 263,
      "ou": 264,
      "re": 265,
      "Ġo": 266,
      "ha": 267,
      "Ġi": 268,
      "Ġb": 269,
      "er": 270,
      "nd": 271,
      "Ġy": 272,
      "Ġm": 273,
      "Ġc": 274,
      "Ġd": 275,
      "Ġf": 276,
      "on": 277,
      "Ġyou": 278,
      "ing": 279,
      "ll": 280,
      "Ġto": 281,
      "an": 282,
      "ed": 283,
      "Ġg": 284,
      "or": 285,
      "Ġp": 286,
      "Ġl": 287,
      "hat": 288,
      "en": 289,
      "es": 290,
      "Ġand": 291,
      "Ġn": 292,
      "is": 293,
      "ar": 294,
      "it": 295,
      "Ġof": 296,
      "Ġin": 297,
      "Ġhe": 298,
      "as": 299,
      "om": 300,
      "Ġh": 301,
      "at": 302,
      "Ġit": 303,
      "ĠI": 304,
      "'s": 305,
      "ow": 306,
      "Ġha": 307,
      "ot": 308,
      "Ġthat": 309,
      "Ġth": 310,
      "ve": 311,
      "et": 312,
      "le": 313,
      "ay": 314,
      "Ġon": 315,
      "ic": 316,
      "Ġwe": 317,
      "us": 318,
      "Ġbe": 319,
      "Ġis": 320,
      "id": 321,
      "gh": 322,
      "Ġe": 323,
      "ld": 324,
      "ut": 325,
      "Ġwas": 326,
      "al": 327,
      "oo": 328,
      "'t": 329,
      "Ġdo": 330,
      "Ġr": 331,
      "ke": 332,
      "..": 333,
      "Ġre": 334,
      "Ġ\"": 335,
      "ac": 336,
      "ver": 337,
      "ĠT": 338,
      "ght": 339,
      "Ġu": 340,
      "Ġfor": 341,
      "im": 342,
      "ad": 343,
      "ir": 344,
      "Ġst": 345,
      "se": 346,
      "ly": 347,
      "ent": 348,
      "Ġwhat": 349,
      "am": 350,
      "ĠA": 351,
      "ion": 352,
      "Ġk": 353,
      "out": 354,
      "Ġme": 355,
      "st": 356,
      "Ġwh": 357,
      "ĠS": 358,
      "ith": 359,
      "ight": 360,
      "Ġan": 361,
      "ĠM": 362,
      "Ġgo": 363,
      "ea": 364,
      "Ġwith": 365,
      "ome": 366,
      "Ġthis": 367,
      "her": 368,
      "Ġse": 369,
      "ĠB": 370,
      "ur": 371,
      "Ġnot": 372,
      "Ġas": 373,
      "all": 374,
      "Ġno": 375,
      "Ġli": 376,
      "Ġ-": 377,
      "Ġhave": 378,
      "Ġare": 379,
      "ter": 380,
      "ch": 381,
      "ould": 382,
      "ill": 383,
      "Ġthere": 384,
      "Ġat": 385,
      "Ġthey": 386,
      "Ġj": 387,
      "ro": 388,
      "ĠC": 389,
      "ce": 390,
      "Ġkn": 391,
      "Ġcan": 392,
      "Ġwhe": 393,
      "Ġso": 394,
      "ĠThe": 395,
      "ĠH": 396,
      "ust": 397,
      "ie": 398,
      "Ġone": 399,
      "Ġdon": 400,
      "il": 401,
      "Ġshe": 402,
      "ant": 403,
      "Ġhis": 404,
      "Ġfr": 405,
      "Ġknow": 406,
      "...": 407,
      "ain": 408,
      "ct": 409,
      "Ġbut": 410,
      "Ġall": 411,
      "un": 412,
      "ook": 413,
      "Ġmy": 414,
      "Ġne": 415,
      "op": 416,
      "eah": 417,
      "Ġyour": 418,
      "ore": 419,
      "and": 420,
      "Ġher": 421,
      "xx": 422,
      "um": 423,
      "Ġup": 424,
      "Ġhad": 425,
      "Ġsh": 426,
      "ge": 427,
      "ĠW": 428,
      "Ġsa": 429,
      "pp": 430,
      "Ġlike": 431,
      "our": 432,
      "Ġoh": 433,
      "Ġde": 434,
      "ri": 435,
      "ĠP": 436,
      "Ġal": 437,
      "Ġ1": 438,
      "ood": 439,
      "ell": 440,
      "Ġyeah": 441,
      "Ġdid": 442,
      "th": 443,
      "Ġhim": 444,
      "Ġget": 445,
      "Ġab": 446,
      "Ġout": 447,
      "ol": 448,
      "Ġsee": 449,
      "ink": 450,
      "ab": 451,
      "ul": 452,
      "ake": 453,
      "ack": 454,
      "Ġpl": 455,
      "ry": 456,
      "'re": 457,
      "ĠD": 458,
      "art": 459,
      "Ġor": 460,
      "Ġfrom": 461,
      "Ġhere": 462,
      "red": 463,
      "very": 464,
      "Ġlook": 465,
      "han": 466,
      "ig": 467,
      "Ġsu": 468,
      "el": 469,
      "'m": 470,
      "Ġwere": 471,
      "ess": 472,
      "Ġby": 473,
      "ers": 474,
      "ĠN": 475,
      "est": 476,
      "Ġjust": 477,
      "qu": 478,
      "Ġwho": 479,
      "ation": 480,
      "ist": 481,
      "ĠF": 482,
      "ame": 483,
      "ind": 484,
      "ck": 485,
      "Ġthem": 486,
      "Ġgot": 487,
      "Ġsome": 488,
      "ra": 489,
      "ound": 490,
      "ĠJ": 491,
      "ong": 492,
      "Ġnow": 493,
      "os": 494,
      "Ġif": 495,
      "ĠG": 496,
      "ard": 497,
      "Ġcom": 498,
      "ĠR": 499,
      "Ġright": 500,
      "itt": 501,
      "'ll": 502,
      "nt": 503,
      "Ġthink": 504,
      "ĠL": 505,
      "Ġabout": 506,
      "Ġwor": 507,
      "one": 508,
      "Ġus": 509,
      "Ġsp": 510,
      "Ġwant": 511,
      "own": 512,
      ".\"": 513,
      "ast": 514,
      "ĠE": 515,
      "na": 516,
      "Ġ2": 517,
      "ally": 518,
      "Ġwould": 519,
      "ive": 520,
      "res": 521,
      "ĠO": 522,
      "Ġwhen": 523,
      "fe": 524,
      "Ġwell": 525,
      "Ġv": 526,
      "Ġsaid": 527,
      "Ġ(": 528,
      "Ġex": 529,
      "ep": 530,
      "em": 531,
      "Ġany": 532,
      "Ġthen": 533,
      "ak": 534,
      "ate": 535,
      "Ġwhere": 536,
      "Ġman": 537,
      "Ġgood": 538,
      "Ġtw": 539,
      "Ġbo": 540,
      "Ġwill": 541,
      "ber": 542,
      "Ġcon": 543,
      "ime": 544,
      "Ġsay": 545,
      "ap": 546,
      "ort": 547,
      "Ġcome": 548,
      "ven": 549,
      "ich": 550,
      "ice": 551,
      "ine": 552,
      "if": 553,
      "ough": 554,
      "Ġtr": 555,
      "kay": 556,
      "Ġhow": 557,
      "hing": 558,
      "use": 559,
      "Ġyes": 560,
      "'ve": 561,
      "ĠY": 562,
      ",\"": 563,
      "xxx": 564,
      "Ġxxx": 565,
      "ĠHe": 566,
      "ick": 567,
      "ear": 568,
      "Ġmo": 569,
      "ittle": 570,
      "ĠIt": 571,
      "Ġpro": 572,
      "ies": 573,
      "Ġch": 574,
      "ide": 575,
      "Ġbr": 576,
      "Ġokay": 577,
      "ous": 578,
      "Ġput": 579,
      "Ġlo": 580,
      "Ġint": 581,
      "ag": 582,
      "Ġag": 583,
      "ca": 584,
      "ther": 585,
      "Ġgoing": 586,
      "Ġ'": 587,
      "Ġcould": 588,
      "way": 589,
      "Ġlittle": 590,
      "Ġbeen": 591,
      "Ġlet": 592,
      "Ġcl": 593,
      "Ġtime": 594,
      "Ġdown": 595,
      "Ġmore": 596,
      "other": 597,
      "Ġback": 598,
      "Ġar": 599,
      "Ġvery": 600,
      "Ġhas": 601,
      "Ġthan": 602,
      "Ġwhich": 603,
      "Ġtoo": 604,
      "dy": 605,
      "ose": 606,
      "Ġtwo": 607,
      "Ġ19": 608,
      "Ġpe": 609,
      "Ġover": 610,
      "Ġtheir": 611,
      "Ġ20": 612,
      "ace": 613,
      "ity": 614,
      "Ġqu": 615,
      "Ġoff": 616,
      "lf": 617,
      "cause": 618,
      "Ġco": 619,
      "Ġgr": 620,
      "ite": 621,
      "ree": 622,
      "Ġaf": 623,
      "Ġle": 624,
      "Ġother": 625,
      "ip": 626,
      "Ġfe": 627,
      "ish": 628,
      "ft": 629,
      "Ġthing": 630,
      "are": 631,
      "Ġro": 632,
      "Ġplay": 633,
      "ud": 634,
      "orn": 635,
      "reat": 636,
      "Ġbl": 637,
      "Ġdoes": 638,
      "nder": 639,
      "ure": 640,
      "my": 641,
      "ue": 642,
      "omet": 643,
      "hed": 644,
      "Ġer": 645,
      "ought": 646,
      "ĠK": 647,
      "ian": 648,
      "ment": 649,
      "Ġtell": 650,
      "Ġwhy": 651,
      "Ġen": 652,
      "ople": 653,
      "age": 654,
      "Ġtake": 655,
      "Ġmake": 656,
      "irst": 657,
      "Ġway": 658,
      "ĠU": 659,
      "alk": 660,
      "Ġam": 661,
      "ass": 662,
      "ty": 663,
      "ia": 664,
      "Ġinto": 665,
      "ire": 666,
      "Ġpr": 667,
      "Ġagain": 668,
      "ade": 669,
      "--": 670,
      "Ġsomet": 671,
      "urn": 672,
      "Ġpeople": 673,
      "iv": 674,
      "Ġwork": 675,
      "onna": 676,
      "ase": 677,
      "Ġuh": 678,
      "Ġcall": 679,
      "ild": 680,
      "Ġsha": 681,
      "ater": 682,
      "Ġgonna": 683,
      "Ġday": 684,
      "mp": 685,
      "ount": 686,
      "Ġevery": 687,
      "ble": 688,
      "Ġbecause": 689,
      "Ġfirst": 690,
      "ect": 691,
      "Ġcar": 692,
      "Ġafter": 693,
      "ary": 694,
      "Ġun": 695,
      "Ġour": 696,
      "iss": 697,
      "Ġonly": 698,
      "Ġneed": 699,
      "Ġbet": 700,
      "ĠIn": 701,
      "Ġmean": 702,
      "Ġfl": 703,
      "Ġpo": 704,
      "pl": 705,
      "uch": 706,
      "Ġshould": 707,
      "?\"": 708,
      "Ġpart": 709,
      "Ġdidn": 710,
      "ord": 711,
      "Ġthese": 712,
      "ĠSt": 713,
      "fore": 714,
      "uh": 715,
      "Ġmay": 716,
      "ng": 717,
      "Ġthr": 718,
      "wn": 719,
      "Ġte": 720,
      "self": 721,
      "Ġcha": 722,
      "ile": 723,
      "so": 724,
      "we": 725,
      "ather": 726,
      "Ġreally": 727,
      "ved": 728,
      "pt": 729,
      "ach": 730,
      "ff": 731,
      "Ġhapp": 732,
      "co": 733,
      "ving": 734,
      "Ġmuch": 735,
      "act": 736,
      "Ġgu": 737,
      "ci": 738,
      "ys": 739,
      "ark": 740,
      "Ġsomething": 741,
      "ran": 742,
      "thing": 743,
      "ull": 744,
      "Ġpre": 745,
      "ub": 746,
      "per": 747,
      "Ġbig": 748,
      "bo": 749,
      "Ġmade": 750,
      "ady": 751,
      "mer": 752,
      "ouse": 753,
      "ĠTh": 754,
      "Ġke": 755,
      "ĠAnd": 756,
      "ress": 757,
      "Ġyear": 758,
      "Ġlong": 759,
      "day": 760,
      "Ġhand": 761,
      "Ġdis": 762,
      "Ġad": 763,
      "'d": 764,
      "ren": 765,
      "ting": 766,
      "Ġsm": 767,
      "man": 768,
      "irl": 769,
      "ied": 770,
      "au": 771,
      "ool": 772,
      "Ġfo": 773,
      "av": 774,
      "iz": 775,
      "cl": 776,
      "Ġbefore": 777,
      "uck": 778,
      "be": 779,
      "Ġple": 780,
      "Ġrem": 781,
      "able": 782,
      "ory": 783,
      "cc": 784,
      "Ġwent": 785,
      "Ġhel": 786,
      "Ġunder": 787,
      "Ġwr": 788,
      "Ġnever": 789,
      "Ġaway": 790,
      "Ġsc": 791,
      "Ġwan": 792,
      "ions": 793,
      "end": 794,
      "ated": 795,
      "ne": 796,
      "Ġum": 797,
      "Ġthree": 798,
      "Ġthose": 799,
      "Ġold": 800,
      "ps": 801,
      "Ġper": 802,
      "ob": 803,
      "Ġgirl": 804,
      "xt": 805,
      "ew": 806,
      "Ġtalk": 807,
      "Ġnew": 808,
      "Ġgive": 809,
      "Ġwanna": 810,
      "Ġask": 811,
      "Ġcame": 812,
      "Ġeven": 813,
      "ĠShe": 814,
      "Ġwa": 815,
      "Ġdoing": 816,
      "Ġthank": 817,
      "Ġact": 818,
      "Ġapp": 819,
      "Ġho": 820,
      "ang": 821,
      "Ġhome": 822,
      "Ġthought": 823,
      "ict": 824,
      "ful": 825,
      "Ġalso": 826,
      "Ġgreat": 827,
      "Ġmust": 828,
      "tain": 829,
      "ise": 830,
      "00": 831,
      "Ġcr": 832,
      "!\"": 833,
      "atch": 834,
      "Ġfind": 835,
      "ence": 836,
      "les": 837,
      "gg": 838,
      "Ġbab": 839,
      "Ġthings": 840,
      "ath": 841,
      "Ġhelp": 842,
      "ĠV": 843,
      "hm": 844,
      "Ġbu": 845,
      "ĠYeah": 846,
      "ix": 847,
      "Ġeat": 848,
      "ward": 849,
      "ried": 850,
      "Ġmom": 851,
      "Ġturn": 852,
      "ĠMr": 853,
      "ors": 854,
      "ĠBut": 855,
      "ance": 856,
      "Ġthrough": 857,
      "Ġmany": 858,
      "Ġcomp": 859,
      "od": 860,
      "Ġlea": 861,
      "ves": 862,
      "Ġhouse": 863,
      "Ġanother": 864,
      "Ġwon": 865,
      "ious": 866,
      "get": 867,
      "Ġlove": 868,
      "iend": 869,
      "Ġlast": 870,
      "ĠThey": 871,
      "ĠCh": 872,
      "ons": 873,
      "ens": 874,
      "Ġstill": 875,
      "ock": 876,
      "int": 877,
      "ened": 878,
      "Ġisn": 879,
      "Ġche": 880,
      "Ġfound": 881,
      "ily": 882,
      "Ġsl": 883,
      "Ġnight": 884,
      "Ġtry": 885,
      "oh": 886,
      "Ġstart": 887,
      "land": 888,
      "Ġser": 889,
      "Ġdone": 890,
      "Ġmin": 891,
      "Ġboy": 892,
      "Ġcalled": 893,
      "Ġshow": 894,
      "Ġmight": 895,
      "Ġhar": 896,
      "Ġbel": 897,
      "ail": 898,
      "hes": 899,
      "unn": 900,
      "Ġel": 901,
      "Ġlot": 902,
      "Ġhead": 903,
      "Ġop": 904,
      "Ġdr": 905,
      "Ġplease": 906,
      "Ġbit": 907,
      "air": 908,
      "Ġ201": 909,
      "Ġchan": 910,
      "oth": 911,
      "Ġhi": 912,
      "Ġsure": 913,
      "ign": 914,
      "hen": 915,
      "og": 916,
      "body": 917,
      "Ġfriend": 918,
      "ans": 919,
      "Ġname": 920,
      "Ġear": 921,
      "Ġres": 922,
      "ost": 923,
      "Ġwait": 924,
      "Ġchild": 925,
      "Ġbaby": 926,
      "med": 927,
      "Ġcont": 928,
      "ms": 929,
      "Ġbetter": 930,
      "Ġgl": 931,
      "Ġcomm": 932,
      "Ġcare": 933,
      "Ġhey": 934,
      "up": 935,
      "aking": 936,
      "Ġits": 937,
      "oney": 938,
      "Ġnice": 939,
      "Ġdif": 940,
      "Ġkind": 941,
      "Ġkeep": 942,
      "iver": 943,
      "ĠMum": 944,
      "side": 945,
      "Ġown": 946,
      "Ġmost": 947,
      "Ġcount": 948,
      "aw": 949,
      "ĠUn": 950,
      "Ġbook": 951,
      "ember": 952,
      "ĠNo": 953,
      "Ġwater": 954,
      "oss": 955,
      "ult": 956,
      "Ġanything": 957,
      "ually": 958,
      "chool": 959,
      "Ġfour": 960,
      "Ġfeel": 961,
      "als": 962,
      "Ġey": 963,
      "ates": 964,
      "ling": 965,
      "pe": 966,
      "Ġyears": 967,
      "ah": 968,
      "Ġmhm": 969,
      "Ġplace": 970,
      "ways": 971,
      "Ġmar": 972,
      "Ġend": 973,
      "Ġcour": 974,
      "Ġimp": 975,
      "Ġstop": 976,
      "Ġbeing": 977,
      "ope": 978,
      "Ġused": 979,
      "Ġlife": 980,
      "imes": 981,
      "Ġah": 982,
      "here": 983,
      "Ġdoesn": 984,
      "Ġaround": 985,
      "ical": 986,
      "Ġshall": 987,
      "ww": 988,
      "Ġsuch": 989,
      "ĠSo": 990,
      "ited": 991,
      "de": 992,
      "oy": 993,
      "ru": 994,
      "ott": 995,
      "inn": 996,
      "ave": 997,
      "ince": 998,
      "Ġsw": 999,
      "led": 1000,
      "rent": 1001,
      "ph": 1002,
      "Ġelse": 1003,
      "Ġfin": 1004,
      "Ġsame": 1005,
      "Ġbre": 1006,
      "ings": 1007,
      "Ġatt": 1008,
      "Ġsupp": 1009,
      "ever": 1010,
      "ek": 1011,
      "ĠOh": 1012,
      "Ġdes": 1013,
      "amp": 1014,
      "anc": 1015,
      "ute": 1016,
      "Ġwhile": 1017,
      "orry": 1018,
      "ĠYou": 1019,
      "Ġbus": 1020,
      "Ġtold": 1021,
      "Ġalways": 1022,
      "ere": 1023,
      "Ġsaw": 1024,
      "Ġsit": 1025,
      "Ġnext": 1026,
      "Ġ3": 1027,
      "Ġfather": 1028,
      "te": 1029,
      "Ġleft": 1030,
      "Ġmother": 1031,
      "ss": 1032,
      "Ġfar": 1033,
      "Ġschool": 1034,
      "Ġbeg": 1035,
      "atter": 1036,
      "Ġbec": 1037,
      "Ġnothing": 1038,
      "Ġmon": 1039,
      "Ġcle": 1040,
      "orm": 1041,
      "ations": 1042,
      "uc": 1043,
      "der": 1044,
      "ug": 1045,
      "ition": 1046,
      "Ġset": 1047,
      "addy": 1048,
      "Ġcol": 1049,
      "Ġever": 1050,
      "ars": 1051,
      "Ġpres": 1052,
      "row": 1053,
      "ĠAn": 1054,
      "Ġmen": 1055,
      "ond": 1056,
      "Ġpret": 1057,
      "aught": 1058,
      "Ġword": 1059,
      "ĠBr": 1060,
      "Ġnum": 1061,
      "Ġhuh": 1062,
      "Ġread": 1063,
      "und": 1064,
      "ican": 1065,
      "ĠThere": 1066,
      "ĠMummy": 1067,
      "Ġpol": 1068,
      "ird": 1069,
      "vel": 1070,
      "leep": 1071,
      "Ġfam": 1072,
      "Ġsorry": 1073,
      "Ġgone": 1074,
      "ee": 1075,
      "Ġunt": 1076,
      "Ġdiffe": 1077,
      "Ġroom": 1078,
      "Ġtook": 1079,
      "Ġgre": 1080,
      "Ġele": 1081,
      "Ġuse": 1082,
      "Ġmoney": 1083,
      "ank": 1084,
      "Ġopen": 1085,
      "ĠThis": 1086,
      "ness": 1087,
      "ents": 1088,
      "Ġcoming": 1089,
      "Ġenough": 1090,
      "\".": 1091,
      "ta": 1092,
      "ib": 1093,
      "Ġhm": 1094,
      "Ġfive": 1095,
      "Ġlist": 1096,
      "Ġwar": 1097,
      "ction": 1098,
      "orning": 1099,
      "by": 1100,
      "Ġerm": 1101,
      "Ġsur": 1102,
      "Ġhard": 1103,
      "Ġhold": 1104,
      "ont": 1105,
      "Ġthough": 1106,
      "Ġhear": 1107,
      "Ġmaybe": 1108,
      "ung": 1109,
      "Ġyoung": 1110,
      "Ġ200": 1111,
      "Ġwom": 1112,
      "Ġac": 1113,
      "Ġstay": 1114,
      "ister": 1115,
      "ump": 1116,
      "Ġacc": 1117,
      "outh": 1118,
      "ished": 1119,
      "pr": 1120,
      "ĠAl": 1121,
      "pect": 1122,
      "Ġmorning": 1123,
      "¿½": 1124,
      "ï¿½": 1125,
      "mber": 1126,
      "erson": 1127,
      "Ġwatch": 1128,
      "Ġmm": 1129,
      "Ġcap": 1130,
      "sh": 1131,
      "Ġuntil": 1132,
      "Ġremember": 1133,
      "Ġ.": 1134,
      "Ġchar": 1135,
      "ream": 1136,
      "Ġrep": 1137,
      "Ġrec": 1138,
      "Ġbed": 1139,
      "Ġreal": 1140,
      "Ġret": 1141,
      "Ġbelie": 1142,
      "right": 1143,
      "Ġeyes": 1144,
      "Ġph": 1145,
      "ins": 1146,
      "Ġhur": 1147,
      "Ġquite": 1148,
      "Ġpass": 1149,
      "ower": 1150,
      "akes": 1151,
      "Ġstr": 1152,
      "Ġdoor": 1153,
      "Ġlight": 1154,
      "ĠMar": 1155,
      "ĠWell": 1156,
      "Ġcourse": 1157,
      "Ġleave": 1158,
      "oc": 1159,
      "Ġreg": 1160,
      "ier": 1161,
      "gether": 1162,
      "Ġwalk": 1163,
      "Ġseen": 1164,
      "Ġasked": 1165,
      "Ġred": 1166,
      "Ġonce": 1167,
      "Ġworld": 1168,
      "az": 1169,
      "ger": 1170,
      "cond": 1171,
      "Ġstand": 1172,
      "Ġbest": 1173,
      "Ġsing": 1174,
      "oup": 1175,
      "llow": 1176,
      "Ġgoes": 1177,
      "Ġside": 1178,
      "Ġdear": 1179,
      "uff": 1180,
      "Ġtoday": 1181,
      "Ġob": 1182,
      "har": 1183,
      "Ġdist": 1184,
      "Ġnear": 1185,
      "ased": 1186,
      "ĠAr": 1187,
      "eak": 1188,
      "Ġround": 1189,
      "Ġfew": 1190,
      "ces": 1191,
      "Ġspe": 1192,
      "Ġmiss": 1193,
      "ĠAs": 1194,
      "Ġmil": 1195,
      "Ġsoon": 1196,
      "ts": 1197,
      "Ġfell": 1198,
      "Ġent": 1199,
      "ĠAmer": 1200,
      "Ġdifferent": 1201,
      "Ġyet": 1202,
      "ident": 1203,
      "vent": 1204,
      "Ġsk": 1205,
      "Ġrel": 1206,
      "ired": 1207,
      "Ġlooking": 1208,
      "Ġter": 1209,
      "Ġbro": 1210,
      "Ġsmall": 1211,
      "ial": 1212,
      "Ġmind": 1213,
      "Ġmr": 1214,
      "Ġsleep": 1215,
      "ross": 1216,
      "Ġsays": 1217,
      "ational": 1218,
      "Ġknown": 1219,
      "ton": 1220,
      "aster": 1221,
      "ible": 1222,
      "Ġfire": 1223,
      "ĠWe": 1224,
      "ĠThat": 1225,
      "Ġdog": 1226,
      "ween": 1227,
      "Ġboth": 1228,
      "ctor": 1229,
      "Ġheard": 1230,
      "Ġgetting": 1231,
      "Ġtogether": 1232,
      "Ġsix": 1233,
      "ash": 1234,
      "Ġwithout": 1235,
      "huh": 1236,
      "raw": 1237,
      "Ġca": 1238,
      "Ġma": 1239,
      "oun": 1240,
      "Ġeverything": 1241,
      "Ġbad": 1242,
      "Ġready": 1243,
      "Ġwind": 1244,
      "mb": 1245,
      "Ġ202": 1246,
      "ets": 1247,
      "ener": 1248,
      "Ġsecond": 1249,
      "Ġface": 1250,
      "ĠFran": 1251,
      "Ġeach": 1252,
      "Ġhell": 1253,
      "Ġnumber": 1254,
      "Ġupon": 1255,
      "Ġdri": 1256,
      "Ġchildren": 1257,
      "uring": 1258,
      "Ġsir": 1259,
      "the": 1260,
      "Ġid": 1261,
      "ork": 1262,
      "Ġrest": 1263,
      "Ġhaven": 1264,
      "),": 1265,
      "Ġwo": 1266,
      "ush": 1267,
      "The": 1268,
      "fta": 1269,
      "Ġhafta": 1270,
      "une": 1271,
      "Ġtrain": 1272,
      "Ġrun": 1273,
      "io": 1274,
      "Ġfollow": 1275,
      "ason": 1276,
      "Ġhappened": 1277,
      "Ġbetween": 1278,
      "Ġwanted": 1279,
      ").": 1280,
      "ret": 1281,
      "ably": 1282,
      "Ġlooked": 1283,
      "Ġperson": 1284,
      "Ġsho": 1285,
      "rist": 1286,
      "Ġhalf": 1287,
      "orth": 1288,
      "Ġhat": 1289,
      "Ġweek": 1290,
      "vie": 1291,
      "Ġmove": 1292,
      "ics": 1293,
      "Ġhimself": 1294,
      "ows": 1295,
      "ures": 1296,
      "ohn": 1297,
      "Ġjo": 1298,
      "ged": 1299,
      "Ġhaving": 1300,
      "Ġsn": 1301,
      "Ġlater": 1302,
      "Ġdep": 1303,
      "Ġfall": 1304,
      "Ġ18": 1305,
      "Ġhigh": 1306,
      "Ġball": 1307,
      "ular": 1308,
      "any": 1309,
      "Ġinst": 1310,
      "ames": 1311,
      "Ġknew": 1312,
      "Ġmatter": 1313,
      "oon": 1314,
      "Ġpretty": 1315,
      "Ġdec": 1316,
      "Ġ4": 1317,
      "Ġmus": 1318,
      "unny": 1319,
      "iet": 1320,
      "Ġlar": 1321,
      "fect": 1322,
      "ife": 1323,
      "gr": 1324,
      "less": 1325,
      "Ġheart": 1326,
      "Ġbring": 1327,
      "Ġfoot": 1328,
      "Ġcons": 1329,
      "Ġhands": 1330,
      "Ġsort": 1331,
      "Ġpie": 1332,
      "Ġind": 1333,
      "its": 1334,
      "most": 1335,
      "Ġalright": 1336,
      "pped": 1337,
      "Ġair": 1338,
      "Ġpop": 1339,
      "sel": 1340,
      "Ġ=": 1341,
      "enn": 1342,
      "Ġcity": 1343,
      "ertain": 1344,
      "ĠWhat": 1345,
      "Ġalong": 1346,
      "Ġpoint": 1347,
      "osed": 1348,
      "Ġunderst": 1349,
      "Ġsince": 1350,
      "eth": 1351,
      "Ġhour": 1352,
      "Ġans": 1353,
      "Ġdays": 1354,
      "Ġstory": 1355,
      "Ġexc": 1356,
      "aut": 1357,
      "ĠThen": 1358,
      "Ġlive": 1359,
      "Ġtra": 1360,
      "âĮ": 1361,
      "ĠDe": 1362,
      "Ġgave": 1363,
      "ĠEr": 1364,
      "Ġhor": 1365,
      "Ġhello": 1366,
      "ma": 1367,
      "Ġboys": 1368,
      "Ġpick": 1369,
      "Ġwasn": 1370,
      "ĠGr": 1371,
      "Ġtri": 1372,
      "Ġaw": 1373,
      "iness": 1374,
      "Ġagainst": 1375,
      "cial": 1376,
      "Ġsy": 1377,
      "Ġlooks": 1378,
      "ating": 1379,
      "Ġsound": 1380,
      "Ġactually": 1381,
      "ched": 1382,
      "Ġdire": 1383,
      "cle": 1384,
      "ane": 1385,
      "Ġbelieve": 1386,
      "Ġ199": 1387,
      "ann": 1388,
      "rew": 1389,
      "Ġbreak": 1390,
      "ither": 1391,
      "ĠEng": 1392,
      "lic": 1393,
      "Ġ5": 1394,
      "ats": 1395,
      "ĠWh": 1396,
      "me": 1397,
      "Ġgod": 1398,
      "cept": 1399,
      "att": 1400,
      "ines": 1401,
      "Ġkill": 1402,
      "ject": 1403,
      "Ġinv": 1404,
      "Ġfamily": 1405,
      "Ġste": 1406,
      "Ġinter": 1407,
      "\",": 1408,
      "ual": 1409,
      "Ġkid": 1410,
      "Ġdrink": 1411,
      "Ġdied": 1412,
      "ĠOn": 1413,
      "ina": 1414,
      "Ġblue": 1415,
      "Ġmaking": 1416,
      "ised": 1417,
      "ĠUnited": 1418,
      "den": 1419,
      "ĠAt": 1420,
      "Ġtop": 1421,
      "uth": 1422,
      "Ġcur": 1423,
      "ball": 1424,
      "Ġsub": 1425,
      "Ġwonder": 1426,
      "Ġwhole": 1427,
      "Ġswe": 1428,
      "Ġim": 1429,
      "Ġborn": 1430,
      "oll": 1431,
      "Ġtown": 1432,
      "Ġwouldn": 1433,
      "Ġwhite": 1434,
      "enty": 1435,
      "Ġadd": 1436,
      "Ġmeet": 1437,
      "Ġanim": 1438,
      "clud": 1439,
      "Ġhot": 1440,
      "Ġlisten": 1441,
      "Ġcent": 1442,
      "ped": 1443,
      "ĠNew": 1444,
      "Ġz": 1445,
      "Ġmoment": 1446,
      "ully": 1447,
      "Ġcut": 1448,
      "ĠMrs": 1449,
      "orrow": 1450,
      "ĠWhen": 1451,
      "Ġsaying": 1452,
      "Ġbrother": 1453,
      "Ġstarted": 1454,
      "erest": 1455,
      "vern": 1456,
      "ision": 1457,
      "ief": 1458,
      "ĠSp": 1459,
      "ten": 1460,
      "Ġfine": 1461,
      "Ġprob": 1462,
      "Ġland": 1463,
      "ike": 1464,
      "Ġreturn": 1465,
      "Ġclose": 1466,
      "ced": 1467,
      "ĠAmerican": 1468,
      "Ġson": 1469,
      "ered": 1470,
      "ĠBe": 1471,
      "ĠDaddy": 1472,
      "ready": 1473,
      "ters": 1474,
      "ĠAf": 1475,
      "Ġunderstand": 1476,
      "Ġpap": 1477,
      "ĠFr": 1478,
      "Ġalmost": 1479,
      "Ġpict": 1480,
      "Ġfood": 1481,
      "ield": 1482,
      "Ġhappy": 1483,
      "Ġmet": 1484,
      "Ġteam": 1485,
      "Ġinf": 1486,
      "Ġeight": 1487,
      "ĠInd": 1488,
      "ale": 1489,
      "ster": 1490,
      "Ġbeaut": 1491,
      "Ġinterest": 1492,
      "igh": 1493,
      "Ġwrong": 1494,
      "Ġgreen": 1495,
      "Ã©": 1496,
      "Ġev": 1497,
      "Ġeas": 1498,
      "Ġtalking": 1499,
      "Ġsign": 1500,
      "Ġguess": 1501,
      "ert": 1502,
      "unt": 1503,
      "Ġalready": 1504,
      "Ġblack": 1505,
      "Ġtre": 1506,
      "||": 1507,
      "ĠYes": 1508,
      "Ġspeak": 1509,
      "Ġtrying": 1510,
      "ĠIs": 1511,
      "aken": 1512,
      "ined": 1513,
      "ĠJohn": 1514,
      "Ġjob": 1515,
      "Ġbuild": 1516,
      "ĠCl": 1517,
      "Ġquest": 1518,
      "Ġbox": 1519,
      "Ġminute": 1520,
      "oice": 1521,
      "Ġsong": 1522,
      "Ġpay": 1523,
      "Ġposs": 1524,
      "Ġfeet": 1525,
      "Ġgame": 1526,
      "Ġquick": 1527,
      "ĠCar": 1528,
      "old": 1529,
      "vers": 1530,
      "Ġbecame": 1531,
      "Ġcountry": 1532,
      "omas": 1533,
      "ote": 1534,
      "Ġbegan": 1535,
      "ey": 1536,
      "www": 1537,
      "ĠMm": 1538,
      "Ġsent": 1539,
      "where": 1540,
      "Ġpain": 1541,
      "Ġed": 1542,
      "ik": 1543,
      "Ġinc": 1544,
      "Ġprobably": 1545,
      "Ġfriends": 1546,
      "Ġwoman": 1547,
      "Ġcomes": 1548,
      "Ġdro": 1549,
      "ĠMiss": 1550,
      "eter": 1551,
      "undred": 1552,
      "Ġaren": 1553,
      "Ġidea": 1554,
      "ison": 1555,
      "Ġtom": 1556,
      "Ġgotta": 1557,
      "oor": 1558,
      "Ġlost": 1559,
      "Ġass": 1560,
      "Ġten": 1561,
      "Ġsat": 1562,
      "ï¿½ï¿½": 1563,
      "Ġfact": 1564,
      "ony": 1565,
      "oud": 1566,
      "Ġlead": 1567,
      "Ġhair": 1568,
      "Ġsqu": 1569,
      "Ġtimes": 1570,
      "Ġgi": 1571,
      "Ġpur": 1572,
      "Ġcoll": 1573,
      "uss": 1574,
      "ama": 1575,
      "ĠBl": 1576,
      "wards": 1577,
      "Ġbar": 1578,
      "Ġhope": 1579,
      "Ġfun": 1580,
      "ants": 1581,
      "Ġbeh": 1582,
      "Ġplayed": 1583,
      "Ġref": 1584,
      "ative": 1585,
      "ĠRe": 1586,
      "Ġ198": 1587,
      "elt": 1588,
      "Ġeng": 1589,
      "Ġlau": 1590,
      "Ġinclud": 1591,
      "ĠThomas": 1592,
      "Ġcertain": 1593,
      "but": 1594,
      "Ġdel": 1595,
      "to": 1596,
      "ital": 1597,
      "Ġfight": 1598,
      "Ġmine": 1599,
      "Ġgener": 1600,
      "cess": 1601,
      "ared": 1602,
      "ities": 1603,
      "ots": 1604,
      "ove": 1605,
      "Ġbrought": 1606,
      "Ġhundred": 1607,
      "erman": 1608,
      "Ġpoor": 1609,
      "Ġ6": 1610,
      "Ġconf": 1611,
      "ense": 1612,
      "ral": 1613,
      "Ġsim": 1614,
      "ene": 1615,
      "Ġparty": 1616,
      "ĠStates": 1617,
      "ivers": 1618,
      "ĠMom": 1619,
      "Ġgirls": 1620,
      "olog": 1621,
      "Ġfull": 1622,
      "Ġleg": 1623,
      "Ġpull": 1624,
      "cy": 1625,
      "Ġcouldn": 1626,
      "ese": 1627,
      "ury": 1628,
      "ern": 1629,
      "Ġmusic": 1630,
      "Ġes": 1631,
      "Ġmonth": 1632,
      "ently": 1633,
      "Ġoffic": 1634,
      "Ġprom": 1635,
      "Ġhum": 1636,
      "ken": 1637,
      "Ġdead": 1638,
      "You": 1639,
      "Ġstuff": 1640,
      "Ġla": 1641,
      "Ġduring": 1642,
      "Ġsec": 1643,
      "Ġext": 1644,
      "ĠIf": 1645,
      "iful": 1646,
      "Ġmeans": 1647,
      "Ġseemed": 1648,
      "airs": 1649,
      "haps": 1650,
      "Ġcook": 1651,
      "ĠAll": 1652,
      "Ġcolor": 1653,
      "Ġchair": 1654,
      "Ġbehind": 1655,
      "ax": 1656,
      "Ġfore": 1657,
      "ages": 1658,
      "ĠChrist": 1659,
      "Ġgrand": 1660,
      "lish": 1661,
      "ĠPr": 1662,
      "Ġplaying": 1663,
      "ple": 1664,
      "Ġcat": 1665,
      "Ġshort": 1666,
      "Ġexpl": 1667,
      "Ġlear": 1668,
      "utes": 1669,
      "wer": 1670,
      "Ġturned": 1671,
      "ica": 1672,
      "ided": 1673,
      "Ġpar": 1674,
      "ĠHow": 1675,
      "Ġmovie": 1676,
      "Ġoutside": 1677,
      "Ġcompl": 1678,
      "ouble": 1679,
      "Ġlate": 1680,
      "Ġable": 1681,
      "Ġstre": 1682,
      "Ġproble": 1683,
      "Ġran": 1684,
      "Ġ7": 1685,
      "ĠBob": 1686,
      "Ġdad": 1687,
      "aces": 1688,
      "ete": 1689,
      "app": 1690,
      "Ġdoll": 1691,
      "br": 1692,
      "key": 1693,
      "hip": 1694,
      "Ġexp": 1695,
      "ouch": 1696,
      "ĠZ": 1697,
      "ĠFor": 1698,
      "Ġtaken": 1699,
      "Ġyell": 1700,
      "Ġimport": 1701,
      "ying": 1702,
      "ĠHis": 1703,
      "Ġ,": 1704,
      "ipp": 1705,
      "Ġ8": 1706,
      "ured": 1707,
      "ks": 1708,
      "Ġmyself": 1709,
      "Ġsometimes": 1710,
      "Ġsun": 1711,
      "ER": 1712,
      "son": 1713,
      "ives": 1714,
      "Ġoften": 1715,
      "Ġbusiness": 1716,
      "Ġsomeone": 1717,
      "Ġtable": 1718,
      "tern": 1719,
      "Ġprod": 1720,
      "Ġrock": 1721,
      "Ġ197": 1722,
      "Ġdraw": 1723,
      "Ġlady": 1724,
      "Ġones": 1725,
      "Ġform": 1726,
      "19": 1727,
      "Ġwants": 1728,
      "Ġmed": 1729,
      "ize": 1730,
      "Ġlearn": 1731,
      "Ġdeath": 1732,
      "unch": 1733,
      "Ġfro": 1734,
      "Ġsister": 1735,
      "Ġhappen": 1736,
      "Ġrepl": 1737,
      "Ġless": 1738,
      "Ġyourself": 1739,
      "Ġdress": 1740,
      "inner": 1741,
      "oe": 1742,
      "Ġdark": 1743,
      "Ġvis": 1744,
      "Ġminutes": 1745,
      "Ġhorse": 1746,
      "Ġtill": 1747,
      "for": 1748,
      "fully": 1749,
      "Ġbeautiful": 1750,
      "Ġsweet": 1751,
      "iam": 1752,
      "Ġtaking": 1753,
      "ized": 1754,
      "Ġwords": 1755,
      "Ġdar": 1756,
      "Ġart": 1757,
      "Ġbear": 1758,
      "ober": 1759,
      "Ġfront": 1760,
      "It": 1761,
      "Ġmain": 1762,
      "room": 1763,
      "illy": 1764,
      "Ġcase": 1765,
      "irth": 1766,
      "Ġrather": 1767,
      "Ġroad": 1768,
      "cted": 1769,
      "selves": 1770,
      "itting": 1771,
      "ments": 1772,
      "Ġwife": 1773,
      "Ġcold": 1774,
      "Ġlad": 1775,
      "Ġmag": 1776,
      "zz": 1777,
      "gan": 1778,
      "Ġhon": 1779,
      "ones": 1780,
      "Ġguy": 1781,
      "Ġbott": 1782,
      "Ġlarge": 1783,
      "ides": 1784,
      "Ġins": 1785,
      "Ġbird": 1786,
      "dle": 1787,
      "oke": 1788,
      "Ġship": 1789,
      "ĠNow": 1790,
      "ery": 1791,
      "Ġfelt": 1792,
      "Ġstick": 1793,
      "Ġmid": 1794,
      "men": 1795,
      "Ġage": 1796,
      "oub": 1797,
      "Ġstate": 1798,
      "ific": 1799,
      "Ġmakes": 1800,
      "Ġalone": 1801,
      "Ġtree": 1802,
      "Ġserv": 1803,
      "eb": 1804,
      "Ġpower": 1805,
      "Ġago": 1806,
      "ider": 1807,
      "Ġpub": 1808,
      "used": 1809,
      "Ġrele": 1810,
      "Ġsil": 1811,
      "gn": 1812,
      "head": 1813,
      "aur": 1814,
      "Ġtwenty": 1815,
      "Ġstud": 1816,
      "Ġpri": 1817,
      "ĠKing": 1818,
      "Ġpa": 1819,
      "Ġgiven": 1820,
      "Ġstrong": 1821,
      "Ġinside": 1822,
      "ney": 1823,
      "Ġfunny": 1824,
      "ĠTom": 1825,
      "ards": 1826,
      "Ġeither": 1827,
      "Ġbas": 1828,
      "hy": 1829,
      "Ġrecord": 1830,
      "Ġcontin": 1831,
      "Ġtrue": 1832,
      "ted": 1833,
      "ĠJack": 1834,
      "Ġchange": 1835,
      "Ġtele": 1836,
      "amed": 1837,
      "Ġpresent": 1838,
      "Ġra": 1839,
      "kes": 1840,
      "Ġmark": 1841,
      "ries": 1842,
      "ention": 1843,
      "born": 1844,
      "Ġcry": 1845,
      "Ġmommy": 1846,
      "Ġthanks": 1847,
      "Ġvoice": 1848,
      "ĠSc": 1849,
      "Ġemp": 1850,
      "Ġboat": 1851,
      "ron": 1852,
      "Ġgovern": 1853,
      "Ġforg": 1854,
      "Ġline": 1855,
      "aim": 1856,
      "Ġmess": 1857,
      "ape": 1858,
      "ĠCom": 1859,
      "Ġ9": 1860,
      "Ġwood": 1861,
      "Ġnat": 1862,
      "Oh": 1863,
      "Ġfif": 1864,
      "Ġcir": 1865,
      "Ġbirth": 1866,
      "Ġimportant": 1867,
      "ĠUh": 1868,
      "aughter": 1869,
      "Ġwish": 1870,
      "Ġseven": 1871,
      "Ġwear": 1872,
      "not": 1873,
      "ists": 1874,
      "Ġpast": 1875,
      "Ġdaddy": 1876,
      "Ġfair": 1877,
      "ext": 1878,
      "Ġ10": 1879,
      "rench": 1880,
      "gin": 1881,
      "Ġloc": 1882,
      "000": 1883,
      "rest": 1884,
      "Ġbody": 1885,
      "Ġbye": 1886,
      "Ġsomebody": 1887,
      "Ġ196": 1888,
      "Ġothers": 1889,
      "ached": 1890,
      "Ġda": 1891,
      "Ġty": 1892,
      "Ġlaw": 1893,
      "ĠCha": 1894,
      "Ġdoctor": 1895,
      "ner": 1896,
      "Ġfast": 1897,
      "els": 1898,
      "Ġbuy": 1899,
      "ald": 1900,
      "Ġocc": 1901,
      "ĠHar": 1902,
      "ring": 1903,
      "ĠQ": 1904,
      "Ġsea": 1905,
      "Ġstar": 1906,
      "Ġorder": 1907,
      "Ġleast": 1908,
      "Ġground": 1909,
      "arent": 1910,
      "Ġclear": 1911,
      "ĠGerman": 1912,
      "Ġmilk": 1913,
      "ham": 1914,
      "bit": 1915,
      "Ġfav": 1916,
      "range": 1917,
      "Ġclass": 1918,
      "Ġwin": 1919,
      "gy": 1920,
      "ming": 1921,
      "Ġyellow": 1922,
      "artment": 1923,
      "ze": 1924,
      "eng": 1925,
      "Ġnews": 1926,
      "Ġguys": 1927,
      "Ġlay": 1928,
      "Ġtrans": 1929,
      "ex": 1930,
      "Ġworking": 1931,
      "Ġfish": 1932,
      "Ġdeal": 1933,
      "ians": 1934,
      "Ġearly": 1935,
      "Ġprov": 1936,
      "Ġhurt": 1937,
      "Ġadv": 1938,
      "iously": 1939,
      "Ġking": 1940,
      "iting": 1941,
      "ffe": 1942,
      "Ġmill": 1943,
      "ĠAfter": 1944,
      "Ġcup": 1945,
      "Ġglad": 1946,
      "Ġpaper": 1947,
      "bed": 1948,
      "Ġuhhuh": 1949,
      "ĠMay": 1950,
      "ĠRight": 1951,
      "unning": 1952,
      "ley": 1953,
      "Ġthrow": 1954,
      "ches": 1955,
      "ained": 1956,
      "Ġpicture": 1957,
      "Ġpat": 1958,
      "Ġsum": 1959,
      "Ġpiece": 1960,
      "Ġtea": 1961,
      "Ġjump": 1962,
      "idge": 1963,
      "Ġshop": 1964,
      "Ġcreat": 1965,
      "Ġprof": 1966,
      "Ġclean": 1967,
      "Ġgrow": 1968,
      "Ġbur": 1969,
      "Ġfree": 1970,
      "Ġquestion": 1971,
      "ator": 1972,
      "ution": 1973,
      "Ġgroup": 1974,
      "ism": 1975,
      "Ġsend": 1976,
      "Ġperhaps": 1977,
      "ues": 1978,
      "Ġfinished": 1979,
      "ĠPh": 1980,
      "fort": 1981,
      "ately": 1982,
      "ara": 1983,
      "Ġhung": 1984,
      "ĠCount": 1985,
      "Ġsal": 1986,
      "ety": 1987,
      "Ġice": 1988,
      "vered": 1989,
      "Ġplan": 1990,
      "Ġsever": 1991,
      "Ġfloor": 1992,
      "Ġcompany": 1993,
      "raid": 1994,
      "ead": 1995,
      "iving": 1996,
      "Ġtomorrow": 1997,
      "Ġdisc": 1998,
      "erv": 1999,
      "Ġprot": 2000,
      "anu": 2001,
      "ĠDo": 2002,
      "Ġtried": 2003,
      "Ġgun": 2004,
      "fic": 2005,
      "Ġdinner": 2006,
      "Ġexpect": 2007,
      "oft": 2008,
      "Ġsold": 2009,
      "Ġthinking": 2010,
      "Ġwomen": 2011,
      "Ġarea": 2012,
      "Ġju": 2013,
      "ilt": 2014,
      "ĠGe": 2015,
      "Ġ#": 2016,
      "Ġdarling": 2017,
      "Ġhit": 2018,
      "ĠMommy": 2019,
      "Ġbag": 2020,
      "Ġacross": 2021,
      "ĠEnglish": 2022,
      "Ġpos": 2023,
      "iding": 2024,
      "Ġwrite": 2025,
      "Ġrece": 2026,
      "Ġcried": 2027,
      "Ġcamp": 2028,
      "stem": 2029,
      "Ġreason": 2030,
      "rence": 2031,
      "ĠEd": 2032,
      "you": 2033,
      "irty": 2034,
      "Ġseveral": 2035,
      "ov": 2036,
      "Ġcor": 2037,
      "read": 2038,
      "Ġclot": 2039,
      "Ġstep": 2040,
      "Ġchance": 2041,
      "Ġmer": 2042,
      "Ġanimals": 2043,
      "Ġgra": 2044,
      "ĠOne": 2045,
      "ana": 2046,
      "Ġton": 2047,
      "ĠSe": 2048,
      "Ġ...": 2049,
      "Ġann": 2050,
      "ĠFl": 2051,
      "Ġeverybody": 2052,
      "Ġstra": 2053,
      "iter": 2054,
      "ford": 2055,
      "ges": 2056,
      "Ġadm": 2057,
      "ĠHer": 2058,
      "Ġdef": 2059,
      "Ġ2020": 2060,
      "Ġquiet": 2061,
      "eared": 2062,
      "Ġpolit": 2063,
      "Ġegg": 2064,
      "Ġwall": 2065,
      "een": 2066,
      "Ġap": 2067,
      "ousand": 2068,
      "ĠCan": 2069,
      "Ġopp": 2070,
      "Ġamong": 2071,
      "Ġcheck": 2072,
      "ric": 2073,
      "What": 2074,
      "ued": 2075,
      "Ġcarry": 2076,
      "Ġafraid": 2077,
      "urch": 2078,
      "ĠTo": 2079,
      "ĠMa": 2080,
      "Ġgent": 2081,
      "Ġallow": 2082,
      "Ġwow": 2083,
      "ains": 2084,
      "HE": 2085,
      "osp": 2086,
      "ĠGrand": 2087,
      "aced": 2088,
      "Ġvill": 2089,
      "Ġfly": 2090,
      "Ġbecome": 2091,
      "Ġpartic": 2092,
      "angu": 2093,
      "Ġheld": 2094,
      "ĠBrit": 2095,
      "Ġtrouble": 2096,
      "ĠâĮ": 2097,
      "ĠFrance": 2098,
      "ived": 2099,
      "Ġsurpr": 2100,
      "Ġconc": 2101,
      "ĠWill": 2102,
      "Ġkept": 2103,
      "apan": 2104,
      "rict": 2105,
      "oof": 2106,
      "Ġforget": 2107,
      "Ġmum": 2108,
      "Ġsand": 2109,
      "uly": 2110,
      "ering": 2111,
      "ĠX": 2112,
      "ĠAd": 2113,
      "Ġ?": 2114,
      "ept": 2115,
      "Ġfur": 2116,
      "Ġthousand": 2117,
      "ĠPro": 2118,
      "band": 2119,
      "Ġlived": 2120,
      "Ġcorn": 2121,
      "arch": 2122,
      "Ġnorth": 2123,
      "Ġfig": 2124,
      "anuary": 2125,
      "Ġbooks": 2126,
      "ium": 2127,
      "ement": 2128,
      "ĠAust": 2129,
      "anger": 2130,
      "Ġ<": 2131,
      "Ġcond": 2132,
      "endoft": 2133,
      "|>": 2134,
      "Ġ<|": 2135,
      "endoftext": 2136,
      "iversity": 2137,
      "dden": 2138,
      "Ġcatch": 2139,
      "cil": 2140,
      "Ġusually": 2141,
      "Yes": 2142,
      "Ġ195": 2143,
      "Ġfix": 2144,
      "Ġmarried": 2145,
      "cri": 2146,
      "Ġband": 2147,
      "Ġanswer": 2148,
      "Ġroll": 2149,
      "alth": 2150,
      "Ġstood": 2151,
      "Ġliving": 2152,
      "Ġrunning": 2153,
      "Ġfil": 2154,
      "Ġya": 2155,
      "Ġherself": 2156,
      "Ġeasy": 2157,
      "ices": 2158,
      "orld": 2159,
      "Ġgentle": 2160,
      "We": 2161,
      "Ġmount": 2162,
      "Ġcross": 2163,
      "Ġattack": 2164,
      "Ġsudden": 2165,
      "jor": 2166,
      "Ġnine": 2167,
      "ude": 2168,
      "Ġfootball": 2169,
      "umb": 2170,
      "Ġbirthday": 2171,
      "Ġspecial": 2172,
      "Ġtem": 2173,
      "Ġhours": 2174,
      "Ġ17": 2175,
      "Ġsuppose": 2176,
      "Ġsystem": 2177,
      "Ġmad": 2178,
      "Ġlots": 2179,
      "Ġgets": 2180,
      "ler": 2181,
      "Ġpu": 2182,
      "che": 2183,
      "inning": 2184,
      "Ġletter": 2185,
      "Ġâ": 2186,
      "Ġteac": 2187,
      "Ġ15": 2188,
      "Ġarm": 2189,
      "Ġchoo": 2190,
      "Ġdaughter": 2191,
      "Ġproblem": 2192,
      "Ġwindow": 2193,
      "Ġhist": 2194,
      "port": 2195,
      "Ġblood": 2196,
      "Ġve": 2197,
      "itten": 2198,
      "Ġtouch": 2199,
      "Ġfrog": 2200,
      "Ġexact": 2201,
      "Ġtonight": 2202,
      "Ġ12": 2203,
      "wered": 2204,
      "Ġ194": 2205,
      "Ġdream": 2206,
      "Ġreport": 2207,
      "Ġreco": 2208,
      "ĠSh": 2209,
      "ked": 2210,
      "avy": 2211,
      "Ġgold": 2212,
      "ĠCounty": 2213,
      "ession": 2214,
      "ls": 2215,
      "ically": 2216,
      "Ġanyway": 2217,
      "Ġyours": 2218,
      "irt": 2219,
      "mas": 2220,
      "Ġain": 2221,
      "Ġsitting": 2222,
      "Ġlaugh": 2223,
      "Ġhus": 2224,
      "Ġdra": 2225,
      "Ġseems": 2226,
      "Ġexper": 2227,
      "mon": 2228,
      "ract": 2229,
      "Ġhang": 2230,
      "Ġtired": 2231,
      "ĠYork": 2232,
      "Ġpolice": 2233,
      "Ġrain": 2234,
      "Ġpound": 2235,
      "bum": 2236,
      "ĠGod": 2237,
      "Ġhop": 2238,
      "Ġnamed": 2239,
      "ural": 2240,
      "Ġkilled": 2241,
      "Ġreplied": 2242,
      "Ġcaptain": 2243,
      "king": 2244,
      "raph": 2245,
      ".'": 2246,
      "ility": 2247,
      "Ġcal": 2248,
      "ding": 2249,
      "ĠLe": 2250,
      "Ġpleas": 2251,
      "Ġpot": 2252,
      "ality": 2253,
      "Ġlangu": 2254,
      "Ġanswered": 2255,
      "owers": 2256,
      "Ġlovely": 2257,
      "Ġwhatever": 2258,
      "ears": 2259,
      "ĠChar": 2260,
      "Ġpress": 2261,
      "Ġkiss": 2262,
      "let": 2263,
      "inc": 2264,
      "Ġknows": 2265,
      "ange": 2266,
      "Well": 2267,
      "ĠTHE": 2268,
      "ient": 2269,
      "Ġwaiting": 2270,
      "Ġill": 2271,
      "ugust": 2272,
      "Ġfa": 2273,
      "Ġdiv": 2274,
      "Ġdet": 2275,
      "Ġappro": 2276,
      "ping": 2277,
      "unk": 2278,
      "Ġthemselves": 2279,
      "Ġclim": 2280,
      "Ġbath": 2281,
      "But": 2282,
      "ĠJanuary": 2283,
      "Ġcareful": 2284,
      "Ġluck": 2285,
      "ĠWar": 2286,
      "Ġhowever": 2287,
      "Ġdat": 2288,
      "orge": 2289,
      "ĠBar": 2290,
      "ĠMarch": 2291,
      "though": 2292,
      "Ġreleased": 2293,
      "Ġtruck": 2294,
      "velop": 2295,
      "Ġwee": 2296,
      "ĠPe": 2297,
      "Ġmonths": 2298,
      "Ġclothes": 2299,
      "Ġwhether": 2300,
      "iff": 2301,
      "Ġstraight": 2302,
      "ĠWorld": 2303,
      "aint": 2304,
      "Ġwithin": 2305,
      "Ġlie": 2306,
      "Ġdeep": 2307,
      "Ġok": 2308,
      "Ġcoup": 2309,
      "ored": 2310,
      "ĠFrench": 2311,
      "Ġlives": 2312,
      "lo": 2313,
      "Ġgovernment": 2314,
      "ĠCon": 2315,
      "Ġsail": 2316,
      "Ġlow": 2317,
      "And": 2318,
      "com": 2319,
      "urs": 2320,
      "ĠSome": 2321,
      "Ġseries": 2322,
      "ĠBy": 2323,
      "ĠErm": 2324,
      "ories": 2325,
      "Ġsca": 2326,
      "Ġhusband": 2327,
      "Ġslow": 2328,
      "gue": 2329,
      "Ġmouth": 2330,
      "Ġkids": 2331,
      "raz": 2332,
      "ole": 2333,
      "ops": 2334,
      "ĠJapan": 2335,
      "Ġriver": 2336,
      "Ġfit": 2337,
      "Ġtoys": 2338,
      "Ġfield": 2339,
      "Ġpassed": 2340,
      "Ġpossible": 2341,
      "Ġpost": 2342,
      "Ġabs": 2343,
      "attle": 2344,
      "Ġhors": 2345,
      "Ġphone": 2346,
      "itc": 2347,
      "Ġworked": 2348,
      "Ġspec": 2349,
      "Ġmot": 2350,
      "ĠPl": 2351,
      "Ġmur": 2352,
      "Ġsafe": 2353,
      "ĠJune": 2354,
      "urope": 2355,
      "Ġalbum": 2356,
      "Ġshoes": 2357,
      "come": 2358,
      "Ġcontro": 2359,
      "vision": 2360,
      "aged": 2361,
      "Ġgard": 2362,
      "Ġcannot": 2363,
      "Ġsucc": 2364,
      "Ġfing": 2365,
      "Ġnational": 2366,
      "Ġdanger": 2367,
      "Ġsnow": 2368,
      "20": 2369,
      "No": 2370,
      "cient": 2371,
      "pril": 2372,
      "ĠPar": 2373,
      "ctober": 2374,
      "ager": 2375,
      "unic": 2376,
      "Ġdoub": 2377,
      "Ġproper": 2378,
      "Ġresp": 2379,
      "lly": 2380,
      "par": 2381,
      "Ġcool": 2382,
      "ĠAb": 2383,
      "Ġmoved": 2384,
      "Ġoffice": 2385,
      "Ġ16": 2386,
      "ĠOr": 2387,
      "Ġinde": 2388,
      "Ã¡": 2389,
      "yl": 2390,
      "Ġchick": 2391,
      "Ġeye": 2392,
      "oint": 2393,
      "Ġring": 2394,
      "bye": 2395,
      "Ġworry": 2396,
      "Ġcouple": 2397,
      "Ġearth": 2398,
      "Ġsingle": 2399,
      "Ġori": 2400,
      "amb": 2401,
      "cha": 2402,
      "Ġshot": 2403,
      "Ġcos": 2404,
      "more": 2405,
      "Ġevening": 2406,
      "Ġlonger": 2407,
      "Ġbroken": 2408,
      "Ġcharac": 2409,
      "Ġwhose": 2410,
      "Ġexcuse": 2411,
      "ulation": 2412,
      "joy": 2413,
      "reed": 2414,
      "stairs": 2415,
      "Ġsoft": 2416,
      "what": 2417,
      "Ġdiffic": 2418,
      "hern": 2419,
      "uit": 2420,
      "ĠMic": 2421,
      "Ġterri": 2422,
      "tle": 2423,
      "Ġfavor": 2424,
      "Ġcow": 2425,
      "Ġbow": 2426,
      "ardon": 2427,
      "Ġpen": 2428,
      "ĠWith": 2429,
      "Ġregion": 2430,
      "Ġnose": 2431,
      "Ġpark": 2432,
      "cember": 2433,
      "Ġmember": 2434,
      "Ġreached": 2435,
      "itch": 2436,
      "fast": 2437,
      "Ġ193": 2438,
      "Ġmist": 2439,
      "Ġexactly": 2440,
      "Ġquickly": 2441,
      "Ġ*": 2442,
      "Ġoper": 2443,
      "Ġdepartment": 2444,
      "Ġconst": 2445,
      "Ġthird": 2446,
      "Ġjuice": 2447,
      "Ġsad": 2448,
      "Ġeh": 2449,
      "Ġvar": 2450,
      "ĠCap": 2451,
      "Ġelect": 2452,
      "Ġeveryone": 2453,
      "Ġseem": 2454,
      "con": 2455,
      "Ġdrive": 2456,
      "ĠAugust": 2457,
      "Ġsight": 2458,
      "Ġow": 2459,
      "lex": 2460,
      "Ġsuper": 2461,
      "Ġexcl": 2462,
      "Ġstation": 2463,
      "Ġcaught": 2464,
      "ĠBritish": 2465,
      "hant": 2466,
      "Ġanyone": 2467,
      "Ġfeeling": 2468,
      "oman": 2469,
      "ience": 2470,
      "Ġ!": 2471,
      "aimed": 2472,
      "Ġcommand": 2473,
      "Ġesc": 2474,
      "ruary": 2475,
      "ior": 2476,
      "Ġneeds": 2477,
      "ada": 2478,
      "vember": 2479,
      "Ġforward": 2480,
      "ĠPer": 2481,
      "Ġeating": 2482,
      "Ġnearly": 2483,
      "Ġabove": 2484,
      "Ġooh": 2485,
      "Ġshar": 2486,
      "Ġarri": 2487,
      "Ġclub": 2488,
      "Ġtreat": 2489,
      "Ġbes": 2490,
      "Ġdest": 2491,
      "ĠTr": 2492,
      "Ġboard": 2493,
      "HA": 2494,
      "ĠPhil": 2495,
      "ye": 2496,
      "iday": 2497,
      "Ġem": 2498,
      "Ġcommon": 2499,
      "Ġsave": 2500,
      "Ġmillion": 2501,
      "eptember": 2502,
      "ĠJim": 2503,
      "ĠHel": 2504,
      "omb": 2505,
      "II": 2506,
      "That": 2507,
      "gram": 2508,
      "ĠSouth": 2509,
      "Ġenjoy": 2510,
      "Ġisland": 2511,
      "Ġreturned": 2512,
      "Ġstri": 2513,
      "ĠGo": 2514,
      "Ġhuman": 2515,
      "ai": 2516,
      "ĠDon": 2517,
      "Ġmaster": 2518,
      "Ġahead": 2519,
      "Ġbuilding": 2520,
      "terday": 2521,
      "ĠSw": 2522,
      "Ġhoney": 2523,
      "ĠNorth": 2524,
      "ĠEl": 2525,
      "aser": 2526,
      "Ġfear": 2527,
      "Ġperfect": 2528,
      "avid": 2529,
      "Ġvisit": 2530,
      "Ġequ": 2531,
      "Ġformer": 2532,
      "Ġsouth": 2533,
      "Ġarms": 2534,
      "Ġdevelop": 2535,
      "Ġengine": 2536,
      "Ġknock": 2537,
      "Ġfill": 2538,
      "Ġdisco": 2539,
      "Ġest": 2540,
      "ebruary": 2541,
      "Ġgeneral": 2542,
      "Ġsuccess": 2543,
      "ĠOctober": 2544,
      "Ġinstead": 2545,
      "Ġtelling": 2546,
      "Ġstrange": 2547,
      "Ġchanged": 2548,
      "Ġcause": 2549,
      "Ġglass": 2550,
      "ato": 2551,
      "Ġdem": 2552,
      "Ġtrees": 2553,
      "Ġcost": 2554,
      "Ġval": 2555,
      "Ġwarm": 2556,
      "Ġpublic": 2557,
      "Ġhungry": 2558,
      "Ġputting": 2559,
      "ien": 2560,
      "ĠJoe": 2561,
      "Ġexcept": 2562,
      "Ġyesterday": 2563,
      "Ġbroke": 2564,
      "Ġorange": 2565,
      "ising": 2566,
      "go": 2567,
      "Ġindeed": 2568,
      "ging": 2569,
      "Ġstat": 2570,
      "uced": 2571,
      "Ġride": 2572,
      "Ġparent": 2573,
      "TER": 2574,
      "Ġwild": 2575,
      "ĠNovember": 2576,
      "ggest": 2577,
      "ograph": 2578,
      "Ġbrown": 2579,
      "rat": 2580,
      "ĠApril": 2581,
      "Ġaftern": 2582,
      "uce": 2583,
      "gest": 2584,
      "ky": 2585,
      "Ġduck": 2586,
      "Ġsecret": 2587,
      "teen": 2588,
      "emy": 2589,
      "Ġav": 2590,
      "ĠJuly": 2591,
      "Ġsuggest": 2592,
      "Ġtelevision": 2593,
      "net": 2594,
      "work": 2595,
      "ample": 2596,
      "Ġseat": 2597,
      "Ġru": 2598,
      "ĠEurope": 2599,
      "ĠSeptember": 2600,
      "Ġstopped": 2601,
      "Ġvillage": 2602,
      "Ġ11": 2603,
      "Ġmeant": 2604,
      "Ġwhom": 2605,
      "wh": 2606,
      "Ġdisapp": 2607,
      "Ġnoise": 2608,
      "Ġbreakfast": 2609,
      "pes": 2610,
      "Ġnin": 2611,
      "Ġcake": 2612,
      "Ġorigin": 2613,
      "Ġorgan": 2614,
      "Ġnobody": 2615,
      "Ġbank": 2616,
      "Ġcertainly": 2617,
      "Ġprison": 2618,
      "Ġfellow": 2619,
      "Ġbuilt": 2620,
      "Ġstanding": 2621,
      "Ġdecided": 2622,
      "Ġled": 2623,
      "ĠDecember": 2624,
      "Ġsus": 2625,
      "Ġtest": 2626,
      "Ġopened": 2627,
      "Ġsupposed": 2628,
      "Ġpush": 2629,
      "Ġswim": 2630,
      "ature": 2631,
      "rop": 2632,
      "Ġplayer": 2633,
      "ĠThese": 2634,
      "ffect": 2635,
      "Ġtick": 2636,
      "aul": 2637,
      "uct": 2638,
      "Ġstreet": 2639,
      "Ġsupport": 2640,
      "Ġseason": 2641,
      "ĠFebruary": 2642,
      "Ġafternoon": 2643,
      "ĠFrank": 2644,
      "Ġcareer": 2645,
      "Ġpardon": 2646,
      "Ġcast": 2647,
      "ĠEngland": 2648,
      "Ġbutter": 2649,
      "Ġbright": 2650,
      "ology": 2651,
      "Ġwritten": 2652,
      "ris": 2653,
      "Ġbread": 2654,
      "ĠPres": 2655,
      "iny": 2656,
      "Ġmiles": 2657,
      "Ġfort": 2658,
      "Ġdev": 2659,
      "Ġhosp": 2660,
      "oops": 2661,
      "Ġrad": 2662,
      "Ġstore": 2663,
      "mbers": 2664,
      "unity": 2665,
      "Ġfollowed": 2666,
      "ĠNot": 2667,
      "Ġsick": 2668,
      "Ġanybody": 2669,
      "Ġprotect": 2670,
      "que": 2671,
      "Ġtruth": 2672,
      "'.": 2673,
      "ended": 2674,
      "Ġmis": 2675,
      "Ġshout": 2676,
      "Ġsol": 2677,
      "cially": 2678,
      "ills": 2679,
      "Ġce": 2680,
      "Ġbreat": 2681,
      "idence": 2682,
      "la": 2683,
      "Ġteacher": 2684,
      "Ġweeks": 2685,
      "Ġgarden": 2686,
      "Ġjack": 2687,
      "Ġheavy": 2688,
      "ĠCol": 2689,
      "Ġpack": 2690,
      "Ġpage": 2691,
      "Ġcre": 2692,
      "Ġang": 2693,
      "ips": 2694,
      "ĠFraser": 2695,
      "yn": 2696,
      "Ġcop": 2697,
      "Ġwat": 2698,
      "Ġprop": 2699,
      "ĠAm": 2700,
      "Ġchurch": 2701,
      "iew": 2702,
      "Ġquar": 2703,
      "omin": 2704,
      "ĠUniversity": 2705,
      "gen": 2706,
      "Ġworks": 2707,
      "ĠTw": 2708,
      "Ġbought": 2709,
      "ceed": 2710,
      "Ġrequ": 2711,
      "hard": 2712,
      "ĠBen": 2713,
      "Ġhasn": 2714,
      "Ġ14": 2715,
      "rod": 2716,
      "Ġcam": 2717,
      "Ġtrack": 2718,
      "ĠBet": 2719,
      "Ġblock": 2720,
      "Ġparticular": 2721,
      "Ġtrust": 2722,
      "Ġinform": 2723,
      "Ġhol": 2724,
      "iled": 2725,
      "oul": 2726,
      "Ġfinish": 2727,
      "Ġhurry": 2728,
      "Ġfollowing": 2729,
      "Ġcomplete": 2730,
      "Ġwel": 2731,
      "Ġvi": 2732,
      "gar": 2733,
      "Ġbelong": 2734,
      "Ġdirect": 2735,
      "udy": 2736,
      "Ġhappens": 2737,
      "ĠCal": 2738,
      "ĠMy": 2739,
      "Ġadded": 2740,
      "ox": 2741,
      "Ġpresident": 2742,
      "Ġeffect": 2743,
      "Ġdecl": 2744,
      "Ġmajor": 2745,
      "Ġpract": 2746,
      "Ġworth": 2747,
      "ka": 2748,
      "isc": 2749,
      "Ġmiddle": 2750,
      "He": 2751,
      "Ġcoun": 2752,
      "Ġsomewhere": 2753,
      "Ġobject": 2754,
      "Ġyep": 2755,
      "that": 2756,
      "Ġfarm": 2757,
      "Ġ13": 2758,
      "Ġappear": 2759,
      "Ġposition": 2760,
      "oot": 2761,
      "ĠMary": 2762,
      "ining": 2763,
      "Ġservice": 2764,
      "uel": 2765,
      "Ġmat": 2766,
      "ushed": 2767,
      "Ġnor": 2768,
      "Ġusing": 2769,
      "ĠHelen": 2770,
      "Ġcover": 2771,
      "Ġgiving": 2772,
      "Ġwrote": 2773,
      "night": 2774,
      "Ġhig": 2775,
      "olly": 2776,
      "uthor": 2777,
      "Ġsell": 2778,
      "Ġdistrict": 2779,
      "Ġdoubt": 2780,
      "ales": 2781,
      "ffee": 2782,
      "Ġsummer": 2783,
      "ula": 2784,
      "lie": 2785,
      "ĠCHA": 2786,
      "Ġcand": 2787,
      "Ġport": 2788,
      "ror": 2789,
      "bert": 2790,
      "Ġvict": 2791,
      "Ġleaving": 2792,
      "Ġprogram": 2793,
      "Ġview": 2794,
      "ĠMe": 2795,
      "hael": 2796,
      "Ġspo": 2797,
      "Ġlanguage": 2798,
      "Ġstuck": 2799,
      "Ġcirc": 2800,
      "Ġsounds": 2801,
      "ances": 2802,
      "lin": 2803,
      "Ġimag": 2804,
      "Ġconsider": 2805,
      "Ġought": 2806,
      "ĠEle": 2807,
      "Ġdam": 2808,
      "no": 2809,
      "ĠSam": 2810,
      ",'": 2811,
      "ician": 2812,
      "Ġtast": 2813,
      "Ġmembers": 2814,
      "Ġshoot": 2815,
      "Ġhistory": 2816,
      "Ġplaces": 2817,
      "ĠMc": 2818,
      "Ġbottom": 2819,
      "Ġmach": 2820,
      "ege": 2821,
      "Ġlunch": 2822,
      "Ġburn": 2823,
      "Ġtakes": 2824,
      "Ġexample": 2825,
      "ray": 2826,
      "Ġthirty": 2827,
      "dom": 2828,
      "Ġpretend": 2829,
      "ĠChristmas": 2830,
      "ÃŃ": 2831,
      "Ġspir": 2832,
      "Ġcab": 2833,
      "bur": 2834,
      "Ġfail": 2835,
      "bor": 2836,
      "itted": 2837,
      "eal": 2838,
      "how": 2839,
      "die": 2840,
      "Ġflowers": 2841,
      "Ġlock": 2842,
      "Ġanymore": 2843,
      "Ġspace": 2844,
      "Ġfifty": 2845,
      "Ġbusy": 2846,
      "Ġcheese": 2847,
      "Ġcoffee": 2848,
      "Ġalthough": 2849,
      "ffic": 2850,
      "tered": 2851,
      "Ġbra": 2852,
      "Ġge": 2853,
      "Ġtot": 2854,
      "Ġlevel": 2855,
      "ishing": 2856,
      "ĠRep": 2857,
      "Ġ30": 2858,
      "ĠSte": 2859,
      "well": 2860,
      "Ġsuddenly": 2861,
      "board": 2862,
      "Ġhospital": 2863,
      "Ġreceived": 2864,
      "Ġexclaimed": 2865,
      "fer": 2866,
      "ille": 2867,
      "resh": 2868,
      "Ġ$": 2869,
      "sc": 2870,
      "Ġdefe": 2871,
      "Ġtowards": 2872,
      "ondon": 2873,
      "resent": 2874,
      "iers": 2875,
      "ĠCaptain": 2876,
      "arty": 2877,
      "Ġtail": 2878,
      "Ġjud": 2879,
      "uk": 2880,
      "Ġcarried": 2881,
      "aly": 2882,
      "Ġdifficult": 2883,
      "Ġlegs": 2884,
      "ĠCHAP": 2885,
      "ified": 2886,
      "--\"": 2887,
      "Ġsense": 2888,
      "ĠNational": 2889,
      "Ġneigh": 2890,
      "Ġincluding": 2891,
      "Ġweren": 2892,
      "bs": 2893,
      "Ġpieces": 2894,
      "ĠCHAPTER": 2895,
      "Ġdescri": 2896,
      "Ġparents": 2897,
      "Ġmoon": 2898,
      "oop": 2899,
      "Ġpink": 2900,
      "ancy": 2901,
      "Ġwatching": 2902,
      "Ġhast": 2903,
      "ĠWest": 2904,
      "nect": 2905,
      "izz": 2906,
      "ĠJe": 2907,
      "Ġresult": 2908,
      "ĠLondon": 2909,
      "Ġord": 2910,
      "itchen": 2911,
      "time": 2912,
      "ĠSha": 2913,
      "Ġcompan": 2914,
      "Ġgar": 2915,
      "Ġcharacter": 2916,
      "bers": 2917,
      "Ġhy": 2918,
      "ti": 2919,
      "Ġdry": 2920,
      "Ġspoke": 2921,
      "Ġfle": 2922,
      "Ġcommune": 2923,
      "reen": 2924,
      "Ġseeing": 2925,
      "Ġbeat": 2926,
      "Ġaccept": 2927,
      "Ġmic": 2928,
      "Ġpet": 2929,
      "ĠGu": 2930,
      "fl": 2931,
      "Ġneck": 2932,
      "Ġclos": 2933,
      "ĠMin": 2934,
      "pecially": 2935,
      "ĠAustral": 2936,
      "ket": 2937,
      "mpions": 2938,
      "Ġlift": 2939,
      "Ġreach": 2940,
      "Ġcomfort": 2941,
      "Ġgas": 2942,
      "itty": 2943,
      "Ġkitchen": 2944,
      "Ġchief": 2945,
      "Ġappeared": 2946,
      "Ġfurther": 2947,
      "ino": 2948,
      "Ġtoward": 2949,
      "Ġpopulation": 2950,
      "ift": 2951,
      "min": 2952,
      "ording": 2953,
      "hel": 2954,
      "Ġrace": 2955,
      "ĠIndian": 2956,
      "ĠCity": 2957,
      "Ġvol": 2958,
      "ĠDavid": 2959,
      "Ġnone": 2960,
      "Ġtor": 2961,
      "Ġcompet": 2962,
      "cent": 2963,
      "Ġgen": 2964,
      "Ġpriv": 2965,
      "iod": 2966,
      "ays": 2967,
      "Ġelep": 2968,
      "Ġrul": 2969,
      "uation": 2970,
      "Ġwelcome": 2971,
      "Ġwonderful": 2972,
      "Ġfigure": 2973,
      "Ġjour": 2974,
      "Ġcurrent": 2975,
      "Ġdesign": 2976,
      "mie": 2977,
      "ĠPat": 2978,
      "ggy": 2979,
      "ĠJust": 2980,
      "ny": 2981,
      "Ġrecogn": 2982,
      "Ġallowed": 2983,
      "Ġchicken": 2984,
      "uty": 2985,
      "Ġmoving": 2986,
      "Ġlose": 2987,
      "Ġwhis": 2988,
      "Ġexpress": 2989,
      "Ġshouldn": 2990,
      "Ġcollect": 2991,
      "ocol": 2992,
      "IN": 2993,
      "riage": 2994,
      "Ġwalked": 2995,
      "Ġrab": 2996,
      "Ġdi": 2997,
      "ĠMart": 2998,
      "Ġstru": 2999,
      "Ġdance": 3000,
      "iger": 3001,
      "gie": 3002,
      "Ġpictures": 3003,
      "Ġcontinued": 3004,
      "estern": 3005,
      "Ġcard": 3006,
      "ĠTe": 3007,
      "Ġbeginning": 3008,
      "Ġcounty": 3009,
      "ashing": 3010,
      "Ġtall": 3011,
      "Ġarmy": 3012,
      "Ġstudy": 3013,
      "iling": 3014,
      "Ġmeeting": 3015,
      "ghed": 3016,
      "ship": 3017,
      "Ġdig": 3018,
      "Ġpounds": 3019,
      "Ġhorses": 3020,
      "Ġpal": 3021,
      "eddy": 3022,
      "Ġspend": 3023,
      "Ġgrass": 3024,
      "Ġlikes": 3025,
      "Ġgames": 3026,
      "ĠPaul": 3027,
      "Ġobs": 3028,
      "ases": 3029,
      "Ġanimal": 3030,
      "Ġaccount": 3031,
      "rit": 3032,
      "Ġofficer": 3033,
      ",--": 3034,
      "ĠAunt": 3035,
      "Ġlim": 3036,
      "Ġdanc": 3037,
      "ĠMan": 3038,
      "like": 3039,
      "Ġcars": 3040,
      "Ġevent": 3041,
      "erry": 3042,
      "Ġate": 3043,
      "Ġdie": 3044,
      "bing": 3045,
      "roy": 3046,
      "Ġwash": 3047,
      "Ġdropped": 3048,
      "Ġ25": 3049,
      "Ġvide": 3050,
      "iced": 3051,
      "cell": 3052,
      "Ġbill": 3053,
      "Ġpopular": 3054,
      "lished": 3055,
      "olute": 3056,
      "Ġrespect": 3057,
      "form": 3058,
      "Ġwalking": 3059,
      "Ġauthor": 3060,
      "Ġhealth": 3061,
      "Ġ2018": 3062,
      "Ġapple": 3063,
      "Ġentire": 3064,
      "Ġremark": 3065,
      "Ġbased": 3066,
      "Ġlab": 3067,
      "ĠMark": 3068,
      "Ġfut": 3069,
      "Ġwide": 3070,
      "ston": 3071,
      "Ġcontrol": 3072,
      "Ġhole": 3073,
      "Ġwest": 3074,
      "ON": 3075,
      "Ġinteresting": 3076,
      "ĠHowever": 3077,
      "Ġshut": 3078,
      "Ġtur": 3079,
      "Ġthou": 3080,
      "acy": 3081,
      "itions": 3082,
      "Ġinformation": 3083,
      "ĠNor": 3084,
      "view": 3085,
      "clock": 3086,
      "ades": 3087,
      "Ġdrop": 3088,
      "Ġfeed": 3089,
      "Ġcreated": 3090,
      "empt": 3091,
      "Ġsna": 3092,
      "Ġcentury": 3093,
      "Ġwet": 3094,
      "Ġye": 3095,
      "Ġmod": 3096,
      "orts": 3097,
      "unicip": 3098,
      "Ġ192": 3099,
      "Ġsky": 3100,
      "Ġuncle": 3101,
      "ĠEar": 3102,
      "Ġnecess": 3103,
      "Ġfinally": 3104,
      "Ġhide": 3105,
      "ume": 3106,
      "Ġyum": 3107,
      "Ġitself": 3108,
      "Ġcorner": 3109,
      "ipe": 3110,
      "Ġteeth": 3111,
      "Ġdelight": 3112,
      "elve": 3113,
      "wood": 3114,
      "Ġforce": 3115,
      "Ġnorm": 3116,
      "ĠPeter": 3117,
      "ilar": 3118,
      "Ġcell": 3119,
      "ius": 3120,
      "enny": 3121,
      "phone": 3122,
      "Ġlaughed": 3123,
      "Ġespecially": 3124,
      "ission": 3125,
      "Ġletters": 3126,
      "cer": 3127,
      "ida": 3128,
      "olved": 3129,
      "Ġrose": 3130,
      "lt": 3131,
      "Ġliked": 3132,
      "Ġrob": 3133,
      "Ġannoun": 3134,
      "ĠNin": 3135,
      "Ġcrow": 3136,
      "Ġtype": 3137,
      "ipped": 3138,
      "Ġcream": 3139,
      "ĠWhy": 3140,
      "Ġfavorite": 3141,
      "Ġattention": 3142,
      "ĠCarl": 3143,
      "oose": 3144,
      "Ġcapital": 3145,
      "Ġaut": 3146,
      "ĠComm": 3147,
      "Ġfilm": 3148,
      "Ġdistance": 3149,
      "Ġmatch": 3150,
      "Ġforgot": 3151,
      "Ġuhoh": 3152,
      "Ġpock": 3153,
      "ii": 3154,
      "af": 3155,
      "vin": 3156,
      "ES": 3157,
      "ĠRuss": 3158,
      "Why": 3159,
      "Ġinn": 3160,
      "Ġrid": 3161,
      "ĠBrown": 3162,
      "Ġstars": 3163,
      "itive": 3164,
      "dd": 3165,
      "por": 3166,
      "Ġ2021": 3167,
      "ok": 3168,
      "Ġgrew": 3169,
      "ĠMag": 3170,
      "anish": 3171,
      "Ġvers": 3172,
      "Ġperiod": 3173,
      "Ġeggs": 3174,
      "uge": 3175,
      "Ġfamous": 3176,
      "ï¿½ï¿½ï¿½ï¿½": 3177,
      "ĠBlack": 3178,
      "ids": 3179,
      "Ġearn": 3180,
      "Ġpaid": 3181,
      "Ġperfor": 3182,
      "Ġhall": 3183,
      "Ġmention": 3184,
      "Ġself": 3185,
      "chn": 3186,
      "dered": 3187,
      "ĠLea": 3188,
      "Ġcharge": 3189,
      "Ġtape": 3190,
      "Ġserious": 3191,
      "Ġalive": 3192,
      "Ġconcern": 3193,
      "medi": 3194,
      "rer": 3195,
      "Ġbottle": 3196,
      "ala": 3197,
      "Ġcourt": 3198,
      "het": 3199,
      "Ġears": 3200,
      "Ġinterested": 3201,
      "raft": 3202,
      "ĠEx": 3203,
      "Ġfuture": 3204,
      "Ġsmell": 3205,
      "Ġphot": 3206,
      "ashed": 3207,
      "Ġwhoa": 3208,
      "Ġkey": 3209,
      "Ġlocal": 3210,
      "Ġchrist": 3211,
      "field": 3212,
      "Ġchocol": 3213,
      "Ġmem": 3214,
      "aff": 3215,
      "Ġsharp": 3216,
      "Ġ..": 3217,
      "Ġpolic": 3218,
      "Ġspeed": 3219,
      "Ġspot": 3220,
      "Ġpray": 3221,
      "Ġparts": 3222,
      "ĠGeorge": 3223,
      "Ġwriting": 3224,
      "Ġsmile": 3225,
      "cher": 3226,
      "Ġcapt": 3227,
      "Ġloved": 3228,
      "Ġneeded": 3229,
      "Ġquestions": 3230,
      "Ġpromise": 3231,
      "Ġbridge": 3232,
      "Ġprep": 3233,
      "Ġincre": 3234,
      "Ġver": 3235,
      "Ġsle": 3236,
      "ustom": 3237,
      "ĠOkay": 3238,
      "antly": 3239,
      "Ġshowed": 3240,
      "rian": 3241,
      "Ġsurprise": 3242,
      "ĠEll": 3243,
      "ounded": 3244,
      "Ġanx": 3245,
      "ĠLou": 3246,
      "aven": 3247,
      "Ġlord": 3248,
      "Ġholding": 3249,
      "ya": 3250,
      "Ġpeace": 3251,
      "Ġï¿½": 3252,
      "Ġtit": 3253,
      "ivil": 3254,
      "Ġclever": 3255,
      "Ġmix": 3256,
      "Ġvan": 3257,
      "ival": 3258,
      "Ġnames": 3259,
      "Ġblow": 3260,
      "isted": 3261,
      "Ġbirds": 3262,
      "ires": 3263,
      "OR": 3264,
      "itz": 3265,
      "Ġmass": 3266,
      "Ġviol": 3267,
      "Ġtrad": 3268,
      "Ġplant": 3269,
      "iforn": 3270,
      "Ġhous": 3271,
      "now": 3272,
      "vol": 3273,
      "itary": 3274,
      "light": 3275,
      "ption": 3276,
      "ĠWilliam": 3277,
      "Ġscared": 3278,
      "ination": 3279,
      "ode": 3280,
      "ander": 3281,
      "Ġbud": 3282,
      "Ġep": 3283,
      "Ġrub": 3284,
      "ĠCent": 3285,
      "iment": 3286,
      "Ġconnect": 3287,
      "Ġbene": 3288,
      "There": 3289,
      "Ġprofession": 3290,
      "ĠâĮĬ": 3291,
      "Ġshare": 3292,
      "ĠPresident": 3293,
      "Ġcomput": 3294,
      "AR": 3295,
      "ĠâĨ": 3296,
      "Ġfresh": 3297,
      "ĠMama": 3298,
      "ĠNe": 3299,
      "Ġterrible": 3300,
      "Ġclosed": 3301,
      "soci": 3302,
      "cious": 3303,
      "Ġspl": 3304,
      "ĠJwww": 3305,
      "icks": 3306,
      "Ġthee": 3307,
      "Ġiss": 3308,
      "Ġplate": 3309,
      "ĠÂ": 3310,
      "ĠâĮĪ": 3311,
      "Ġfir": 3312,
      "Ġlying": 3313,
      "gu": 3314,
      "ĠPol": 3315,
      "chan": 3316,
      "Ġtwelve": 3317,
      "Ġhost": 3318,
      "acing": 3319,
      "ifornia": 3320,
      "aves": 3321,
      "Ġbigger": 3322,
      "Ġbell": 3323,
      "anny": 3324,
      "asure": 3325,
      "ĠJames": 3326,
      "Ġsubject": 3327,
      "viously": 3328,
      "rel": 3329,
      "âĮĭ": 3330,
      "Ġ24": 3331,
      "gged": 3332,
      "Ġris": 3333,
      "isf": 3334,
      "Ġextra": 3335,
      "Ġcrying": 3336,
      "ichard": 3337,
      "Ġmrs": 3338,
      "ĠAfr": 3339,
      "asion": 3340,
      "ĠFrom": 3341,
      "\")": 3342,
      "ĠSu": 3343,
      "Ġpig": 3344,
      "str": 3345,
      "Ġbelow": 3346,
      "ument": 3347,
      "Ġsheep": 3348,
      "ĠQu": 3349,
      "ribut": 3350,
      "Ġcontain": 3351,
      "Ġrich": 3352,
      "Ġproblems": 3353,
      "lymp": 3354,
      "hood": 3355,
      "osaur": 3356,
      "âĮī": 3357,
      "Ġden": 3358,
      "mpionship": 3359,
      "ĠBilly": 3360,
      "Ġearl": 3361,
      "ĠRoman": 3362,
      "Th": 3363,
      "cut": 3364,
      "Ġeduc": 3365,
      "Ġasking": 3366,
      "Ġmunicip": 3367,
      "Ġstone": 3368,
      "Ġslowly": 3369,
      "Ġasleep": 3370,
      "Ġdue": 3371,
      "ĠGermany": 3372,
      "Ġinfl": 3373,
      "Ġfre": 3374,
      "set": 3375,
      "yle": 3376,
      "Ġfol": 3377,
      "Ġ21": 3378,
      "Ġnar": 3379,
      "Ġeast": 3380,
      "house": 3381,
      "ĠFirst": 3382,
      "Ġ2019": 3383,
      "ĠBetty": 3384,
      "Ġvideo": 3385,
      "Ġinvest": 3386,
      "rap": 3387,
      "Ġguard": 3388,
      "Ġsleeping": 3389,
      "ico": 3390,
      "eder": 3391,
      "omes": 3392,
      "Ġabsolute": 3393,
      "Ġ(\"": 3394,
      "Ġshore": 3395,
      "loy": 3396,
      "Ġfright": 3397,
      "Ġchocolate": 3398,
      "sy": 3399,
      "Ġimmedi": 3400,
      "Ġunless": 3401,
      "ils": 3402,
      "Ġscar": 3403,
      "Ġhardly": 3404,
      "Ġremain": 3405,
      "Ġbasket": 3406,
      "ĠDr": 3407,
      "anor": 3408,
      "ĠBill": 3409,
      "Ġcountries": 3410,
      "ĠHist": 3411,
      "ites": 3412,
      "Ġbroad": 3413,
      "line": 3414,
      "val": 3415,
      "ĠJo": 3416,
      "Ġtour": 3417,
      "Ġwheel": 3418,
      "Ġhelped": 3419,
      "Ġexam": 3420,
      "iles": 3421,
      "Ġspecies": 3422,
      "Ġreading": 3423,
      "Ġbattle": 3424,
      "iel": 3425,
      "Ġsepar": 3426,
      "Ġstage": 3427,
      "Ġrap": 3428,
      "Ġforty": 3429,
      "ĠHarry": 3430,
      "Ġfamil": 3431,
      "uten": 3432,
      "Ġserved": 3433,
      "Ġrepresent": 3434,
      "ĠGl": 3435,
      "ĠLa": 3436,
      "Ġforest": 3437,
      "wise": 3438,
      "Ġbase": 3439,
      "Ġleaves": 3440,
      "ĠAnn": 3441,
      "Ġdin": 3442,
      "name": 3443,
      "Ġpers": 3444,
      "ength": 3445,
      "alley": 3446,
      "Ġmachine": 3447,
      "ĠHen": 3448,
      "off": 3449,
      "Ġham": 3450,
      "Ġpuzz": 3451,
      "ĠAmerica": 3452,
      "Ġtalked": 3453,
      "Ġdogs": 3454,
      "ĠBobby": 3455,
      "Ġcoat": 3456,
      "Ġspent": 3457,
      "uction": 3458,
      "Ġspring": 3459,
      "Ġloud": 3460,
      "ĠRober": 3461,
      "EN": 3462,
      "AN": 3463,
      "Ġaccom": 3464,
      "conom": 3465,
      "Ġscr": 3466,
      "ĠSm": 3467,
      "Ġlearned": 3468,
      "Ġsevent": 3469,
      "yond": 3470,
      "Ġ2017": 3471,
      "pose": 3472,
      "Ġrail": 3473,
      "Ġplays": 3474,
      "Ġpicked": 3475,
      "inite": 3476,
      "Ġspread": 3477,
      "Ġfem": 3478,
      "Ġmountain": 3479,
      "Ġelephant": 3480,
      "Ġwake": 3481,
      "Ġamount": 3482,
      "ĠUncle": 3483,
      "Ġcovered": 3484,
      "Ġways": 3485,
      "Ġhill": 3486,
      "ĠAh": 3487,
      "Ġsearch": 3488,
      "Ġjoined": 3489,
      "ĠCo": 3490,
      "iar": 3491,
      "Ġmeat": 3492,
      "Ġcomb": 3493,
      "Ġaff": 3494,
      "Ġpolitician": 3495,
      "Ġprocess": 3496,
      "hank": 3497,
      "If": 3498,
      "ĠRiver": 3499,
      "Ġolder": 3500,
      "Ġsimilar": 3501,
      "Ġinclude": 3502,
      "Ġlikely": 3503,
      "ĠQue": 3504,
      "Ġbull": 3505,
      "ning": 3506,
      "cience": 3507,
      "Ġoops": 3508,
      "Ġhonest": 3509,
      "ĠMad": 3510,
      "Ġcaused": 3511,
      "Ġkick": 3512,
      "hem": 3513,
      "ask": 3514,
      "bour": 3515,
      "ville": 3516,
      "ĠLord": 3517,
      "essor": 3518,
      "otten": 3519,
      "of": 3520,
      "Ġterm": 3521,
      "Ġentered": 3522,
      "Ġstraw": 3523,
      "Ġdirection": 3524,
      "Ġban": 3525,
      "Ġtoy": 3526,
      "Ġut": 3527,
      "Ġsituation": 3528,
      "Ġjoin": 3529,
      "Ġaccident": 3530,
      "Ġworse": 3531,
      "Ġcrowd": 3532,
      "illa": 3533,
      "gel": 3534,
      "Ġattempt": 3535,
      "ĠDor": 3536,
      "ĠSy": 3537,
      "Ġupstairs": 3538,
      "ressed": 3539,
      "ises": 3540,
      "era": 3541,
      "Ġsatisf": 3542,
      "Ġexplain": 3543,
      "Ġthy": 3544,
      "Ġ2022": 3545,
      "Ġrepe": 3546,
      "ĠParty": 3547,
      "Ġwinter": 3548,
      "Ġsex": 3549,
      "Ġjoy": 3550,
      "ĠBo": 3551,
      "inary": 3552,
      "erve": 3553,
      "olf": 3554,
      "lands": 3555,
      "Ġdollars": 3556,
      "Ġpocket": 3557,
      "Ġsquare": 3558,
      "Ġload": 3559,
      "Ġcalling": 3560,
      "Ġur": 3561,
      "Ġnatural": 3562,
      "ĠMany": 3563,
      "epend": 3564,
      "ĠBlue": 3565,
      "Ġ23": 3566,
      "ĠBon": 3567,
      "aker": 3568,
      "esus": 3569,
      "ization": 3570,
      "ĠGreat": 3571,
      "ns": 3572,
      "ĠHere": 3573,
      "iant": 3574,
      "Ġstories": 3575,
      "Ġenemy": 3576,
      "Ġbeha": 3577,
      "ĠIntern": 3578,
      "ppy": 3579,
      "Ġ100": 3580,
      "Ġhun": 3581,
      "ĠCalifornia": 3582,
      "razy": 3583,
      "Ġnaught": 3584,
      "kin": 3585,
      "Ġtrip": 3586,
      "Ġmoder": 3587,
      "ĠOlymp": 3588,
      "Ġ&": 3589,
      "anda": 3590,
      "astic": 3591,
      "Ġrelig": 3592,
      "nam": 3593,
      "Ġemb": 3594,
      "Ġdeclared": 3595,
      "'?": 3596,
      "Ġsize": 3597,
      "ency": 3598,
      "ĠRob": 3599,
      "Ġhate": 3600,
      "ĠMichael": 3601,
      "Ġpossib": 3602,
      "ergy": 3603,
      "Ġwed": 3604,
      "reek": 3605,
      "Ġdestroy": 3606,
      "cul": 3607,
      "Ġleader": 3608,
      "Ġpath": 3609,
      "Ġfighting": 3610,
      "Ġcloud": 3611,
      "Ġrese": 3612,
      "Ġsilly": 3613,
      "ests": 3614,
      "ensus": 3615,
      "Ġrabbit": 3616,
      "do": 3617,
      "Ġbang": 3618,
      "vies": 3619,
      "Ġfinal": 3620,
      "Ġbeyond": 3621,
      "Ġdriving": 3622,
      "Ġforth": 3623,
      "Ġ2010": 3624,
      "ĠWhere": 3625,
      "Ġagreed": 3626,
      "ĠDid": 3627,
      "Ġmissing": 3628,
      "Ġdressed": 3629,
      "Ġmonkey": 3630,
      "Ġslight": 3631,
      "ĠEleanor": 3632,
      "urday": 3633,
      "Ġtax": 3634,
      "reg": 3635,
      "Ġhiding": 3636,
      "ĠDan": 3637,
      "ita": 3638,
      "Ġ22": 3639,
      "erved": 3640,
      "rey": 3641,
      "Ġenc": 3642,
      "Ġlength": 3643,
      "ĠLet": 3644,
      "Don": 3645,
      "Ġmam": 3646,
      "Ġphys": 3647,
      "Ġba": 3648,
      "pping": 3649,
      "Ġrespons": 3650,
      "How": 3651,
      "eds": 3652,
      "don": 3653,
      "ĠSat": 3654,
      "Ġpleasure": 3655,
      "rom": 3656,
      "Ġsuit": 3657,
      "Ġspoon": 3658,
      "reme": 3659,
      "oom": 3660,
      "ply": 3661,
      "Ġwha": 3662,
      "ĠSue": 3663,
      "18": 3664,
      "Ġstreng": 3665,
      "isy": 3666,
      "sp": 3667,
      "ĠIndia": 3668,
      "Ġsimple": 3669,
      "uke": 3670,
      "Ġamaz": 3671,
      "Ġshows": 3672,
      "Ġproud": 3673,
      "Ġarrived": 3674,
      "orthern": 3675,
      "Ġturning": 3676,
      "Ġbound": 3677,
      "Ġmovies": 3678,
      "ration": 3679,
      "Ġintrod": 3680,
      "ĠGood": 3681,
      "Ġlaid": 3682,
      "Ġfingers": 3683,
      "Ġtight": 3684,
      "Ġlargest": 3685,
      "uts": 3686,
      "ingly": 3687,
      "Ġspirit": 3688,
      "ĠHouse": 3689,
      "ĠOf": 3690,
      "10": 3691,
      "Ġsens": 3692,
      "Ġangry": 3693,
      "sidered": 3694,
      "Ġmedic": 3695,
      "Ġconsidered": 3696,
      "Ġide": 3697,
      "Ġdangerous": 3698,
      "Ġcult": 3699,
      "Ġdirected": 3700,
      "ĠEm": 3701,
      "Ġteddy": 3702,
      "Ġmir": 3703,
      "Ġrole": 3704,
      "order": 3705,
      "Ġdeter": 3706,
      "Ġsandw": 3707,
      "Ġflying": 3708,
      "ublic": 3709,
      "ĠLeague": 3710,
      "Ġdrew": 3711,
      "Ġfinger": 3712,
      "Ġcircle": 3713,
      "Ġdifference": 3714,
      "Ġaction": 3715,
      "Ġtiny": 3716,
      "lect": 3717,
      "Ġsoldiers": 3718,
      "ĠPur": 3719,
      "ux": 3720,
      "Ġrough": 3721,
      "essie": 3722,
      "anta": 3723,
      "Ġclock": 3724,
      "Ġwit": 3725,
      "pap": 3726,
      "Ġthrew": 3727,
      "Ġmissed": 3728,
      "Ġintern": 3729,
      "Ġhappening": 3730,
      "Ġcrazy": 3731,
      "ĠSar": 3732,
      "ĠGovern": 3733,
      "Ġcrack": 3734,
      "gl": 3735,
      "zen": 3736,
      "Ġweather": 3737,
      "Ġdriver": 3738,
      "Ġfool": 3739,
      "ams": 3740,
      "Ġblank": 3741,
      "astern": 3742,
      "Now": 3743,
      "Ġrow": 3744,
      "Ġcollege": 3745,
      "Ġdiscovered": 3746,
      "Ġnumbers": 3747,
      "Ġladies": 3748,
      "Ġamer": 3749,
      "Ġfat": 3750,
      "ĠChi": 3751,
      "org": 3752,
      "Ġcous": 3753,
      "Ġplann": 3754,
      "Ġanywhere": 3755,
      "hered": 3756,
      "Ġeff": 3757,
      "ference": 3758,
      "itude": 3759,
      "Ġpun": 3760,
      "ground": 3761,
      "Ġlucky": 3762,
      "andy": 3763,
      "Ġlion": 3764,
      "ena": 3765,
      "Ġmarket": 3766,
      "ĠAre": 3767,
      "Ġbite": 3768,
      "Ġvarious": 3769,
      "Ġescape": 3770,
      "Ġthick": 3771,
      "ĠEast": 3772,
      "Ġtechn": 3773,
      "Ġbless": 3774,
      "Ġspell": 3775,
      "utenant": 3776,
      "Ġapart": 3777,
      "Ġwatched": 3778,
      "antic": 3779,
      "Ġrelations": 3780,
      "cture": 3781,
      "vell": 3782,
      "Ġgate": 3783,
      "Ġeasily": 3784,
      "ĠâĨĴ": 3785,
      "Ġraised": 3786,
      "Ã¶": 3787,
      "uses": 3788,
      "Ġjohn": 3789,
      "ummer": 3790,
      "Ġtaste": 3791,
      "Ġnurs": 3792,
      "Ġund": 3793,
      "...?": 3794,
      "Ġmarry": 3795,
      "hal": 3796,
      "Ġbabies": 3797,
      "oses": 3798,
      "Ġtemper": 3799,
      "Ġstarting": 3800,
      "Ġdiscuss": 3801,
      "Ġdemand": 3802,
      "Ġtherefore": 3803,
      "Ġbreath": 3804,
      "Ġspeaking": 3805,
      "Ġcro": 3806,
      "Ġhadn": 3807,
      "Ġarrest": 3808,
      "Ġcoast": 3809,
      "ciety": 3810,
      "ĠMon": 3811,
      "ĠDuring": 3812,
      "nes": 3813,
      "Ġ2011": 3814,
      "ĠAnne": 3815,
      "incess": 3816,
      "edy": 3817,
      "Ġmanage": 3818,
      "Ġcalm": 3819,
      "Ġplane": 3820,
      "ĠDad": 3821,
      "iction": 3822,
      "ĠBecause": 3823,
      "ĠSund": 3824,
      "Ġgoin": 3825,
      "Ġgrad": 3826,
      "Ġcrit": 3827,
      "ĠTwo": 3828,
      "ĠColl": 3829,
      "Ġregular": 3830,
      "ĠRobert": 3831,
      "Ġactiv": 3832,
      "Ġhero": 3833,
      "Ġsteps": 3834,
      "ography": 3835,
      "ĠFred": 3836,
      "arm": 3837,
      "lend": 3838,
      "ĠHistory": 3839,
      "ĠPark": 3840,
      "Ġplaced": 3841,
      "Ġcompletely": 3842,
      "ho": 3843,
      "Ġmor": 3844,
      "Ġgoodness": 3845,
      "under": 3846,
      "Ġweap": 3847,
      "Ġabsolutely": 3848,
      "ago": 3849,
      "Ġsinging": 3850,
      "Ġemploy": 3851,
      "Ġstran": 3852,
      "Ġ26": 3853,
      "ously": 3854,
      "Ġoffe": 3855,
      "Ġcivil": 3856,
      "Ġhouses": 3857,
      "Ġhotel": 3858,
      "Ġwoods": 3859,
      "Ġsett": 3860,
      "Ġsocial": 3861,
      "Ġpaint": 3862,
      "kn": 3863,
      "Ġnature": 3864,
      "Ġeager": 3865,
      "elle": 3866,
      "Ġsurprised": 3867,
      "Ġwearing": 3868,
      "Ġtap": 3869,
      "ĠII": 3870,
      "ira": 3871,
      "ushing": 3872,
      "Ã¼": 3873,
      "Ġgives": 3874,
      "nel": 3875,
      "essel": 3876,
      "ĠMhm": 3877,
      "ially": 3878,
      "Ġcong": 3879,
      "Ġcrew": 3880,
      "Ġpulled": 3881,
      "ĠMor": 3882,
      "Ġdeck": 3883,
      "Ġprofessional": 3884,
      "Ġsmo": 3885,
      "Ġdate": 3886,
      "Ġprivate": 3887,
      "Ġ\"'": 3888,
      "ashion": 3889,
      "ĠAnt": 3890,
      "ables": 3891,
      "ĠRed": 3892,
      "Ġradio": 3893,
      "Ġnet": 3894,
      "Ġlines": 3895,
      "Ġnaughty": 3896,
      "Ġsuff": 3897,
      "Ġthinks": 3898,
      "Ġfaith": 3899,
      "Ġbuck": 3900,
      "Ġformed": 3901,
      "pa": 3902,
      "Ġduty": 3903,
      "eneral": 3904,
      "Ġfault": 3905,
      "Ġcomputer": 3906,
      "oles": 3907,
      "heart": 3908,
      "Ġboo": 3909,
      "ani": 3910,
      "Ġscene": 3911,
      "Ġmater": 3912,
      "Ġsurv": 3913,
      "Ġiron": 3914,
      "Ġholiday": 3915,
      "Ġbegin": 3916,
      "Ġconvers": 3917,
      "sey": 3918,
      "face": 3919,
      "Ġant": 3920,
      "ĠAmy": 3921,
      "Ġhonor": 3922,
      "Ġregard": 3923,
      "Ġimagine": 3924,
      "ivid": 3925,
      "Ġ2016": 3926,
      "Ġkitty": 3927,
      "mit": 3928,
      "Ġcere": 3929,
      "hin": 3930,
      "ĠSir": 3931,
      "Ġlaughing": 3932,
      "ĠCoun": 3933,
      "Ġplenty": 3934,
      "onel": 3935,
      "Ġlake": 3936,
      "atic": 3937,
      "Ġshr": 3938,
      "Ġfilled": 3939,
      "Ġsmart": 3940,
      "Ġcustom": 3941,
      "asc": 3942,
      "riend": 3943,
      "ees": 3944,
      "Ġdisp": 3945,
      "Ġimmediately": 3946,
      "asons": 3947,
      "Ġsimply": 3948,
      "Ġquarter": 3949,
      "Ġbeside": 3950,
      "Ġ27": 3951,
      "Ġ--": 3952,
      "Ġinj": 3953,
      "ĠCup": 3954,
      "Ġcheer": 3955,
      "Ġthreat": 3956,
      "ails": 3957,
      "Ġta": 3958,
      "ĠIts": 3959,
      "Ġpleased": 3960,
      "Ġmeaning": 3961,
      "itor": 3962,
      "Ġdirector": 3963,
      "iest": 3964,
      "va": 3965,
      "Ġsch": 3966,
      "Ġoriginal": 3967,
      "Ġfruit": 3968,
      "bre": 3969,
      "Ġbee": 3970,
      "mar": 3971,
      "Ġmanner": 3972,
      "Ġmilitary": 3973,
      "ĠJapanese": 3974,
      "outhern": 3975,
      "Ġdeg": 3976,
      ".,": 3977,
      "ences": 3978,
      "action": 3979,
      "Ġstream": 3980,
      "Ġnotice": 3981,
      "cast": 3982,
      "cean": 3983,
      "Ġfalling": 3984,
      "Ġhuge": 3985,
      "Ġended": 3986,
      "utch": 3987,
      "Ġcheek": 3988,
      "Ġproject": 3989,
      "Ġcabin": 3990,
      "ensive": 3991,
      "Ġagree": 3992,
      "Ġactor": 3993,
      "Ġnecessary": 3994,
      "road": 3995,
      "Ġflat": 3996,
      "Ġexpected": 3997,
      "Ġvessel": 3998,
      "Ġskin": 3999,
      "ĠMost": 4000,
      "Ġshape": 4001,
      "inct": 4002,
      "Ġinflu": 4003,
      "Ġtiger": 4004,
      "Ġpan": 4005,
      "Ġdust": 4006,
      "Ġoffer": 4007,
      "Ġannounced": 4008,
      "Ġbelieved": 4009,
      "Ġlights": 4010,
      "Ġoppos": 4011,
      "ĠAustralia": 4012,
      "ĠHenry": 4013,
      "Ġtravel": 4014,
      "Ġopport": 4015,
      "Ġaunt": 4016,
      "Ġshoe": 4017,
      "Ġneedta": 4018,
      "Ġenergy": 4019,
      "da": 4020,
      "alian": 4021,
      "urse": 4022,
      "Ġflower": 4023,
      "Ġsettle": 4024,
      "Ġempty": 4025,
      "ĠRos": 4026,
      "Ġpurple": 4027,
      "Ġsoul": 4028,
      "Ġexperience": 4029,
      "Ġlower": 4030,
      "Ġroof": 4031,
      "hest": 4032,
      "ĠSchool": 4033,
      "Ġgentlemen": 4034,
      "Ġpolitical": 4035,
      "elly": 4036,
      "rect": 4037,
      "Ġbeach": 4038,
      "Ġthus": 4039,
      "Ġdepend": 4040,
      "Ġpromised": 4041,
      "Ġneither": 4042,
      "Ġsugar": 4043,
      "Ġsupper": 4044,
      "Ġhid": 4045,
      "Ġ28": 4046,
      "Ġplain": 4047,
      "Ġsongs": 4048,
      "alt": 4049,
      "Ġsam": 4050,
      "Ġmodern": 4051,
      "yer": 4052,
      "Ġeconom": 4053,
      "rupt": 4054,
      "ĠBert": 4055,
      "jo": 4056,
      "Ġaud": 4057,
      "ĠMer": 4058,
      "Ġhigher": 4059,
      "They": 4060,
      "vi": 4061,
      "Ġpurpose": 4062,
      "inal": 4063,
      "ĠBel": 4064,
      "Ġwhoops": 4065,
      "Ġsinger": 4066,
      "Ġmagic": 4067,
      "ĠBunny": 4068,
      "Ġusual": 4069,
      "Ġjourney": 4070,
      "Ġsock": 4071,
      "ĠLittle": 4072,
      "ledge": 4073,
      "anced": 4074,
      "Ġdetect": 4075,
      "Ġboss": 4076,
      "ĠLuc": 4077,
      "Ġdouble": 4078,
      "ĠMed": 4079,
      "stit": 4080,
      "ĠBur": 4081,
      "Ġpeas": 4082,
      "Ġawful": 4083,
      "oted": 4084,
      "ĠMus": 4085,
      "icle": 4086,
      "ĠCarol": 4087,
      "Ġtwice": 4088,
      "Ġindust": 4089,
      "Ġstorm": 4090,
      "ĠPeople": 4091,
      "Ġgrown": 4092,
      "mo": 4093,
      "Ġident": 4094,
      "ĠRo": 4095,
      "anch": 4096,
      "Ġsac": 4097,
      "Ġsusp": 4098,
      "Ġneg": 4099,
      "oph": 4100,
      "Ġfallen": 4101,
      "Ġdinosaur": 4102,
      "Ġbrave": 4103,
      "ano": 4104,
      "ĠMat": 4105,
      "Ġphil": 4106,
      "Ġdrug": 4107,
      "Ġoccasion": 4108,
      "Ġ)": 4109,
      "Ġtrick": 4110,
      "ening": 4111,
      "nded": 4112,
      "Ġmostly": 4113,
      "Ġ2014": 4114,
      "yal": 4115,
      "Ġfeat": 4116,
      "Ġsaved": 4117,
      "aine": 4118,
      "Ġproduced": 4119,
      "roll": 4120,
      "Do": 4121,
      "ression": 4122,
      "Ġimm": 4123,
      "Ġgentleman": 4124,
      "Ġdefinite": 4125,
      "Ġet": 4126,
      "Ġhaha": 4127,
      "ĠState": 4128,
      "abel": 4129,
      "ointed": 4130,
      "Ġmummy": 4131,
      "ixt": 4132,
      "Ġmunicipality": 4133,
      "Ġamb": 4134,
      "Ġassist": 4135,
      "Ġmotor": 4136,
      "Ġben": 4137,
      "aching": 4138,
      "Ġgall": 4139,
      "ĠMinister": 4140,
      "Ġtim": 4141,
      "mond": 4142,
      "ĠHall": 4143,
      "ria": 4144,
      "Ġheaven": 4145,
      "Ġpoints": 4146,
      "Ġstrength": 4147,
      "Ġnote": 4148,
      "Ġswimming": 4149,
      "Ġ2012": 4150,
      "Ġcolors": 4151,
      "Ġadvent": 4152,
      "ĠCor": 4153,
      "ĠSpanish": 4154,
      "Ġdrawing": 4155,
      "ĠTex": 4156,
      "ggie": 4157,
      "Ġpainting": 4158,
      "Ġofficers": 4159,
      "Ġevidence": 4160,
      "incip": 4161,
      "Ġcart": 4162,
      "ĠEvery": 4163,
      "oups": 4164,
      "Ġtower": 4165,
      "Ġsilver": 4166,
      "vere": 4167,
      "usion": 4168,
      "ossible": 4169,
      "ĠOld": 4170,
      "Ġexist": 4171,
      "she": 4172,
      "Ġshirt": 4173,
      "Ġnon": 4174,
      "ĠSer": 4175,
      "Ġsmoke": 4176,
      "ĠTur": 4177,
      "Ġaccording": 4178,
      "Ġstates": 4179,
      "Ġmessage": 4180,
      "Ġimpro": 4181,
      "Ġ2013": 4182,
      "Ġyouth": 4183,
      "bered": 4184,
      "ij": 4185,
      "Ġnoticed": 4186,
      "Ġchap": 4187,
      "St": 4188,
      "eg": 4189,
      "Ġchoice": 4190,
      "Ġterms": 4191,
      "vey": 4192,
      "ĠSunday": 4193,
      "mother": 4194,
      "Ġexcell": 4195,
      "ĠAir": 4196,
      "Ġtar": 4197,
      "Ġtotal": 4198,
      "Ġordered": 4199,
      "ĠEuropean": 4200,
      "bl": 4201,
      "Ġmouse": 4202,
      "ĠTheir": 4203,
      "Ġcarefully": 4204,
      "look": 4205,
      "Ġbrush": 4206,
      "Ġstock": 4207,
      "Ġheads": 4208,
      "gon": 4209,
      "ĠUS": 4210,
      "ĠEmp": 4211,
      "Ġswing": 4212,
      "Ġguns": 4213,
      "Ġdelic": 4214,
      "Ġmistake": 4215,
      "ĠCr": 4216,
      "burg": 4217,
      "Ġchoose": 4218,
      "chie": 4219,
      "bon": 4220,
      "ĠBer": 4221,
      "Then": 4222,
      "Ġorders": 4223,
      "father": 4224,
      "ators": 4225,
      "Ġtears": 4226,
      "Ġedge": 4227,
      "ĠNat": 4228,
      "Ġexcited": 4229,
      "Ġrefer": 4230,
      "Ġstruck": 4231,
      "Ġsnake": 4232,
      "ero": 4233,
      "ĠHa": 4234,
      "Ġ2015": 4235,
      "Ġshad": 4236,
      "Ġpersonal": 4237,
      "Ġgrowing": 4238,
      "ĠOl": 4239,
      "Ġlistening": 4240,
      "osh": 4241,
      "ĠStan": 4242,
      "rance": 4243,
      "Ġsteam": 4244,
      "Ġdoc": 4245,
      "Ġweight": 4246,
      "Ġpleasant": 4247,
      "Ġ29": 4248,
      "Ġflight": 4249,
      "Ġcensus": 4250,
      "Ġ50": 4251,
      "Ġelection": 4252,
      "ĠJul": 4253,
      "Ġdirty": 4254,
      "Ġearlier": 4255,
      "ĠÃ": 4256,
      "Ġscient": 4257,
      "ki": 4258,
      "ĠFoot": 4259,
      "Ġepis": 4260,
      "ĠRichard": 4261,
      "lebr": 4262,
      "Ġkeeping": 4263,
      "Ġnea": 4264,
      "aret": 4265,
      "Ġattract": 4266,
      "ĠAc": 4267,
      "ett": 4268,
      "Ġoccup": 4269,
      "Ġstret": 4270,
      "oming": 4271,
      "Ġpin": 4272,
      "osing": 4273,
      "Ġtow": 4274,
      "bles": 4275,
      "hah": 4276,
      "ĠInternational": 4277,
      "ette": 4278,
      "Ġ2008": 4279,
      "50": 4280,
      "Ġtou": 4281,
      "ĠWho": 4282,
      "Ġrule": 4283,
      "nce": 4284,
      "Ġgro": 4285,
      "rs": 4286,
      "Ġmurder": 4287,
      "Ġble": 4288,
      "van": 4289,
      "lor": 4290,
      "Ġknife": 4291,
      "eer": 4292,
      "ĠChristian": 4293,
      "gs": 4294,
      "Ġflag": 4295,
      "Ġremind": 4296,
      "ugg": 4297,
      "Ġpair": 4298,
      "urity": 4299,
      "Ġshake": 4300,
      "Ġopening": 4301,
      "Ġnewspap": 4302,
      "ĠAlex": 4303,
      "Ġdesp": 4304,
      "ĠOther": 4305,
      "Ġtaught": 4306,
      "Ġestab": 4307,
      "Ġtv": 4308,
      "otion": 4309,
      "Ġcenter": 4310,
      "ustr": 4311,
      "Ġbomb": 4312,
      "ĠLaur": 4313,
      "ĠKe": 4314,
      "vious": 4315,
      "Ġimpossible": 4316,
      "kins": 4317,
      "Ġfifteen": 4318,
      "ĠMother": 4319,
      "ĠEn": 4320,
      "nal": 4321,
      "Ġchem": 4322,
      "ental": 4323,
      "AT": 4324,
      "bie": 4325,
      "Ġwag": 4326,
      "inese": 4327,
      "Ġdancing": 4328,
      "pered": 4329,
      "Ġprice": 4330,
      "ĠSteven": 4331,
      "âĮī.": 4332,
      "Ġweak": 4333,
      "eless": 4334,
      "ums": 4335,
      "Ġqueen": 4336,
      "Ġworried": 4337,
      "oring": 4338,
      "aps": 4339,
      "Ġinvolved": 4340,
      "Ġlem": 4341,
      "ify": 4342,
      "aded": 4343,
      "ĠMal": 4344,
      "oved": 4345,
      "17": 4346,
      "istics": 4347,
      "Ġ2007": 4348,
      "Ġ2009": 4349,
      "lla": 4350,
      "Ġbrain": 4351,
      "Ġdownstairs": 4352,
      "Ġbother": 4353,
      "Ġpil": 4354,
      "eman": 4355,
      "Ġoccur": 4356,
      "ĠRoy": 4357,
      "âĮĭ.": 4358,
      "Ġeld": 4359,
      "ĠMaggie": 4360,
      "iber": 4361,
      "lected": 4362,
      "Ġgroups": 4363,
      "Ġteach": 4364,
      "My": 4365,
      "Ġtone": 4366,
      "reet": 4367,
      "ĠGeneral": 4368,
      "ĠPort": 4369,
      "Ġremem": 4370,
      "Ġbat": 4371,
      "lyn": 4372,
      "Ġareas": 4373,
      "ĠSan": 4374,
      "ruction": 4375,
      "Ġfrank": 4376,
      "Ġacqu": 4377,
      "Ġsymp": 4378,
      "Ġpublished": 4379,
      "Ġharm": 4380,
      "Ġje": 4381,
      "IS": 4382,
      "ĠJane": 4383,
      "pper": 4384,
      "Ġjudge": 4385,
      "ĠTexas": 4386,
      "Ġsurr": 4387,
      "Ġemer": 4388,
      "ned": 4389,
      "yr": 4390,
      "Ġbedroom": 4391,
      "12": 4392,
      "play": 4393,
      "Ġapparent": 4394,
      "ĠCouncil": 4395,
      "Ġir": 4396,
      "ĠMex": 4397,
      "Ġobviously": 4398,
      "Ġappre": 4399,
      "Ġindepend": 4400,
      "Ġstrugg": 4401,
      "Ġenter": 4402,
      "Ġmeal": 4403,
      "Ġplants": 4404,
      "Ġfixed": 4405,
      "Ġgoodbye": 4406,
      "Ġfellows": 4407,
      "200": 4408,
      "itation": 4409,
      "Ġmarriage": 4410,
      "Ġcommunity": 4411,
      "izza": 4412,
      "ĠIll": 4413,
      "Ġforgotten": 4414,
      "ĠLouis": 4415,
      "ĠCath": 4416,
      "ĠUnion": 4417,
      "gypt": 4418,
      "ours": 4419,
      "ĠHave": 4420,
      "oured": 4421,
      "Ġ2006": 4422,
      "Ġprepared": 4423,
      "ĠAN": 4424,
      "oid": 4425,
      "Ġfounded": 4426,
      "Ġmult": 4427,
      "Ġcelebr": 4428,
      "Ġinqu": 4429,
      "Ġdeb": 4430,
      "ĠChild": 4431,
      "host": 4432,
      "ively": 4433,
      "ĠSaturday": 4434,
      "Ġcouncil": 4435,
      "Ã¨": 4436,
      "Ġsides": 4437,
      "ulf": 4438,
      "Ġeverywhere": 4439,
      "Ġheat": 4440,
      "Ġfirm": 4441,
      "Ġdise": 4442,
      "Ġclimb": 4443,
      "ĠPurdie": 4444,
      "eech": 4445,
      "Ġclaim": 4446,
      "Ġhandle": 4447,
      "razil": 4448,
      "Ġmyster": 4449,
      "Ġvac": 4450,
      "ola": 4451,
      "Ġsen": 4452,
      "Ġtong": 4453,
      "Ġsour": 4454,
      "yy": 4455,
      "Ġotherwise": 4456,
      "Ġtrail": 4457,
      "ĠChampionship": 4458,
      "Ġstairs": 4459,
      "Ġtraining": 4460,
      "Ġenv": 4461,
      "Ġshown": 4462,
      "icated": 4463,
      "ĠGrandma": 4464,
      "aked": 4465,
      "Ġaged": 4466,
      "ittee": 4467,
      "Ġspoken": 4468,
      "Ġcousin": 4469,
      "nie": 4470,
      "Ġaddress": 4471,
      "ule": 4472,
      "berg": 4473,
      "ordon": 4474,
      "ĠDem": 4475,
      "using": 4476,
      "Ġmanaged": 4477,
      "Ġloves": 4478,
      "Ġexe": 4479,
      "Ġjumped": 4480,
      "Ġprincip": 4481,
      "ĠCome": 4482,
      "Ġsmaller": 4483,
      "Ġdeterm": 4484,
      "ĠArab": 4485,
      "gress": 4486,
      "ishes": 4487,
      "istan": 4488,
      "Ġevident": 4489,
      "Ġeleven": 4490,
      "Ġtitle": 4491,
      "Ġbunny": 4492,
      "Ġyo": 4493,
      "Ġbrothers": 4494,
      "Ġninete": 4495,
      "ker": 4496,
      "Ġloss": 4497,
      "ga": 4498,
      "Ġplans": 4499,
      "Ġelectric": 4500,
      "ĠHigh": 4501,
      "udd": 4502,
      "Ġeducation": 4503,
      "Ġcookie": 4504,
      "Ġonto": 4505,
      "ĠSarah": 4506,
      "Ġnormal": 4507,
      "Ġrocks": 4508,
      "ĠWhite": 4509,
      "Ġoil": 4510,
      "ĠKingdom": 4511,
      "Ġox": 4512,
      "Ġtoast": 4513,
      "Ġassoci": 4514,
      "ĠHam": 4515,
      "Ġ()": 4516,
      "ique": 4517,
      "Ġbowl": 4518,
      "ĠQueen": 4519,
      "Ġproduc": 4520,
      "Ġtells": 4521,
      "30": 4522,
      "rid": 4523,
      "Ġbump": 4524,
      "Ġslide": 4525,
      "Ġperm": 4526,
      "inger": 4527,
      "Ġrank": 4528,
      "back": 4529,
      "Ġlocated": 4530,
      "Ã³": 4531,
      "ĠSummer": 4532,
      "ĠOF": 4533,
      "ĠWhile": 4534,
      "Ġmut": 4535,
      "Ġrate": 4536,
      "ios": 4537,
      "Ġlips": 4538,
      "Ġcred": 4539,
      "Ġpir": 4540,
      "Ġcontract": 4541,
      "Ġversion": 4542,
      "Ġancient": 4543,
      "ĠScott": 4544,
      "Ġbutton": 4545,
      "ipper": 4546,
      "Ġbal": 4547,
      "ples": 4548,
      "liam": 4549,
      "berry": 4550,
      "Ġcrime": 4551,
      "ĠCO": 4552,
      "Ġuhuh": 4553,
      "Ġfinding": 4554,
      "Ġprim": 4555,
      "Ġshoulder": 4556,
      "Ġmedicine": 4557,
      "Ġprovince": 4558,
      "Ġnurse": 4559,
      "Ġgrab": 4560,
      "ĠSim": 4561,
      "known": 4562,
      "Ġfourth": 4563,
      "ĠNic": 4564,
      "Ġopportunity": 4565,
      "Ġtrade": 4566,
      "Ġrapid": 4567,
      "Not": 4568,
      "actor": 4569,
      "Ġremained": 4570,
      "All": 4571,
      "15": 4572,
      "ja": 4573,
      "Ġbatter": 4574,
      "Ġflo": 4575,
      "fly": 4576,
      "Ġpool": 4577,
      "Ġstayed": 4578,
      "ĠBefore": 4579,
      "Ġsword": 4580,
      "Ġwashing": 4581,
      "ĠAnna": 4582,
      "Ġcases": 4583,
      "Ġfemale": 4584,
      "Ġmovement": 4585,
      "ĠCanada": 4586,
      "Ġbesides": 4587,
      "Ġpill": 4588,
      "Ġpractice": 4589,
      "Ġaye": 4590,
      "Ġcy": 4591,
      "oms": 4592,
      "Ġproceed": 4593,
      "Ġrules": 4594,
      "She": 4595,
      "ols": 4596,
      "atives": 4597,
      "ĠTim": 4598,
      "Ġdefinitely": 4599,
      "Ġmel": 4600,
      "Ġsaf": 4601,
      "Ġsilence": 4602,
      "Ġconversation": 4603,
      "Ġproduct": 4604,
      "Ġliter": 4605,
      "Ġsuggested": 4606,
      "atin": 4607,
      "ĠMo": 4608,
      "liament": 4609,
      "Ġminister": 4610,
      "Ġtent": 4611,
      "Ġcards": 4612,
      "Ġindivid": 4613,
      "Ġfashion": 4614,
      "ĠLo": 4615,
      "Ġcondition": 4616,
      "Ġactress": 4617,
      "ĠDis": 4618,
      "hold": 4619,
      "Ġblind": 4620,
      "Ġsixty": 4621,
      "Ġwine": 4622,
      "Ġkinds": 4623,
      "Ġscream": 4624,
      "Ġavail": 4625,
      "Ġgenerally": 4626,
      "west": 4627,
      "Ġoo": 4628,
      "Ġsurface": 4629,
      "Ġcarrying": 4630,
      "fit": 4631,
      "llen": 4632,
      "ĠPri": 4633,
      "Ġtie": 4634,
      "Ġrout": 4635,
      "Ġcalls": 4636,
      "Ġpizza": 4637,
      "ĠDes": 4638,
      "Ġmountains": 4639,
      "Ġrelationship": 4640,
      "LE": 4641,
      "Ġcott": 4642,
      "arr": 4643,
      "Ġourselves": 4644,
      "Ġopin": 4645,
      "ĠGold": 4646,
      "Ġbeauty": 4647,
      "eping": 4648,
      "Ġnope": 4649,
      "Ġbrill": 4650,
      "Ġbub": 4651,
      "ooh": 4652,
      "ĠItalian": 4653,
      "iron": 4654,
      "Ġchanges": 4655,
      "Ġninety": 4656,
      "aled": 4657,
      "Ġsuspect": 4658,
      "Ġnap": 4659,
      "omen": 4660,
      "Ġshell": 4661,
      "cles": 4662,
      "Ġsandwich": 4663,
      "Ġdolly": 4664,
      "Ġdread": 4665,
      "ĠMac": 4666,
      "Ġgrave": 4667,
      "Ġpotato": 4668,
      "Ġsake": 4669,
      "Ġtum": 4670,
      "Ġleading": 4671,
      "Ġresc": 4672,
      "Ġships": 4673,
      "Ġtelephone": 4674,
      "Ġevents": 4675,
      "Ġconv": 4676,
      "Ġbits": 4677,
      "Ġgaz": 4678,
      "11": 4679,
      "ĠSomet": 4680,
      "ĠCos": 4681,
      "Ġoffered": 4682,
      "Ġmagaz": 4683,
      "Ġwedding": 4684,
      "Ġpercent": 4685,
      "Ġcontact": 4686,
      "ĠCharles": 4687,
      "Ġartist": 4688,
      "Ġx": 4689,
      "ĠNed": 4690,
      "Ġpour": 4691,
      "Ġvictim": 4692,
      "Ġboats": 4693,
      "iety": 4694,
      "dies": 4695,
      "Ġdecision": 4696,
      "iana": 4697,
      "ata": 4698,
      "Ġrevol": 4699,
      "Ġinvestig": 4700,
      "Ġyup": 4701,
      "rib": 4702,
      "ĠItaly": 4703,
      "Ġnovel": 4704,
      "ĠSch": 4705,
      "Ġwheels": 4706,
      "Ġ190": 4707,
      "Ġdoors": 4708,
      "Ġupset": 4709,
      "ĠDist": 4710,
      "Ġstudio": 4711,
      "IT": 4712,
      "Ġsociety": 4713,
      "Ġwond": 4714,
      "Ġrope": 4715,
      "Ġvo": 4716,
      "Ġeasier": 4717,
      "ademy": 4718,
      "ID": 4719,
      "ĠBab": 4720,
      "Ġcentre": 4721,
      "Ġyyy": 4722,
      "Ġrom": 4723,
      "Ġhmm": 4724,
      "Ġcoach": 4725,
      "Ġder": 4726,
      "Ġwalls": 4727,
      "ĠBonnet": 4728,
      "pan": 4729,
      "ĠGra": 4730,
      "irgin": 4731,
      "cing": 4732,
      "isa": 4733,
      "Ġcamera": 4734,
      "Is": 4735,
      "ashington": 4736,
      "nic": 4737,
      "over": 4738,
      "Ġmama": 4739,
      "Ġfrightened": 4740,
      "Ġodd": 4741,
      "oseph": 4742,
      "just": 4743,
      "ari": 4744,
      "ĠAward": 4745,
      "Ġgreatest": 4746,
      "Ġpuzzle": 4747,
      "Ġhelping": 4748,
      "Ġpapers": 4749,
      "ctions": 4750,
      "Ġprofessor": 4751,
      "ura": 4752,
      "Ġmission": 4753,
      "Ġdare": 4754,
      "ented": 4755,
      "Ġperfectly": 4756,
      "Ġideas": 4757,
      "ĠEven": 4758,
      "ocrat": 4759,
      "aws": 4760,
      "Ġdrinking": 4761,
      "Ġstudents": 4762,
      "mn": 4763,
      "Ġshouted": 4764,
      "ĠBrazil": 4765,
      "Ġmud": 4766,
      "igs": 4767,
      "Ġ2000": 4768,
      "itional": 4769,
      "ĠAct": 4770,
      "Ġshowing": 4771,
      "worth": 4772,
      "Ġaver": 4773,
      "Ġstyle": 4774,
      "Ġbob": 4775,
      "ĠFlor": 4776,
      "Ġaward": 4777,
      "Ġappearance": 4778,
      "Ġreck": 4779,
      "Ġextreme": 4780,
      "ĠBessie": 4781,
      "Ġmanager": 4782,
      "Ġnineteen": 4783,
      "rot": 4784,
      "illed": 4785,
      "ucky": 4786,
      "Ġsteal": 4787,
      "ĠSen": 4788,
      "Ġofficial": 4789,
      "ĠAny": 4790,
      "ĠLaura": 4791,
      "Ġrights": 4792,
      "bey": 4793,
      "Ġ~": 4794,
      "ĠBig": 4795,
      "ĠMid": 4796,
      "Ġfaces": 4797,
      "eted": 4798,
      "ĠClub": 4799,
      "ini": 4800,
      "Ġcomfortable": 4801,
      "Ġwindows": 4802,
      "ems": 4803,
      "useum": 4804,
      "osta": 4805,
      "Ġpurs": 4806,
      "Ġlawyer": 4807,
      "Ġsmiled": 4808,
      "Ġhistor": 4809,
      "Ġsuccessful": 4810,
      "ourt": 4811,
      "This": 4812,
      "Ġprove": 4813,
      "Ġwilling": 4814,
      "Ġretired": 4815,
      "Ġattend": 4816,
      "ching": 4817,
      "Ġobl": 4818,
      "Ġmail": 4819,
      "ĠParis": 4820,
      "orough": 4821,
      "ĠNet": 4822,
      "ĠReg": 4823,
      "Ġaffect": 4824,
      "Ġpossibly": 4825,
      "Ġshel": 4826,
      "Ġyounger": 4827,
      "Ġpor": 4828,
      "ĠBear": 4829,
      "ĠWashington": 4830,
      "Ġcorrect": 4831,
      "Ġcastle": 4832,
      "Ġblocks": 4833,
      "Ġ40": 4834,
      "Ġneighbor": 4835,
      "Ġwise": 4836,
      "Ġwaited": 4837,
      "Ġspeech": 4838,
      "Ġunc": 4839,
      "Ġnick": 4840,
      "Ġstir": 4841,
      "Ġpump": 4842,
      "Ġdoin": 4843,
      "ups": 4844,
      "ache": 4845,
      "Ġbringing": 4846,
      "Ġrange": 4847,
      "Ġscience": 4848,
      "aries": 4849,
      "roat": 4850,
      "ĠSpain": 4851,
      "Ġfavour": 4852,
      "abeth": 4853,
      "esty": 4854,
      "Ġdecide": 4855,
      "ĠScot": 4856,
      "olic": 4857,
      "sing": 4858,
      "Ġcities": 4859,
      "Ġanxious": 4860,
      "Ġnarrow": 4861,
      "Ġmeth": 4862,
      "ĠChurch": 4863,
      "....": 4864,
      "Ġsettled": 4865,
      "Ġpoet": 4866,
      "Ġprevent": 4867,
      "bout": 4868,
      "ĠIr": 4869,
      "Ġevil": 4870,
      "cise": 4871,
      "ĠPo": 4872,
      "wing": 4873,
      "hab": 4874,
      "rick": 4875,
      "Ġshook": 4876,
      "Ġmemory": 4877,
      "Ġcontinue": 4878,
      "Ġforced": 4879,
      "ĠMel": 4880,
      "Ġpra": 4881,
      "Ġpeek": 4882,
      "Ġrisk": 4883,
      "wa": 4884,
      "Ġbare": 4885,
      "ĠRussian": 4886,
      "inist": 4887,
      "Ġbiggest": 4888,
      "ĠBu": 4889,
      "14": 4890,
      "ials": 4891,
      "pet": 4892,
      "Ġbi": 4893,
      "Ġshopping": 4894,
      "Ġeaten": 4895,
      "Ġdere": 4896,
      "nds": 4897,
      "Ġcrash": 4898,
      "Ġbathroom": 4899,
      "Ġexcellent": 4900,
      "Ġafterwards": 4901,
      "ĠMartin": 4902,
      "ads": 4903,
      "box": 4904,
      "Ġbike": 4905,
      "nding": 4906,
      "ĠMount": 4907,
      "Ġmentioned": 4908,
      "ota": 4909,
      "Ġ2005": 4910,
      "with": 4911,
      "ĠAg": 4912,
      "Ġarch": 4913,
      "fection": 4914,
      "Ġcircum": 4915,
      "Ġcentral": 4916,
      "Ġmate": 4917,
      "Ġwriter": 4918,
      "Ġinternational": 4919,
      "ĠChina": 4920,
      "Ġmotion": 4921,
      "Ġmicro": 4922,
      "Ġpoo": 4923,
      "ĠOlympics": 4924,
      "ĠMil": 4925,
      "ĠChe": 4926,
      "Ġappreci": 4927,
      "Ġflew": 4928,
      "Ġknowledge": 4929,
      "Ġrealize": 4930,
      "fortun": 4931,
      "Ġduh": 4932,
      "Ġexplained": 4933,
      "Ġforever": 4934,
      "semb": 4935,
      "Ġsuc": 4936,
      "Ġzoo": 4937,
      "Ġknowing": 4938,
      "Ġballoon": 4939,
      "sych": 4940,
      "rol": 4941,
      "Ġsoldier": 4942,
      "\"?": 4943,
      "Ġincluded": 4944,
      "can": 4945,
      "Ġcute": 4946,
      "Ġbrief": 4947,
      "Ġchat": 4948,
      "LL": 4949,
      "arily": 4950,
      "Ġtongue": 4951,
      "Ġneat": 4952,
      "Ġsafety": 4953,
      "wr": 4954,
      "yes": 4955,
      "Ġparticularly": 4956,
      "Ġcit": 4957,
      "Ġriding": 4958,
      "Ġintell": 4959,
      "ension": 4960,
      "Ġmodel": 4961,
      "Ġmere": 4962,
      "Ġsomewhat": 4963,
      "ĠRepublic": 4964,
      "ĠAfrica": 4965,
      "Ġstudied": 4966,
      "Ġschools": 4967,
      "Ġfairly": 4968,
      "Ġdeveloped": 4969,
      "ses": 4970,
      "Ġbark": 4971,
      "sequ": 4972,
      "Ġsalt": 4973,
      "Ġkinda": 4974,
      "Ġhighest": 4975,
      "16": 4976,
      "Ġsilent": 4977,
      "rees": 4978,
      "ĠLee": 4979,
      "ĠIsland": 4980,
      "Ġtip": 4981,
      "Ġbin": 4982,
      "boy": 4983,
      "outs": 4984,
      "Ġ2004": 4985,
      "bes": 4986,
      "Ġ0": 4987,
      "Ġsigned": 4988,
      "Ġsucceed": 4989,
      "Ġlieutenant": 4990,
      "ING": 4991,
      "atory": 4992,
      "Ġshock": 4993,
      "ĠStreet": 4994,
      "Ġkeeps": 4995,
      "Ġruns": 4996,
      "ĠFriday": 4997,
      "ification": 4998,
      "Ġeighty": 4999,
      "Ġlou": 5000,
      "Ġreb": 5001,
      "ĠWind": 5002,
      "Ġperforman": 5003,
      "Ġturns": 5004,
      "isions": 5005,
      "mend": 5006,
      "Ġescap": 5007,
      "Ġopposite": 5008,
      "Ġpowerful": 5009,
      "Ġresearch": 5010,
      "tering": 5011,
      "Ġreply": 5012,
      "ĠCat": 5013,
      "Ġuniversity": 5014,
      "izing": 5015,
      "umber": 5016,
      "ĠGreen": 5017,
      "Ġign": 5018,
      "Ġfurn": 5019,
      "gers": 5020,
      "Ġbeep": 5021,
      "Ġfeels": 5022,
      "13": 5023,
      "Ġfund": 5024,
      "ĠMont": 5025,
      "ĠSwed": 5026,
      "Ġscore": 5027,
      "Ġhug": 5028,
      "Ġservices": 5029,
      "Ġserve": 5030,
      "Ġtid": 5031,
      "ĠAnge": 5032,
      "ĠWin": 5033,
      "Ġtroub": 5034,
      "Ġmonster": 5035,
      "othy": 5036,
      "Ġ2001": 5037,
      "Ġquietly": 5038,
      "Ġglasses": 5039,
      "ste": 5040,
      "Ġvote": 5041,
      "Ġthoughts": 5042,
      "cely": 5043,
      "Ġteams": 5044,
      "Ġafford": 5045,
      "Ġproperly": 5046,
      "Ġbisc": 5047,
      "Ġsmiling": 5048,
      "Ġbrilliant": 5049,
      "Ġforgive": 5050,
      "mm": 5051,
      "ners": 5052,
      "Ġfancy": 5053,
      "ĠAcc": 5054,
      "Ġsecurity": 5055,
      "Ġplayers": 5056,
      "ulty": 5057,
      "urt": 5058,
      "icago": 5059,
      "rig": 5060,
      "Ġdirectly": 5061,
      "Ġarg": 5062,
      "ĠSanta": 5063,
      "Ġfaster": 5064,
      "oned": 5065,
      "Ġdevelopment": 5066,
      "Ġnomin": 5067,
      "ĠBeck": 5068,
      "Ġwitness": 5069,
      "Ġnursery": 5070,
      "Ġstro": 5071,
      "ĠSl": 5072,
      "Ġuses": 5073,
      "Ġprint": 5074,
      "Ġmale": 5075,
      "Ġhanging": 5076,
      "ĠTony": 5077,
      "Ġknee": 5078,
      "Ġprefer": 5079,
      "uits": 5080,
      "Ġjim": 5081,
      "Ġghost": 5082,
      "Ġwhispered": 5083,
      "hi": 5084,
      "Ġyay": 5085,
      "Ġsees": 5086,
      "ĠDick": 5087,
      "Ġlarger": 5088,
      "ĠSa": 5089,
      "ĠEgypt": 5090,
      "owed": 5091,
      "ĠRock": 5092,
      "Ġtext": 5093,
      "eta": 5094,
      "ello": 5095,
      "Ġmatters": 5096,
      "ĠGordon": 5097,
      "Ġfought": 5098,
      "Ġapparently": 5099,
      "Ġdisappeared": 5100,
      "ĠSee": 5101,
      "Ġdisease": 5102,
      "ĠSince": 5103,
      "ĠFort": 5104,
      "uments": 5105,
      "Ġstarts": 5106,
      "Ġdepart": 5107,
      "Ġinvent": 5108,
      "Ġ1990": 5109,
      "ĠAdam": 5110,
      "Ġconcerned": 5111,
      "Ġlog": 5112,
      "Ġfeelings": 5113,
      "Ġairpl": 5114,
      "Ġsoup": 5115,
      "Ġwondering": 5116,
      "ĠDutch": 5117,
      "Ġavailable": 5118,
      "Ġgrace": 5119,
      "icles": 5120,
      "cis": 5121,
      "itar": 5122,
      "mark": 5123,
      "Ġpassing": 5124,
      "Ġhorsie": 5125,
      "eror": 5126,
      "aches": 5127,
      "Ġremarked": 5128,
      "Ġnerv": 5129,
      "Ġhook": 5130,
      "Ġstaff": 5131,
      "Ġprincess": 5132,
      "Ġtub": 5133,
      "Ġhearing": 5134,
      "',": 5135,
      "ounds": 5136,
      "ĠRuth": 5137,
      "Ġgrandma": 5138,
      "Ġfence": 5139,
      "Ġnative": 5140,
      "Ġsurely": 5141,
      "Ġrib": 5142,
      "adian": 5143,
      "!'": 5144,
      "Ġwings": 5145,
      "vert": 5146,
      "Ġhurried": 5147,
      "icy": 5148,
      "ipping": 5149,
      "iano": 5150,
      "rael": 5151,
      "Ġwestern": 5152,
      "Ġprince": 5153,
      "apt": 5154,
      "ba": 5155,
      "Ġelected": 5156,
      "Ġpressure": 5157,
      "ĠPal": 5158,
      "Ġfarmer": 5159,
      "Ġmetal": 5160,
      "Ġthrown": 5161,
      "ĠSec": 5162,
      "Ġremembered": 5163,
      "cream": 5164,
      "OU": 5165,
      "bly": 5166,
      "rison": 5167,
      "Ġpit": 5168,
      "opher": 5169,
      "cus": 5170,
      "tr": 5171,
      "Ġbon": 5172,
      "Ġcloser": 5173,
      "ĠSea": 5174,
      "icans": 5175,
      "Ġforces": 5176,
      "Ġamazing": 5177,
      "isher": 5178,
      "Ġpushed": 5179,
      "place": 5180,
      "ĠWal": 5181,
      "Ġcrown": 5182,
      "izabeth": 5183,
      "Ġfired": 5184,
      "ĠFather": 5185,
      "ĠRog": 5186,
      "Ġweird": 5187,
      "Ġdism": 5188,
      "AS": 5189,
      "asp": 5190,
      "hib": 5191,
      "Ġpred": 5192,
      "ĠSaint": 5193,
      "ingu": 5194,
      "chief": 5195,
      "thur": 5196,
      "Ġpositive": 5197,
      "uf": 5198,
      "ĠJew": 5199,
      "Ġvalue": 5200,
      "Ġopinion": 5201,
      "igg": 5202,
      "Ġrepeated": 5203,
      "Ġlean": 5204,
      "Ġburst": 5205,
      "ĠSus": 5206,
      "rem": 5207,
      "Ġfolks": 5208,
      "Ġarrange": 5209,
      "rant": 5210,
      "Ġchest": 5211,
      "ansas": 5212,
      "aign": 5213,
      "Ġveget": 5214,
      "Ġshh": 5215,
      "fall": 5216,
      "Ġgreater": 5217,
      "Ġrelease": 5218,
      "oos": 5219,
      "Ġboots": 5220,
      "Ġpow": 5221,
      "Ġrare": 5222,
      "Ġfailed": 5223,
      "Ġtough": 5224,
      "Ġwished": 5225,
      "Ġlatter": 5226,
      "Ġgoal": 5227,
      "Ġdebut": 5228,
      "Ġgat": 5229,
      "Ġnorthern": 5230,
      "Ġworst": 5231,
      "ĠDep": 5232,
      "Ġpatient": 5233,
      "pir": 5234,
      "Ġhorn": 5235,
      "Ġrelated": 5236,
      "Ġseconds": 5237,
      "Ġocean": 5238,
      "Come": 5239,
      "Ġunderstood": 5240,
      "ĠDay": 5241,
      "Ġ189": 5242,
      "morrow": 5243,
      "Ġexer": 5244,
      "ĠAlice": 5245,
      "Ġproperty": 5246,
      "Ġdoggie": 5247,
      "Ġseriously": 5248,
      "Ġgray": 5249,
      "Ġcopy": 5250,
      "shire": 5251,
      "ironment": 5252,
      "Ġrang": 5253,
      "ias": 5254,
      "ĠThank": 5255,
      "Ġstaying": 5256,
      "Ġgather": 5257,
      "Ġweeke": 5258,
      "ram": 5259,
      "Ġfreed": 5260,
      "Ġthin": 5261,
      "Ġknocked": 5262,
      "ĠThree": 5263,
      "inting": 5264,
      "Ġcommander": 5265,
      "year": 5266,
      "Ġwaste": 5267,
      "Ġreve": 5268,
      "ĠChinese": 5269,
      "Ġcooking": 5270,
      "Ġadvant": 5271,
      "Ġcancer": 5272,
      "Ġtied": 5273,
      "Ġdozen": 5274,
      "Ġwhist": 5275,
      "Ġlanguages": 5276,
      "Ġmile": 5277,
      "Ġfriendly": 5278,
      "?'": 5279,
      "Ġjam": 5280,
      "Ġepisode": 5281,
      "achel": 5282,
      "Ġaware": 5283,
      "Ġtroops": 5284,
      "Ġdrove": 5285,
      "Ġconfir": 5286,
      "ĠSal": 5287,
      "Ġcris": 5288,
      "itzer": 5289,
      "Ġkeys": 5290,
      "imate": 5291,
      "Ġpsych": 5292,
      "Ġtal": 5293,
      "ado": 5294,
      "Ġjoke": 5295,
      "ĠMond": 5296,
      "Ġsite": 5297,
      "Ġpresence": 5298,
      "Ġtheory": 5299,
      "ĠEve": 5300,
      "Ġdesert": 5301,
      "ĠMore": 5302,
      "Ġbeast": 5303,
      "ĠLake": 5304,
      "ona": 5305,
      "Ġfishing": 5306,
      "ients": 5307,
      "Ġlibr": 5308,
      "ĠLara": 5309,
      "Ġqual": 5310,
      "etch": 5311,
      "Ġplat": 5312,
      "icked": 5313,
      "ological": 5314,
      "war": 5315,
      "Ġfully": 5316,
      "Ġhen": 5317,
      "Ġtractor": 5318,
      "Ġaverage": 5319,
      "ĠMarg": 5320,
      "vo": 5321,
      "Ġentertain": 5322,
      "Ġentirely": 5323,
      "Ġdiam": 5324,
      "Ġpic": 5325,
      "Ġna": 5326,
      "craft": 5327,
      "Ġahhah": 5328,
      "ĠBern": 5329,
      "Ġsweetheart": 5330,
      "ĠCam": 5331,
      "Ġcray": 5332,
      "tt": 5333,
      "Ġagent": 5334,
      "Ġ1980": 5335,
      "ware": 5336,
      "Ġsouthern": 5337,
      "Ġplanet": 5338,
      "Ġcats": 5339,
      "Ġmagn": 5340,
      "rie": 5341,
      "reland": 5342,
      "Ġsports": 5343,
      "gency": 5344,
      "Ġmaterial": 5345,
      "ĠPlay": 5346,
      "ĠRes": 5347,
      "Ġfond": 5348,
      "stand": 5349,
      "Ġpapa": 5350,
      "RE": 5351,
      "pany": 5352,
      "Ġburied": 5353,
      "Ġdistur": 5354,
      "Ġbarn": 5355,
      "Ġpencil": 5356,
      "alled": 5357,
      "Ġyard": 5358,
      "jesty": 5359,
      "Ġ2003": 5360,
      "quar": 5361,
      "Ġloose": 5362,
      "Let": 5363,
      "lim": 5364,
      "ĠFin": 5365,
      "Ġacting": 5366,
      "Ġdarkness": 5367,
      "pill": 5368,
      "Ġsposta": 5369,
      "ishment": 5370,
      "Ġmethod": 5371,
      "col": 5372,
      "Ġsink": 5373,
      "anna": 5374,
      "ilities": 5375,
      "Ġreported": 5376,
      "Ġboom": 5377,
      "ĠPost": 5378,
      "Ġhorri": 5379,
      "ĠRoss": 5380,
      "Ġfox": 5381,
      "Ġfamiliar": 5382,
      "Ġtouched": 5383,
      "ĠWil": 5384,
      "ibility": 5385,
      "Ġtravell": 5386,
      "ĠCare": 5387,
      "Ġdistribut": 5388,
      "bow": 5389,
      "jam": 5390,
      "ros": 5391,
      "Ġwid": 5392,
      "Ġgift": 5393,
      "Ġhunt": 5394,
      "ila": 5395,
      "Ġlone": 5396,
      "Ġstones": 5397,
      "Ġrealized": 5398,
      "Ġfrequ": 5399,
      "Ġdetermined": 5400,
      "Ġforeign": 5401,
      "ĠPrince": 5402,
      "Ġstranger": 5403,
      "Ġgently": 5404,
      "see": 5405,
      "ulations": 5406,
      "Ġadvice": 5407,
      "So": 5408,
      "Ġboun": 5409,
      "lied": 5410,
      "Ġbecoming": 5411,
      "Ġmixed": 5412,
      "Ġsignal": 5413,
      "viet": 5414,
      "ropical": 5415,
      "ĠEarly": 5416,
      "ĠKore": 5417,
      "Ġjun": 5418,
      "oria": 5419,
      "ĠDel": 5420,
      "Ġclearly": 5421,
      "In": 5422,
      "Ġmax": 5423,
      "Ġshooting": 5424,
      "Ġash": 5425,
      "Ġcourage": 5426,
      "Ġjew": 5427,
      "istic": 5428,
      "ĠCharlie": 5429,
      "Ġwave": 5430,
      "Ġtotally": 5431,
      "Ġnic": 5432,
      "Ġcheap": 5433,
      "Ġdrawn": 5434,
      "asty": 5435,
      "inda": 5436,
      "Ġ188": 5437,
      "Ġscrew": 5438,
      "Ġ2002": 5439,
      "Ġadmir": 5440,
      "Ġpad": 5441,
      "Ġprepar": 5442,
      "Ġhonour": 5443,
      "Ġinnoc": 5444,
      "Ġsav": 5445,
      "ĠRose": 5446,
      "tained": 5447,
      "ctors": 5448,
      "ĠGar": 5449,
      "Ġcircumst": 5450,
      "ĠLook": 5451,
      "Ġrise": 5452,
      "ez": 5453,
      "Ġstrike": 5454,
      "Ġstring": 5455,
      "gent": 5456,
      "Ġtypes": 5457,
      "ĠBay": 5458,
      "Ġexcit": 5459,
      "Ġlocked": 5460,
      "cel": 5461,
      "Ġmedical": 5462,
      "sters": 5463,
      "bury": 5464,
      "Ġdying": 5465,
      "aterpill": 5466,
      "Ġnewspaper": 5467,
      "eed": 5468,
      "ĠDoctor": 5469,
      "Ġdescribed": 5470,
      "Ġincludes": 5471,
      "dad": 5472,
      "ĠLady": 5473,
      "Ġcrim": 5474,
      "Ġinstant": 5475,
      "Ġmort": 5476,
      "unno": 5477,
      "Ġnest": 5478,
      "Ġsport": 5479,
      "Ġformula": 5480,
      "Ġgrant": 5481,
      "Ġdamage": 5482,
      "ĠDar": 5483,
      "Ġ186": 5484,
      "Ġcho": 5485,
      "Ġthrowing": 5486,
      "ocratic": 5487,
      "Ġzzz": 5488,
      "Ġcommunic": 5489,
      "Ġeffort": 5490,
      "Ġcraw": 5491,
      "Ġvent": 5492,
      "oma": 5493,
      "Ġgolden": 5494,
      "Ġyummy": 5495,
      "Ġfamilies": 5496,
      "Ġdim": 5497,
      "Ġwrest": 5498,
      "ennis": 5499,
      "ential": 5500,
      "rans": 5501,
      "Ã¤": 5502,
      "ĠFrancis": 5503,
      "Ġhidden": 5504,
      "Ġquack": 5505,
      "ĠAND": 5506,
      "Ġsuspic": 5507,
      "Ġgathered": 5508,
      "Ġsocks": 5509,
      "Ġlid": 5510,
      "Ġadult": 5511,
      "Ġcarriage": 5512,
      "Ġreceive": 5513,
      "Ġaim": 5514,
      "Ġliber": 5515,
      "Ġpartner": 5516,
      "Ġcookies": 5517,
      "yan": 5518,
      "Ġpaying": 5519,
      "Ġwore": 5520,
      "ĠFlorida": 5521,
      "law": 5522,
      "Ġfrench": 5523,
      "ĠBa": 5524,
      "igned": 5525,
      "sed": 5526,
      "Ġdegree": 5527,
      "Ġfac": 5528,
      "Ġhan": 5529,
      "Ġdesper": 5530,
      "ĠProv": 5531,
      "Ġcampaign": 5532,
      "sha": 5533,
      "essed": 5534,
      "Ġmoo": 5535,
      "ĠJoseph": 5536,
      "ĠXX": 5537,
      "Ġdesire": 5538,
      "ights": 5539,
      "ĠWood": 5540,
      "ĠIndians": 5541,
      "ĠLike": 5542,
      "Ġdrama": 5543,
      "itan": 5544,
      "Ġpros": 5545,
      "lam": 5546,
      "Ġcash": 5547,
      "tw": 5548,
      "Ġtreasure": 5549,
      "Ġgiant": 5550,
      "Ġslept": 5551,
      "Ġtoes": 5552,
      "Ġlies": 5553,
      "Ġcloth": 5554,
      "asing": 5555,
      "Ġkm": 5556,
      "Ġcitiz": 5557,
      "Ġmatches": 5558,
      "Ġperform": 5559,
      "Ġrelax": 5560,
      "Ġicecream": 5561,
      "Ġpuppy": 5562,
      "iot": 5563,
      "Ġdreams": 5564,
      "ĠAcademy": 5565,
      "bits": 5566,
      "tons": 5567,
      "aging": 5568,
      "ability": 5569,
      "book": 5570,
      "iation": 5571,
      "Ġexpression": 5572,
      "Ġpolicy": 5573,
      "Ġreasons": 5574,
      "dge": 5575,
      "Ġgang": 5576,
      "199": 5577,
      "Ġowner": 5578,
      "Ġfairy": 5579,
      "Ġadminist": 5580,
      "Ġobserved": 5581,
      "Ġgosh": 5582,
      "Ġtrains": 5583,
      "Ġsomehow": 5584,
      "ĠMass": 5585,
      "ords": 5586,
      "Ġcompanion": 5587,
      "Ġrush": 5588,
      "Ġsore": 5589,
      "Ġwoo": 5590,
      "Ġunfortun": 5591,
      "Ġleaf": 5592,
      "Ġcutting": 5593,
      "Ġinspect": 5594,
      "ulous": 5595,
      "Ġinit": 5596,
      "Ġblame": 5597,
      "enced": 5598,
      "ĠCollege": 5599,
      "Ġspr": 5600,
      "Ġrespond": 5601,
      "Ġmamma": 5602,
      "ooper": 5603,
      "Ġtank": 5604,
      "Ġbyebye": 5605,
      "ĠAbout": 5606,
      "ĠEllie": 5607,
      "ĠSmith": 5608,
      "Ġyards": 5609,
      "ĠSing": 5610,
      "Ġcurious": 5611,
      "Ġdata": 5612,
      "Ġexcitement": 5613,
      "Ġmart": 5614,
      "Ġchamp": 5615,
      "ĠÂ¶": 5616,
      "ĠPak": 5617,
      "Ġber": 5618,
      "ĠIreland": 5619,
      "ĠRoyal": 5620,
      "Ġnervous": 5621,
      "Ġblanket": 5622,
      "Ġscreen": 5623,
      "Ġmerc": 5624,
      "ĠMonday": 5625,
      "Ġmal": 5626,
      "Ġconstit": 5627,
      "ban": 5628,
      "Ġgy": 5629,
      "down": 5630,
      "ĠArt": 5631,
      "Ġrecently": 5632,
      "ĠDistrict": 5633,
      "Ġsaus": 5634,
      "Ġbutterfly": 5635,
      "Ġess": 5636,
      "Ġfant": 5637,
      "Ġsixt": 5638,
      "osition": 5639,
      "Ġhandsome": 5640,
      "ĠLaw": 5641,
      "Ġveh": 5642,
      "Ġforms": 5643,
      "Ġdestroyed": 5644,
      "ĠJer": 5645,
      "bird": 5646,
      "Ġjumping": 5647,
      "Ġfan": 5648,
      "ĠChan": 5649,
      "Ġissue": 5650,
      "Ġtransl": 5651,
      "Ġpointed": 5652,
      "Ġcher": 5653,
      "ĠRa": 5654,
      "Ġpalace": 5655,
      "Ġwondered": 5656,
      "Ġcomment": 5657,
      "Ġours": 5658,
      "Ġmagazine": 5659,
      "Ġraise": 5660,
      "iverse": 5661,
      "ishop": 5662,
      "Ġshoulders": 5663,
      "Ġast": 5664,
      "iance": 5665,
      "Ġpean": 5666,
      "Ġmeas": 5667,
      "ĠJesus": 5668,
      "Ġairplane": 5669,
      "Ġstreets": 5670,
      "Ġmerry": 5671,
      "Ġweekend": 5672,
      "ĠJimmie": 5673,
      "rate": 5674,
      "win": 5675,
      "ested": 5676,
      "Ġroyal": 5677,
      "Ġbunch": 5678,
      "Ġdoggy": 5679,
      "Ġautom": 5680,
      "ima": 5681,
      "ĠFar": 5682,
      "Ġbrand": 5683,
      "Ġcurrently": 5684,
      "umn": 5685,
      "ubl": 5686,
      "Ġcontr": 5687,
      "Ġinterview": 5688,
      "Ġfart": 5689,
      "idents": 5690,
      "ĠBart": 5691,
      "Ġbuildings": 5692,
      "vis": 5693,
      "Ġprogress": 5694,
      "Ġcharacters": 5695,
      "Ġbreaking": 5696,
      "Ġuseful": 5697,
      "has": 5698,
      "ederal": 5699,
      "this": 5700,
      "Where": 5701,
      "via": 5702,
      "Ġspider": 5703,
      "acks": 5704,
      "Ġ1970": 5705,
      "Ġrif": 5706,
      "BC": 5707,
      "Ġsplend": 5708,
      "ilty": 5709,
      "Ġstom": 5710,
      "Ġthroat": 5711,
      "ĠWas": 5712,
      "Ġfold": 5713,
      "uesday": 5714,
      "aval": 5715,
      "Ġmaid": 5716,
      "cod": 5717,
      "Ġseparate": 5718,
      "ĠBoy": 5719,
      "igan": 5720,
      "ucle": 5721,
      "met": 5722,
      "Ġfeather": 5723,
      "sk": 5724,
      "ĠIN": 5725,
      "Ġlistened": 5726,
      "Ġrent": 5727,
      "Ġsweetie": 5728,
      "Ġfal": 5729,
      "Ġcredit": 5730,
      "Ġends": 5731,
      "za": 5732,
      "Ġ31": 5733,
      "ĠAfrican": 5734,
      "Ġspite": 5735,
      "otted": 5736,
      "Ġsisters": 5737,
      "Ġtarget": 5738,
      "urance": 5739,
      "Ġstepped": 5740,
      "Ġsymb": 5741,
      "Ġcolonel": 5742,
      "Ġproved": 5743,
      "Ġshame": 5744,
      "Ġproduction": 5745,
      "Ġwounded": 5746,
      "Ġcommun": 5747,
      "vy": 5748,
      "Ġmap": 5749,
      "Ġactive": 5750,
      "Ġlaws": 5751,
      "Ġstudent": 5752,
      "Ġfortune": 5753,
      "Ġsection": 5754,
      "Ġperformance": 5755,
      "itzerland": 5756,
      "ua": 5757,
      "ading": 5758,
      "Ġseventy": 5759,
      "Ġtrial": 5760,
      "ĠLab": 5761,
      "ĠApp": 5762,
      "ĠFour": 5763,
      "Ġrecorded": 5764,
      "aming": 5765,
      "Ġowned": 5766,
      "Ġmainly": 5767,
      "Ġchannel": 5768,
      "Ġachie": 5769,
      "Ġfier": 5770,
      "Ġhills": 5771,
      "ĠEdward": 5772,
      "Ġclouds": 5773,
      "ĠMax": 5774,
      "ĠGreek": 5775,
      "Ġburning": 5776,
      "ĠArmy": 5777,
      "Ġinvited": 5778,
      "ĠMaster": 5779,
      "Ġtrunk": 5780,
      "ĠEarth": 5781,
      "Ġhunting": 5782,
      "ĠCanadian": 5783,
      "Ġbay": 5784,
      "Ġinstr": 5785,
      "Ġsole": 5786,
      "Ġstatistics": 5787,
      "ĠSometimes": 5788,
      "Ġmeasure": 5789,
      "Ġprisoners": 5790,
      "Ġweapons": 5791,
      "ĠCong": 5792,
      "Ġnormally": 5793,
      "Ġinfluence": 5794,
      "reck": 5795,
      "orter": 5796,
      "ĠPen": 5797,
      "mes": 5798,
      "ito": 5799,
      "Ġchuck": 5800,
      "Ġestablished": 5801,
      "Ġenvironment": 5802,
      "asy": 5803,
      "odes": 5804,
      "they": 5805,
      "ĠCla": 5806,
      "Ġhes": 5807,
      "bar": 5808,
      "ĠVer": 5809,
      "ursday": 5810,
      "Ġtooth": 5811,
      "Ġbranch": 5812,
      "Ġcraft": 5813,
      "Ġwolf": 5814,
      "Ġcandy": 5815,
      "ĠBas": 5816,
      "Ġ[": 5817,
      "Ġperformed": 5818,
      "Ġencour": 5819,
      "Ġenjoyed": 5820,
      "Ġresist": 5821,
      "Ġ2023": 5822,
      "illing": 5823,
      "Ġrestaur": 5824,
      "ĠAustralian": 5825,
      "Ġgarage": 5826,
      "ĠCast": 5827,
      "ĠFa": 5828,
      "Ġgain": 5829,
      "Ġpulling": 5830,
      "ĠGovernor": 5831,
      "Ġinstru": 5832,
      "Ġapartment": 5833,
      "unnel": 5834,
      "ĠAnother": 5835,
      "Ġprize": 5836,
      "Ġnetwork": 5837,
      "Ġwhenever": 5838,
      "uries": 5839,
      "Ġrooms": 5840,
      "ĠTy": 5841,
      "Ġupper": 5842,
      "friend": 5843,
      "Ġtoil": 5844,
      "Ġhabit": 5845,
      "osen": 5846,
      "Ġfigures": 5847,
      "Ġdeliver": 5848,
      "Ġengaged": 5849,
      "ĠWestern": 5850,
      "ĠJones": 5851,
      "innie": 5852,
      "Ġoblig": 5853,
      "ĠAccording": 5854,
      "lle": 5855,
      "Ġaside": 5856,
      "Ġdivision": 5857,
      "ĠOnly": 5858,
      "Ġlifted": 5859,
      "Ġamerican": 5860,
      "Ġrear": 5861,
      "Ġintellig": 5862,
      "IC": 5863,
      "Ġguilty": 5864,
      "ĠPerhaps": 5865,
      "Ġdish": 5866,
      "Ġbloody": 5867,
      "Ġfrogs": 5868,
      "heast": 5869,
      "Ġplus": 5870,
      "angle": 5871,
      "ĠSuper": 5872,
      "there": 5873,
      "anches": 5874,
      "Ġknees": 5875,
      "Ġcru": 5876,
      "Ġexciting": 5877,
      "Ġresponsible": 5878,
      "Ġbodies": 5879,
      "Ġadop": 5880,
      "Ġthroughout": 5881,
      "Ġlamb": 5882,
      "Ġgradu": 5883,
      "ĠChicago": 5884,
      "Ġfields": 5885,
      "Ġtear": 5886,
      "ĠUp": 5887,
      "Ġunus": 5888,
      "Ġdivided": 5889,
      "Ġchristmas": 5890,
      "Ġspare": 5891,
      "ĠSoviet": 5892,
      "Ġawake": 5893,
      "Ġcompanies": 5894,
      "Ġnation": 5895,
      "Ġbeer": 5896,
      "Ġcreate": 5897,
      "ĠRh": 5898,
      "ĠScotland": 5899,
      "Ġmac": 5900,
      "Ġpatter": 5901,
      "Ġairport": 5902,
      "Ġhorrible": 5903,
      "Ġsang": 5904,
      "Ġwhoo": 5905,
      "Ġplanning": 5906,
      "Ġbeneath": 5907,
      "Ġpity": 5908,
      "neath": 5909,
      "Ġswear": 5910,
      "Ġinterrupt": 5911,
      "Ġborrow": 5912,
      "ĠVict": 5913,
      "Ġlearning": 5914,
      "Ġcreature": 5915,
      "Ġexecut": 5916,
      "Ġmike": 5917,
      "ĠSol": 5918,
      "Ġadvantage": 5919,
      "Ġarran": 5920,
      "eral": 5921,
      "ella": 5922,
      "ĠRay": 5923,
      "Ġcomr": 5924,
      "Ġ1960": 5925,
      "ds": 5926,
      "Ġvictory": 5927,
      "Ġwaves": 5928,
      "Ġterror": 5929,
      "bel": 5930,
      "ĠIsrael": 5931,
      "Ġpale": 5932,
      "ĠKenn": 5933,
      "ĠAlthough": 5934,
      "owing": 5935,
      "Ġreview": 5936,
      "Ġtender": 5937,
      "Ġheav": 5938,
      "Ġhay": 5939,
      "Ġhearts": 5940,
      "Ġlanded": 5941,
      "ĠIrish": 5942,
      "ault": 5943,
      "anche": 5944,
      "Ġdunno": 5945,
      "Ġterrit": 5946,
      "Ġborder": 5947,
      "geant": 5948,
      "Ġsorts": 5949,
      "engers": 5950,
      "Ġaah": 5951,
      "Ġcolour": 5952,
      "Ġadmit": 5953,
      "estival": 5954,
      "Ġladder": 5955,
      "Ġdetective": 5956,
      "ĠOs": 5957,
      "ĠOver": 5958,
      "Ġgovernor": 5959,
      "Ġlibrary": 5960,
      "Ġleague": 5961,
      "while": 5962,
      "Ġbones": 5963,
      "ores": 5964,
      "alo": 5965,
      "ĠSyl": 5966,
      "car": 5967,
      "Ġflash": 5968,
      "Ġevidently": 5969,
      "ji": 5970,
      "ĠOnce": 5971,
      "Ġchairs": 5972,
      "Ġtransport": 5973,
      "Ġscarcely": 5974,
      "usted": 5975,
      "Ġkidding": 5976,
      "Ġlonely": 5977,
      "FA": 5978,
      "Ġwire": 5979,
      "Ġjesus": 5980,
      "Ġmighty": 5981,
      "Ġ1999": 5982,
      "berries": 5983,
      "Ġdeer": 5984,
      "Ġlosing": 5985,
      "Ġjul": 5986,
      "Ġsmooth": 5987,
      "ava": 5988,
      "Ġtraffic": 5989,
      "nesday": 5990,
      "Ġanti": 5991,
      "Ġequal": 5992,
      "Ġcaterpill": 5993,
      "Ġremoved": 5994,
      "Ġfeatures": 5995,
      "Ġtask": 5996,
      "ati": 5997,
      "Ġalarm": 5998,
      "dro": 5999,
      "ige": 6000,
      "Ġbecomes": 6001,
      "Ġexperien": 6002,
      "Ġchips": 6003,
      "ĠFire": 6004,
      "ĠPooh": 6005,
      "istry": 6006,
      "Ġ(;": 6007,
      "Ġwashed": 6008,
      "Ġgreatly": 6009,
      "Ġpilot": 6010,
      "Ġholes": 6011,
      "Ġpure": 6012,
      "Ġresults": 6013,
      "Ġpupp": 6014,
      "Ġunif": 6015,
      "Ġthousands": 6016,
      "ĠSun": 6017,
      "ĠDada": 6018,
      "Ġbid": 6019,
      "Ġsan": 6020,
      "ealand": 6021,
      "Ġmirror": 6022,
      "water": 6023,
      "Ġwhee": 6024,
      "ĠAtl": 6025,
      "ĠMajor": 6026,
      "umed": 6027,
      "Ġlack": 6028,
      "Ġprevious": 6029,
      "Ġleaders": 6030,
      "Ġcompeted": 6031,
      "Ġjobs": 6032,
      "Ġordinary": 6033,
      "enth": 6034,
      "Ġaccess": 6035,
      "ĠMexico": 6036,
      "Ġjung": 6037,
      "umper": 6038,
      "Ġboxes": 6039,
      "Ġbaseball": 6040,
      "Ġfreedom": 6041,
      "orence": 6042,
      "rang": 6043,
      "looking": 6044,
      "ĠVirgin": 6045,
      "Ġtowns": 6046,
      "Ġspecific": 6047,
      "ĠPet": 6048,
      "rane": 6049,
      "Ġdifficulty": 6050,
      "Ġreligion": 6051,
      "Ġmultip": 6052,
      "oons": 6053,
      "Ġyork": 6054,
      "Ġtreated": 6055,
      "Ġgay": 6056,
      "Ġgir": 6057,
      "ĠRussia": 6058,
      "Ġfifth": 6059,
      "Al": 6060,
      "Ġglance": 6061,
      "Ġpresently": 6062,
      "ĠEach": 6063,
      "Ġbadly": 6064,
      "Ġnearer": 6065,
      "Ġbanana": 6066,
      "ĠCentral": 6067,
      "Ġdesce": 6068,
      "Ġbone": 6069,
      "Ġpony": 6070,
      "Ġwand": 6071,
      "ĠPop": 6072,
      "Ġquit": 6073,
      "Ġmarch": 6074,
      "Ġsacri": 6075,
      "Ġdesk": 6076,
      "rican": 6077,
      "ĠCorn": 6078,
      "Ġmadam": 6079,
      "rose": 6080,
      "ĠFI": 6081,
      "ĠRec": 6082,
      "ĠJeff": 6083,
      "Ġkingdom": 6084,
      "ĠDorothy": 6085,
      "Ġreckon": 6086,
      "una": 6087,
      "ĠLes": 6088,
      "Ġbags": 6089,
      "Ġhomes": 6090,
      "Ġsuffe": 6091,
      "Ġ1996": 6092,
      "Ġprisoner": 6093,
      "ĠYour": 6094,
      "Ġexchan": 6095,
      "Ã©e": 6096,
      "Ġcompetition": 6097,
      "Ġunderneath": 6098,
      "Ġslipped": 6099,
      "Ġ187": 6100,
      "Ġdelicious": 6101,
      "Ġdu": 6102,
      "ador": 6103,
      "Ġmustn": 6104,
      "Ġdawn": 6105,
      "ĠHo": 6106,
      "Ġsupply": 6107,
      "Ġfolk": 6108,
      "ĠLife": 6109,
      "Ġsplit": 6110,
      "Ġwra": 6111,
      "Ġgoat": 6112,
      "ĠGer": 6113,
      "Ġsteady": 6114,
      "ointment": 6115,
      "Ġaer": 6116,
      "Ġindividual": 6117,
      "Ġbranches": 6118,
      "Ġgrandfather": 6119,
      "Ġpear": 6120,
      "Ġguest": 6121,
      "Ġbears": 6122,
      "Ġapolog": 6123,
      "inson": 6124,
      "Ġhoping": 6125,
      "Ġshadow": 6126,
      "Ġqueer": 6127,
      "Ġ1992": 6128,
      "Ġneighbour": 6129,
      "ĠHon": 6130,
      "inned": 6131,
      "ĠDen": 6132,
      "Ġtrous": 6133,
      "Ġaccepted": 6134,
      "Ġrapidly": 6135,
      "Ġjail": 6136,
      "together": 6137,
      "Ġjustice": 6138,
      "Ġaid": 6139,
      "Ġsoap": 6140,
      "lies": 6141,
      "Ġhath": 6142,
      "Ġvoices": 6143,
      "Ġwinning": 6144,
      "ĠPrime": 6145,
      "Ġlink": 6146,
      "Ġrushed": 6147,
      "Ġlads": 6148,
      "Ġdivor": 6149,
      "Ġjacket": 6150,
      "acle": 6151,
      "...\"": 6152,
      "Ġtend": 6153,
      "bec": 6154,
      "Ġshower": 6155,
      "Ġrecom": 6156,
      "Ġcandid": 6157,
      "ĠJean": 6158,
      "Ġsigns": 6159,
      "ĠSwitzerland": 6160,
      "Ġcircumstances": 6161,
      "Ġindustry": 6162,
      "ĠDa": 6163,
      "ĠFox": 6164,
      "hol": 6165,
      "fish": 6166,
      "aring": 6167,
      "ĠPolly": 6168,
      "Ġ1998": 6169,
      "ĠRoger": 6170,
      "isha": 6171,
      "eau": 6172,
      "Ġreplaced": 6173,
      "Ġoriginally": 6174,
      "ĠWomen": 6175,
      "athy": 6176,
      "Ġcode": 6177,
      "ĠProf": 6178,
      "hh": 6179,
      "iece": 6180,
      "rows": 6181,
      "Ġrelief": 6182,
      "ception": 6183,
      "ait": 6184,
      "oston": 6185,
      "Ġindependent": 6186,
      "Ġteaching": 6187,
      "uan": 6188,
      "Ġguitar": 6189,
      "Ġrefused": 6190,
      "Ġrode": 6191,
      "Ġjigs": 6192,
      "Ġrecords": 6193,
      "Ġchosen": 6194,
      "Ġcoal": 6195,
      "Ġcave": 6196,
      "kee": 6197,
      "III": 6198,
      "Good": 6199,
      "ĠHal": 6200,
      "hand": 6201,
      "Ġpresents": 6202,
      "uous": 6203,
      "Ġbot": 6204,
      "Ġrequired": 6205,
      "Ġreligious": 6206,
      "ĠKar": 6207,
      "Ġhammer": 6208,
      "Ġdiamond": 6209,
      "ateg": 6210,
      "ĠArthur": 6211,
      "Ġwoof": 6212,
      "Ġpants": 6213,
      "ĠTed": 6214,
      "ĠHaw": 6215,
      "Ġetc": 6216,
      "Ġrice": 6217,
      "stein": 6218,
      "Who": 6219,
      "note": 6220,
      "ĠHum": 6221,
      "Ġadvance": 6222,
      "Ġavoid": 6223,
      "ĠEmpire": 6224,
      "put": 6225,
      "emies": 6226,
      "Ġescaped": 6227,
      "ĠLos": 6228,
      "Ġcontent": 6229,
      "Ġwaters": 6230,
      "ĠSecret": 6231,
      "Ġrising": 6232,
      "Ġexpensive": 6233,
      "Ġplanned": 6234,
      "Ġgrate": 6235,
      "Ġparticip": 6236,
      "ĠMet": 6237,
      "Ġagre": 6238,
      "Ġintroduced": 6239,
      "May": 6240,
      "Ġ1995": 6241,
      "Ġrolling": 6242,
      "Ġbelongs": 6243,
      "Ġcaptured": 6244,
      "Ġlit": 6245,
      "Ġhurts": 6246,
      "Ġpeter": 6247,
      "Ġattacked": 6248,
      "ĠBarb": 6249,
      "Ġpicking": 6250,
      "ora": 6251,
      "Ġdelay": 6252,
      "Ġcig": 6253,
      "elled": 6254,
      "Ġchim": 6255,
      "Ġhoped": 6256,
      "Ġsevere": 6257,
      "Ġdecor": 6258,
      "Ġdefend": 6259,
      "Ġbuddy": 6260,
      "Ġapples": 6261,
      "Ġinha": 6262,
      "Ġconce": 6263,
      "rank": 6264,
      "Here": 6265,
      "enger": 6266,
      "Ġtruly": 6267,
      "Ġï¿½ï¿½ï¿½ï¿½": 6268,
      "ĠHad": 6269,
      "Ġbeans": 6270,
      "ĠTer": 6271,
      "ĠAwards": 6272,
      "Ġmmm": 6273,
      "Ġconditions": 6274,
      "uns": 6275,
      "icket": 6276,
      "Ġdrunk": 6277,
      "Ġchanging": 6278,
      "Ġrecognized": 6279,
      "ois": 6280,
      "ĠFirstname": 6281,
      "aboo": 6282,
      "AM": 6283,
      "ED": 6284,
      "ĠBest": 6285,
      "Ġtemperature": 6286,
      "Ġeventually": 6287,
      "zer": 6288,
      "esh": 6289,
      ".--": 6290,
      "Ġsatisfied": 6291,
      "Ġpicnic": 6292,
      "Ġhappiness": 6293,
      "Ġcongrat": 6294,
      "Ġ1994": 6295,
      "Ġculture": 6296,
      "Ġthorough": 6297,
      "urally": 6298,
      "Ġvic": 6299,
      "Ġinvol": 6300,
      "Ġcows": 6301,
      "Ġdump": 6302,
      "Ġfaint": 6303,
      "Ġgerman": 6304,
      "Ġcrossed": 6305,
      "Ġbac": 6306,
      "Ġthir": 6307,
      "ĠSil": 6308,
      "Ġparties": 6309,
      "Ġjelly": 6310,
      "Ġcomedy": 6311,
      "Ġslightly": 6312,
      "Ġhasta": 6313,
      "who": 6314,
      "Ġpoliceman": 6315,
      "Ġpoison": 6316,
      "Ġmoments": 6317,
      "Ġadventure": 6318,
      "Ġintended": 6319,
      "onse": 6320,
      "Ġvalley": 6321,
      "Ġchop": 6322,
      "Ġcruel": 6323,
      "Ġsplendid": 6324,
      "ĠTV": 6325,
      "ĠDiv": 6326,
      "Ġprovided": 6327,
      "ĠParliament": 6328,
      "Ġsetting": 6329,
      "ĠZealand": 6330,
      "olution": 6331,
      "Ġsooner": 6332,
      "kel": 6333,
      "iller": 6334,
      "thew": 6335,
      "shine": 6336,
      "Ã±": 6337,
      "Ġmechan": 6338,
      "ĠLatin": 6339,
      "Ġeighteen": 6340,
      "icted": 6341,
      "Ġgrey": 6342,
      "Ġcurtain": 6343,
      "Ġtyp": 6344,
      "rd": 6345,
      "ĠBecky": 6346,
      "Ġstandard": 6347,
      "Ġlegal": 6348,
      "mhm": 6349,
      "Ġfate": 6350,
      "Ġlorry": 6351,
      "Ġalex": 6352,
      "Ġfarther": 6353,
      "keep": 6354,
      "cho": 6355,
      "ĠChief": 6356,
      "Ġweapon": 6357,
      "gging": 6358,
      "Ġcompanions": 6359,
      "Ġstomach": 6360,
      "Ġlap": 6361,
      "Ġsuffic": 6362,
      "Ġlesson": 6363,
      "lers": 6364,
      "Ġguide": 6365,
      "Ġrescue": 6366,
      "Ġfalls": 6367,
      "Ġsource": 6368,
      "Ġtrousers": 6369,
      "Ġmusical": 6370,
      "Ġsquir": 6371,
      "ae": 6372,
      "umps": 6373,
      "rences": 6374,
      "Ġlat": 6375,
      "Ġquality": 6376,
      "Ġindic": 6377,
      "ĠPeggy": 6378,
      "ĠBoston": 6379,
      "ĠHill": 6380,
      "ĠHind": 6381,
      "hus": 6382,
      "Ġbitter": 6383,
      "Ġkissed": 6384,
      "Ġmedia": 6385,
      "ĠMos": 6386,
      "Ġpurse": 6387,
      "ĠLater": 6388,
      "ĠAssoci": 6389,
      "Ġoperation": 6390,
      "Ġgeorge": 6391,
      "Ġprovide": 6392,
      "Ġclosely": 6393,
      "Ġconcent": 6394,
      "Ġsar": 6395,
      "Ġactual": 6396,
      "Ġcrocod": 6397,
      "Ġwoke": 6398,
      "Ġsignific": 6399,
      "Ġappointed": 6400,
      "hamed": 6401,
      "Ġdemanded": 6402,
      "lock": 6403,
      "Ġpages": 6404,
      "Ġliqu": 6405,
      "Ġchase": 6406,
      "Ġwarning": 6407,
      "erves": 6408,
      "arian": 6409,
      "Ġwooden": 6410,
      "sembly": 6411,
      "Ġentrance": 6412,
      "Ġcounter": 6413,
      "Ġpenny": 6414,
      "Ġgained": 6415,
      "Ġlessons": 6416,
      "25": 6417,
      "Ġconqu": 6418,
      "Ġcritic": 6419,
      "vest": 6420,
      "ĠOx": 6421,
      "ĠElizabeth": 6422,
      "Ġwealth": 6423,
      "ĠST": 6424,
      "Ġnoble": 6425,
      "ĠCourt": 6426,
      "Ġscary": 6427,
      "ĠGovernment": 6428,
      "Ġspark": 6429,
      "----\"": 6430,
      "Ġchain": 6431,
      "Ġ1997": 6432,
      "Ġapproach": 6433,
      "Ġdesigned": 6434,
      "Ġarrested": 6435,
      "sell": 6436,
      "Ġrecognize": 6437,
      "Ġearnest": 6438,
      "Ġtummy": 6439,
      "Ġsixteen": 6440,
      "ĠCamp": 6441,
      "ĠBritain": 6442,
      "Ġbricks": 6443,
      "Ġtransfer": 6444,
      "then": 6445,
      "Ġholy": 6446,
      "Ġsending": 6447,
      "ĠCont": 6448,
      "Ġwagon": 6449,
      "Ġtin": 6450,
      "Ġsons": 6451,
      "gery": 6452,
      "otte": 6453,
      "Ġsigh": 6454,
      "engu": 6455,
      "Ġsystems": 6456,
      "rain": 6457,
      "Ġward": 6458,
      "ĠPre": 6459,
      "oli": 6460,
      "py": 6461,
      "Ġmummie": 6462,
      "Ġclimbed": 6463,
      "Ġtickle": 6464,
      "ĠSqu": 6465,
      "Ġshining": 6466,
      "emic": 6467,
      "Ġauthority": 6468,
      "five": 6469,
      "Ġslip": 6470,
      "isl": 6471,
      "Ġphilos": 6472,
      "Ġcla": 6473,
      "ĠSom": 6474,
      "Ġuseta": 6475,
      "Ġeastern": 6476,
      "ĠAp": 6477,
      "ĠJud": 6478,
      "Ġenemies": 6479,
      "Ġpiano": 6480,
      "avis": 6481,
      "Ġracing": 6482,
      "Ġcommer": 6483,
      "Ġfleet": 6484,
      "Ġrolled": 6485,
      "Ġwound": 6486,
      "Ġbelief": 6487,
      "ko": 6488,
      "Ġdoo": 6489,
      "Ġkilling": 6490,
      "Ġdelighted": 6491,
      "Ġappreciate": 6492,
      "40": 6493,
      "Ġgrandmother": 6494,
      "Ġtale": 6495,
      "ĠGames": 6496,
      "Ġouch": 6497,
      "Ġstands": 6498,
      "Ġtomato": 6499,
      "Ġbent": 6500,
      "Ġconsequ": 6501,
      "iser": 6502,
      "ĠRea": 6503,
      "Ġswitch": 6504,
      "Ġsorrow": 6505,
      "Ġconnected": 6506,
      "ĠRome": 6507,
      "Ġguests": 6508,
      "Ġdragon": 6509,
      "Ġeagerly": 6510,
      "ĠCons": 6511,
      "Ġunion": 6512,
      "ĠChris": 6513,
      "Ġbush": 6514,
      "Ġselling": 6515,
      "li": 6516,
      "Ġfourteen": 6517,
      "Ġsaving": 6518,
      "ĠOoh": 6519,
      "Ġbreast": 6520,
      "Ġelder": 6521,
      "Ġthirst": 6522,
      "ĠMur": 6523,
      "tin": 6524,
      "Ġvot": 6525,
      "Åį": 6526,
      "Ġremains": 6527,
      "Ġmob": 6528,
      "Ġkindly": 6529,
      "Ġincrease": 6530,
      "ĠList": 6531,
      "was": 6532,
      "ili": 6533,
      "Ġshed": 6534,
      "Of": 6535,
      "Ġpipe": 6536,
      "acher": 6537,
      "Ġpassage": 6538,
      "Ġincreased": 6539,
      "alds": 6540,
      "ealous": 6541,
      "Ġinnocent": 6542,
      "AL": 6543,
      "ailed": 6544,
      "ĠFootnote": 6545,
      "Ġoccurred": 6546,
      "Ġsuffered": 6547,
      "eding": 6548,
      "ĠKen": 6549,
      "Ġcircus": 6550,
      "Ġuns": 6551,
      "Ġextremely": 6552,
      "Ġselected": 6553,
      "ĠWed": 6554,
      "stone": 6555,
      "ĠOur": 6556,
      "ĠBoth": 6557,
      "Ġfunction": 6558,
      "Ġowl": 6559,
      "Ġceased": 6560,
      "Ġaston": 6561,
      "RO": 6562,
      "ĠAngeles": 6563,
      "AC": 6564,
      "Ġpant": 6565,
      "Ġmarks": 6566,
      "ĠFlorence": 6567,
      "Ġfed": 6568,
      "ĠStep": 6569,
      "ĠVan": 6570,
      "Ġstole": 6571,
      "Ġdrugs": 6572,
      "Ġseek": 6573,
      "ĠAndy": 6574,
      "Ġunit": 6575,
      "ĠGeorg": 6576,
      "dney": 6577,
      "Ġoldest": 6578,
      "Ġpriest": 6579,
      "ĠNicole": 6580,
      "Ġmajesty": 6581,
      "Ġincred": 6582,
      "Ġregret": 6583,
      "Ġmedal": 6584,
      "aren": 6585,
      "Ġrum": 6586,
      "Ġaffair": 6587,
      "Ġren": 6588,
      "Ġproduce": 6589,
      "ĠChair": 6590,
      "fa": 6591,
      "Ġdiscover": 6592,
      ".)": 6593,
      "Ġnucle": 6594,
      "Ġhelps": 6595,
      "Ġgal": 6596,
      "Ġ60": 6597,
      "Ġfile": 6598,
      "Ġharder": 6599,
      "iy": 6600,
      "hew": 6601,
      "sm": 6602,
      "Ġdan": 6603,
      "Ġupside": 6604,
      "Ġspect": 6605,
      "Ġhousehold": 6606,
      "Ġunited": 6607,
      "Ġangel": 6608,
      "Ġaddition": 6609,
      "Ġappears": 6610,
      "Ġnotes": 6611,
      "Ġ1988": 6612,
      "azz": 6613,
      "Ġcas": 6614,
      "Ġislands": 6615,
      "rots": 6616,
      "quarters": 6617,
      "Ġhighly": 6618,
      "Did": 6619,
      "bell": 6620,
      "Ġgri": 6621,
      "ĠFil": 6622,
      "Ġjoe": 6623,
      "hetti": 6624,
      "Ġhadta": 6625,
      "rial": 6626,
      "Ġfortun": 6627,
      "Ġjournal": 6628,
      "Ġstructure": 6629,
      "Ġ1991": 6630,
      "ĠAwww": 6631,
      "Ġpride": 6632,
      "ĠProvince": 6633,
      "ĠLand": 6634,
      "Ġspirits": 6635,
      "Ġowe": 6636,
      "Ġpassengers": 6637,
      "Ġobey": 6638,
      "Ġdaily": 6639,
      "Ġtunnel": 6640,
      "lection": 6641,
      "Ġticket": 6642,
      "ev": 6643,
      "ervation": 6644,
      "atre": 6645,
      "iture": 6646,
      "Ġaltogether": 6647,
      "Ġexplos": 6648,
      "Ġscratch": 6649,
      "hum": 6650,
      "Ġpond": 6651,
      "Ġroles": 6652,
      "Ġclown": 6653,
      "ĠJeann": 6654,
      "Ġrat": 6655,
      "ĠOut": 6656,
      "amps": 6657,
      "ĠBO": 6658,
      "Ġwipe": 6659,
      "onia": 6660,
      "Ġgotten": 6661,
      "gt": 6662,
      "Ġwing": 6663,
      "Ġange": 6664,
      "ĠAllah": 6665,
      "Ġbasically": 6666,
      "Ġrailway": 6667,
      "ĠStill": 6668,
      "Ġbatt": 6669,
      "ĠTown": 6670,
      "Ġstor": 6671,
      "Ġnights": 6672,
      "Ġhumans": 6673,
      "Ġpowers": 6674,
      "Ġdiss": 6675,
      "ĠAmericans": 6676,
      "Ġseated": 6677,
      "ĠHu": 6678,
      "Ġdemon": 6679,
      "An": 6680,
      "nday": 6681,
      "Ġvir": 6682,
      "Ġcaterpillar": 6683,
      "Ġcommittee": 6684,
      "Ġkil": 6685,
      "Ġmarked": 6686,
      "Ġtreatment": 6687,
      "Ġflood": 6688,
      "awa": 6689,
      "Ġburned": 6690,
      "Ġstatement": 6691,
      "Ġlege": 6692,
      "bi": 6693,
      "Ġwitch": 6694,
      "Ġdetails": 6695,
      "Ġshops": 6696,
      "ouri": 6697,
      "Ġarranged": 6698,
      "Ġdip": 6699,
      "ĠJan": 6700,
      "Ġjigsaw": 6701,
      "Ġax": 6702,
      "ĠYet": 6703,
      "ĠCatholic": 6704,
      "ĠTrans": 6705,
      "Ġclimbing": 6706,
      "Ġsolid": 6707,
      "Ġaccompl": 6708,
      "Ġheight": 6709,
      "eable": 6710,
      "Ġbuying": 6711,
      "Ġstol": 6712,
      "rier": 6713,
      "Ġimprove": 6714,
      "ET": 6715,
      "ĠAng": 6716,
      "Ġinhabit": 6717,
      "mi": 6718,
      "ĠFre": 6719,
      "Ġdom": 6720,
      "ĠWater": 6721,
      "Ġincl": 6722,
      "Ġmichael": 6723,
      "Ġstern": 6724,
      "Ġsin": 6725,
      "ami": 6726,
      "Ġrings": 6727,
      "Ġseats": 6728,
      "Ġchose": 6729,
      "stitute": 6730,
      "Ġthunder": 6731,
      "ĠCaroline": 6732,
      "Ġprecious": 6733,
      "ĠBow": 6734,
      "Ġluc": 6735,
      "opter": 6736,
      "Ġworn": 6737,
      "Ġspin": 6738,
      "Ġambul": 6739,
      "Ġslave": 6740,
      "Ġglo": 6741,
      "alais": 6742,
      "cies": 6743,
      "Ġchampionship": 6744,
      "Ġ1993": 6745,
      "Ġbul": 6746,
      "ĠCle": 6747,
      "ĠGab": 6748,
      "Ġspots": 6749,
      "Ġdriven": 6750,
      "Ġemergency": 6751,
      "Ġmood": 6752,
      "ĠBre": 6753,
      "ĠBea": 6754,
      "ĠHol": 6755,
      "Ġscare": 6756,
      "Ġcub": 6757,
      "ĠLy": 6758,
      "ĠDonald": 6759,
      "Ġpotatoes": 6760,
      "ĠAye": 6761,
      "ĠHot": 6762,
      "Ġsprang": 6763,
      "uz": 6764,
      "ĠDemocratic": 6765,
      "ĠKat": 6766,
      "Ġlately": 6767,
      "Be": 6768,
      "Ġdistant": 6769,
      "Ġconduct": 6770,
      "Ġwhisper": 6771,
      "des": 6772,
      "owned": 6773,
      "Ġrecording": 6774,
      "Ġdocument": 6775,
      "Ġpile": 6776,
      "ĠPers": 6777,
      "Ġcliff": 6778,
      "ancing": 6779,
      "Ġtracks": 6780,
      "Ġgoods": 6781,
      "Ġswift": 6782,
      "ĠWhich": 6783,
      "Ġsecure": 6784,
      "iraffe": 6785,
      "Ġproducer": 6786,
      "ĠIII": 6787,
      "olk": 6788,
      "Ġgods": 6789,
      "Ġgrapes": 6790,
      "ĠPap": 6791,
      "ĠJerry": 6792,
      "Ġdisplay": 6793,
      "Ġkeen": 6794,
      "ĠRod": 6795,
      "ĠUm": 6796,
      "ints": 6797,
      "Ġconfidence": 6798,
      "Ġraining": 6799,
      "21": 6800,
      "Ġkang": 6801,
      "Ġarmed": 6802,
      "Ġpoorly": 6803,
      "Ġsquee": 6804,
      "Ġrequire": 6805,
      "23": 6806,
      "gly": 6807,
      "Ġpregn": 6808,
      "Ġreact": 6809,
      "Ġcents": 6810,
      "Ġparis": 6811,
      "Ġplastic": 6812,
      "ela": 6813,
      "ĠSpe": 6814,
      "Ġjealous": 6815,
      "Ġpresented": 6816,
      "nament": 6817,
      ";\"": 6818,
      "hire": 6819,
      "Ġdude": 6820,
      "herlands": 6821,
      "ĠLong": 6822,
      "Ġsunshine": 6823,
      "adium": 6824,
      "omed": 6825,
      "ĠServ": 6826,
      "ĠLie": 6827,
      "Ġbold": 6828,
      "Ġcells": 6829,
      "Ġmicrophone": 6830,
      "Ġalp": 6831,
      "aghetti": 6832,
      "mouth": 6833,
      "Ġexercise": 6834,
      "ĠNorthern": 6835,
      "Ġunf": 6836,
      "Ġhundreds": 6837,
      "Ġsounded": 6838,
      "Ġclimate": 6839,
      "ĠBru": 6840,
      "Ġcompos": 6841,
      "Ġtiss": 6842,
      "ĠBird": 6843,
      "ĠVal": 6844,
      "Ġcollection": 6845,
      "Ġsnap": 6846,
      "ĠBomb": 6847,
      "aki": 6848,
      "Ġstrawberry": 6849,
      "Ġannoy": 6850,
      "IL": 6851,
      "Ġreven": 6852,
      "issa": 6853,
      "ĠAlexander": 6854,
      "ĠSpr": 6855,
      "ennie": 6856,
      "Ġpeanut": 6857,
      "Ġsoftly": 6858,
      "Ġunusual": 6859,
      "hall": 6860,
      "yeah": 6861,
      "bid": 6862,
      "Ġlee": 6863,
      "Ġsomethin": 6864,
      "Ġpainted": 6865,
      "Ġprotection": 6866,
      "Ġpermission": 6867,
      "Ġol": 6868,
      "Ġeats": 6869,
      "Ġcondu": 6870,
      "Ġ1989": 6871,
      "lfriend": 6872,
      "Ġunable": 6873,
      "Ġstronger": 6874,
      "ĠOliver": 6875,
      "bin": 6876,
      "Ġdishes": 6877,
      "ĠBi": 6878,
      "ĠDim": 6879,
      "ĠNever": 6880,
      "Ġservant": 6881,
      "oto": 6882,
      "Ġorganization": 6883,
      "ĠCa": 6884,
      "Ġproof": 6885,
      "Ġphysical": 6886,
      "Ġashamed": 6887,
      "ĠFore": 6888,
      "Ġdoctors": 6889,
      "ques": 6890,
      "ĠGran": 6891,
      "Ġchallen": 6892,
      "ĠNana": 6893,
      "Ġbuff": 6894,
      "omer": 6895,
      "ĠTor": 6896,
      "Ġven": 6897,
      "\").": 6898,
      "Ġclap": 6899,
      "ĠRon": 6900,
      "Ġcomplex": 6901,
      "Ġducks": 6902,
      "ĠTra": 6903,
      "Ġsneak": 6904,
      "ĠSk": 6905,
      "Ġmyth": 6906,
      "hanks": 6907,
      "Ġpushing": 6908,
      "Ġrecent": 6909,
      "When": 6910,
      "Ġsurround": 6911,
      "Ġunknown": 6912,
      "agn": 6913,
      "amma": 6914,
      "Ġlic": 6915,
      "Ġray": 6916,
      "ĠMabel": 6917,
      "eps": 6918,
      "Ġchemical": 6919,
      "ĠNight": 6920,
      "ĠBaby": 6921,
      "Ġpeekaboo": 6922,
      "Ġgiraffe": 6923,
      "Ġhee": 6924,
      "ĠNancy": 6925,
      "ĠVery": 6926,
      "Ġtorn": 6927,
      "low": 6928,
      "Ġletting": 6929,
      "augh": 6930,
      "ĠSand": 6931,
      "ĠGil": 6932,
      "ĠAgain": 6933,
      "Ġsher": 6934,
      "Ġbelt": 6935,
      "rand": 6936,
      "stra": 6937,
      "Ġsubst": 6938,
      "ĠCongress": 6939,
      "Ġbree": 6940,
      "Ġmole": 6941,
      "zy": 6942,
      "Ġsentence": 6943,
      "ĠPakistan": 6944,
      "Ġturtle": 6945,
      "Ãº": 6946,
      "Ġbrings": 6947,
      "rative": 6948,
      "Ġstiff": 6949,
      "Ġaudience": 6950,
      "Ġproposed": 6951,
      "cest": 6952,
      "60": 6953,
      "ĠDomin": 6954,
      "Ġcolon": 6955,
      "Ġtoilet": 6956,
      "Ġbegins": 6957,
      "Ġdisappear": 6958,
      "Ġsuffering": 6959,
      "erg": 6960,
      "Ġsequ": 6961,
      "Ġath": 6962,
      "ĠWales": 6963,
      "ĠPenn": 6964,
      "Ġpillow": 6965,
      "ridge": 6966,
      "ivered": 6967,
      "Ġissues": 6968,
      "Ġhesit": 6969,
      "Ġrejo": 6970,
      "ĠBus": 6971,
      "ĠLove": 6972,
      "ĠLisa": 6973,
      "Ġphotograph": 6974,
      "ĠRom": 6975,
      "Ġswall": 6976,
      "Ġhanded": 6977,
      "Ġresponse": 6978,
      "Ġrequest": 6979,
      "Ġfailure": 6980,
      "Ġcommission": 6981,
      "Ġros": 6982,
      "ĠGirl": 6983,
      "Ġprime": 6984,
      "Ġballs": 6985,
      "Ġtrave": 6986,
      "198": 6987,
      "Ġfork": 6988,
      "Ġteachers": 6989,
      "Ġthirteen": 6990,
      "ĠEs": 6991,
      "ĠCharl": 6992,
      "Ġcage": 6993,
      "umbled": 6994,
      "Ġanch": 6995,
      "Ġsubs": 6996,
      "opl": 6997,
      "Ġcontroll": 6998,
      "Ġmuseum": 6999,
      "Ġspaghetti": 7000,
      "Ġrestaurant": 7001,
      "ĠAssociation": 7002,
      "Ġoven": 7003,
      "Ġruss": 7004,
      "ĠRad": 7005,
      "Ġeffects": 7006,
      "Ġputs": 7007,
      "ĠFe": 7008,
      "Ġadmitted": 7009,
      "Ġresponsibility": 7010,
      "iped": 7011,
      "Ġsticks": 7012,
      "Ġwreck": 7013,
      "Ġ1950": 7014,
      "Ġsucceeded": 7015,
      "Ġutter": 7016,
      "Ġfrag": 7017,
      "Ġsailor": 7018,
      "Ġseized": 7019,
      "Ġcanoe": 7020,
      "ĠBook": 7021,
      "Ġfever": 7022,
      "imp": 7023,
      "Ch": 7024,
      "oard": 7025,
      "ĠTuesday": 7026,
      "Ġability": 7027,
      "aka": 7028,
      "Ġdepends": 7029,
      "icide": 7030,
      "ĠWednesday": 7031,
      "Ġcompleted": 7032,
      "Ġbushes": 7033,
      "Ġambulance": 7034,
      "Ġreward": 7035,
      "ENT": 7036,
      "rah": 7037,
      "Ġexhib": 7038,
      "inois": 7039,
      "Ġnoisy": 7040,
      "ĠRoad": 7041,
      "Ġfiction": 7042,
      "Ġworkers": 7043,
      "Ġenglish": 7044,
      "Ġugh": 7045,
      "Ġlif": 7046,
      "Ġhipp": 7047,
      "Ġbug": 7048,
      "tes": 7049,
      "erous": 7050,
      "umes": 7051,
      "ĠBrook": 7052,
      "foot": 7053,
      "Ġsco": 7054,
      "erable": 7055,
      "Ġinse": 7056,
      "ĠAld": 7057,
      "onsense": 7058,
      "Ġinterp": 7059,
      "ĠSecond": 7060,
      "ĠFair": 7061,
      "ĠUK": 7062,
      "Ġwarri": 7063,
      "ĠThursday": 7064,
      "Ġslipp": 7065,
      "ĠDisney": 7066,
      "Ġroute": 7067,
      "ĠJac": 7068,
      "Ġbuttons": 7069,
      "ĠSid": 7070,
      "Ġdolls": 7071,
      "ties": 7072,
      "aria": 7073,
      "aman": 7074,
      "ĠFif": 7075,
      "Ġpurcha": 7076,
      "Ar": 7077,
      "ulate": 7078,
      "ĠStar": 7079,
      "Ġtrucks": 7080,
      "Ġshouting": 7081,
      "Ġcheeks": 7082,
      "ST": 7083,
      "Ġbuzz": 7084,
      "ĠYoung": 7085,
      "Ġconsult": 7086,
      "ĠSweden": 7087,
      "orted": 7088,
      "Ġsergeant": 7089,
      "ĠBrad": 7090,
      "Ġrhy": 7091,
      "Ġrude": 7092,
      "Ġplates": 7093,
      "ĠNetherlands": 7094,
      "Ġcups": 7095,
      "ĠBrian": 7096,
      "ĠJon": 7097,
      "Ġexped": 7098,
      "Ġfinan": 7099,
      "Ġoccupied": 7100,
      "ĠMars": 7101,
      "cia": 7102,
      "ĠStone": 7103,
      "Ġhers": 7104,
      "Ġcreatures": 7105,
      "Ah": 7106,
      "ulated": 7107,
      "Ġadvanced": 7108,
      "Ġpengu": 7109,
      "Ġfalse": 7110,
      "Ġminor": 7111,
      "Ġstruggle": 7112,
      "ĠTa": 7113,
      "atherine": 7114,
      "Ġstudies": 7115,
      "ĠPortug": 7116,
      "Ġpassion": 7117,
      "sex": 7118,
      "Ġgrandpa": 7119,
      "Ġuniform": 7120,
      "Ġhut": 7121,
      "Ġstolen": 7122,
      "ĠLar": 7123,
      "Ġ1984": 7124,
      "Ġlt": 7125,
      "ĠAustria": 7126,
      "IV": 7127,
      "why": 7128,
      "Ġali": 7129,
      "Ġaband": 7130,
      "Ġtempt": 7131,
      "ĠJimmy": 7132,
      "Ġshelter": 7133,
      "ĠBro": 7134,
      "Ġschol": 7135,
      "aid": 7136,
      "Ġexha": 7137,
      "Ġbackwards": 7138,
      "Ġadvert": 7139,
      "arrass": 7140,
      "Ġlanding": 7141,
      "Ġprepare": 7142,
      "Ġaboard": 7143,
      "Ġinstance": 7144,
      "Ġjer": 7145,
      "ĠWould": 7146,
      "Ġsteel": 7147,
      "Ġexplan": 7148,
      "Ġsuffer": 7149,
      "writer": 7150,
      "Ġrifle": 7151,
      "Ġdavid": 7152,
      "ĠAlf": 7153,
      "rene": 7154,
      "Ġsurrounded": 7155,
      "Ġaltern": 7156,
      "Ġloving": 7157,
      "Ġslaves": 7158,
      "hemat": 7159,
      "mont": 7160,
      "non": 7161,
      "ĠUnder": 7162,
      "Ġsecretary": 7163,
      "Ġaffairs": 7164,
      "orious": 7165,
      "stead": 7166,
      "Ġcharlie": 7167,
      "Ġamerica": 7168,
      "ĠGet": 7169,
      "Ġfinds": 7170,
      "ĠFaith": 7171,
      "ĠVirginia": 7172,
      "Ġstup": 7173,
      "Ġpitch": 7174,
      "rog": 7175,
      "ckey": 7176,
      "Ġnah": 7177,
      "Ġgirlfriend": 7178,
      "rich": 7179,
      "Ġmary": 7180,
      "Ã¡n": 7181,
      "Amer": 7182,
      "irk": 7183,
      "ĠJeannine": 7184,
      "22": 7185,
      "hara": 7186,
      "Ġnut": 7187,
      "ĠSel": 7188,
      "izes": 7189,
      "Ġdyn": 7190,
      "Ġmurm": 7191,
      "Ġembarrass": 7192,
      "acific": 7193,
      "Ġmystery": 7194,
      "ĠMister": 7195,
      "hmm": 7196,
      "ĠSecretary": 7197,
      "Ġapplic": 7198,
      "Ġinstit": 7199,
      "chair": 7200,
      "Ġequip": 7201,
      "Ġcock": 7202,
      "Ġcereal": 7203,
      "orse": 7204,
      "Ġpointing": 7205,
      "etts": 7206,
      "ĠWay": 7207,
      "Ġshark": 7208,
      "Ġinhabitants": 7209,
      "Ġmayor": 7210,
      "Ġtoss": 7211,
      "iments": 7212,
      "Ġkiller": 7213,
      "Ġreturning": 7214,
      "which": 7215,
      "Ġpirate": 7216,
      "ighed": 7217,
      "ĠKitty": 7218,
      "Ġroads": 7219,
      "Ġpaul": 7220,
      "Ġnaturally": 7221,
      "Ġpeak": 7222,
      "Ġhal": 7223,
      "iches": 7224,
      "ali": 7225,
      "ĠMatthew": 7226,
      "ĠMickey": 7227,
      "Ġhealthy": 7228,
      "Ġsettlement": 7229,
      "ĠRem": 7230,
      "Ġsafely": 7231,
      "oln": 7232,
      "Ġgim": 7233,
      "iders": 7234,
      "Ġjar": 7235,
      "ĠLucy": 7236,
      "Ġvalu": 7237,
      "ĠBelg": 7238,
      "ĠKim": 7239,
      "Ġbegun": 7240,
      "Ġexpecting": 7241,
      "Ġelev": 7242,
      "Ġbasketball": 7243,
      "Ġpersons": 7244,
      "ĠSylvia": 7245,
      "Ġhelic": 7246,
      "Ġdrift": 7247,
      "Ġchecked": 7248,
      "ĠJulia": 7249,
      "elet": 7250,
      "Ġefforts": 7251,
      "Ġromantic": 7252,
      "ĠLu": 7253,
      "Ġcauses": 7254,
      "zo": 7255,
      "ague": 7256,
      "Ġreality": 7257,
      "Ġtowel": 7258,
      "Ġrug": 7259,
      "Ġlemon": 7260,
      "uzz": 7261,
      "Ġuniverse": 7262,
      "Ġsales": 7263,
      "Ġprincipal": 7264,
      "Ġbalance": 7265,
      "Ġplatform": 7266,
      "ĠMolly": 7267,
      "Ġboot": 7268,
      "Ġquant": 7269,
      "Ġ185": 7270,
      "ĠSteve": 7271,
      "ĠMusic": 7272,
      "Calais": 7273,
      "Ġing": 7274,
      "Ġgee": 7275,
      "ĠMarie": 7276,
      "Ġblew": 7277,
      "athan": 7278,
      "Ġbeds": 7279,
      "ĠIllinois": 7280,
      "Ġuncom": 7281,
      "ĠRab": 7282,
      "Ġincident": 7283,
      "Ġ1972": 7284,
      "yard": 7285,
      "ĠPhilip": 7286,
      "ĠHung": 7287,
      "ĠAndrew": 7288,
      "Ġ1987": 7289,
      "Ġcomplain": 7290,
      "rated": 7291,
      "Ġpowder": 7292,
      "Ġsquad": 7293,
      "uties": 7294,
      "iring": 7295,
      "Ġmerely": 7296,
      "Ġconclud": 7297,
      "ĠAsia": 7298,
      "Ġrelative": 7299,
      "Ġdollar": 7300,
      "ĠXV": 7301,
      "Ġrevolution": 7302,
      "Ġcitizens": 7303,
      "Ġfactory": 7304,
      "Ġarchite": 7305,
      "ĠBad": 7306,
      "Ġnodd": 7307,
      "Ġnominated": 7308,
      "boat": 7309,
      "Ġstopping": 7310,
      "ĠBes": 7311,
      "Ġhockey": 7312,
      "aska": 7313,
      "ĠSud": 7314,
      "ĠThose": 7315,
      "Ġ1986": 7316,
      "Ġcakes": 7317,
      "Ġsymbol": 7318,
      "uing": 7319,
      "Ġlaughter": 7320,
      "Ġpossession": 7321,
      "Ġengines": 7322,
      "Ġwithd": 7323,
      "ĠMargaret": 7324,
      "urd": 7325,
      "Ġquarters": 7326,
      "opes": 7327,
      "Ġcontains": 7328,
      "Ġneighborhood": 7329,
      "wan": 7330,
      "Ġdistinct": 7331,
      "Ġconfirmed": 7332,
      "Ġnodded": 7333,
      "Ġtropical": 7334,
      "Ġded": 7335,
      "nat": 7336,
      "Ġweb": 7337,
      "ĠTre": 7338,
      "Ġsleepy": 7339,
      "gas": 7340,
      "ĠPot": 7341,
      "Ġflour": 7342,
      "Ġdescribe": 7343,
      "Ġconnection": 7344,
      "Ġfare": 7345,
      "Ġelement": 7346,
      "Ġoop": 7347,
      "Ġcord": 7348,
      "Ġheaded": 7349,
      "ĠIran": 7350,
      "Ġresour": 7351,
      "Ġservants": 7352,
      "Ġdrum": 7353,
      "ylvan": 7354,
      "Ġlocation": 7355,
      "Ġgrateful": 7356,
      "Ġreports": 7357,
      "Ġsenior": 7358,
      "ĠSix": 7359,
      "Ġappeal": 7360,
      "Ġ35": 7361,
      "Ġconscious": 7362,
      "pot": 7363,
      "Ġpier": 7364,
      "ript": 7365,
      "To": 7366,
      "Ġwishes": 7367,
      "Ġtools": 7368,
      "Ġbullet": 7369,
      "Ġcouch": 7370,
      "hens": 7371,
      "Ġpersu": 7372,
      "Ġgoals": 7373,
      "Ġsauce": 7374,
      "heim": 7375,
      "uls": 7376,
      "achus": 7377,
      "Ġdomin": 7378,
      "Ġsche": 7379,
      "Ġchairman": 7380,
      "Ġblowing": 7381,
      "VID": 7382,
      "Ġancest": 7383,
      "Ġconsiderable": 7384,
      "happy": 7385,
      "ĠLast": 7386,
      "Ġtechnology": 7387,
      "ricane": 7388,
      "mers": 7389,
      "Ġaffection": 7390,
      "Ġenthus": 7391,
      "ĠMissouri": 7392,
      "Ġcalcul": 7393,
      "Ġfits": 7394,
      "Ġvain": 7395,
      "Ġsexual": 7396,
      "Ġobliged": 7397,
      "agon": 7398,
      "197": 7399,
      "Ġvisited": 7400,
      "inated": 7401,
      "ĠEv": 7402,
      "Ġroar": 7403,
      "Ġdough": 7404,
      "Ġbol": 7405,
      "enes": 7406,
      "Ġkim": 7407,
      "ĠMike": 7408,
      "ĠArk": 7409,
      "Ġtribe": 7410,
      "Ġbroadcast": 7411,
      "Ġmister": 7412,
      "ĠGina": 7413,
      "Ġvast": 7414,
      "Ġens": 7415,
      "Ġchess": 7416,
      "ologist": 7417,
      "obile": 7418,
      "ĠEst": 7419,
      "incoln": 7420,
      "ĶĢ": 7421,
      "Ġcrocodile": 7422,
      "----": 7423,
      "Ġinquired": 7424,
      "ĠPostman": 7425,
      "ieur": 7426,
      "ĠAuntie": 7427,
      "Ġdreadful": 7428,
      "Ġexperiment": 7429,
      "Per": 7430,
      "Ġanger": 7431,
      "Ġtrap": 7432,
      "keys": 7433,
      "rim": 7434,
      "Ġcough": 7435,
      "Ġteen": 7436,
      "Ġrelie": 7437,
      "Ġ1981": 7438,
      "oes": 7439,
      "Ġassistant": 7440,
      "ĠâĶĢ": 7441,
      "Ġages": 7442,
      "Ġmistress": 7443,
      "Ġcottage": 7444,
      "ublican": 7445,
      "rough": 7446,
      "ĠIllustr": 7447,
      "Ġrivers": 7448,
      "OT": 7449,
      "Ġframe": 7450,
      "ocr": 7451,
      "Ġheadquarters": 7452,
      "ndon": 7453,
      "aron": 7454,
      "inder": 7455,
      "Ġunits": 7456,
      "ĠWindows": 7457,
      "Ġacted": 7458,
      "Ġtraditional": 7459,
      "ĠWalter": 7460,
      "Ġbees": 7461,
      "ĠImp": 7462,
      "ĠMen": 7463,
      "Ġmoves": 7464,
      "Ġcleaning": 7465,
      "Ġbubbles": 7466,
      "Ġsale": 7467,
      "Ġcontribut": 7468,
      "iven": 7469,
      "Ġseas": 7470,
      "Ġtidy": 7471,
      "Ġwherever": 7472,
      "Ġpressed": 7473,
      "Ġloo": 7474,
      "ĠProfessor": 7475,
      "rets": 7476,
      "Ġcompared": 7477,
      "Ġpup": 7478,
      "Ġcosts": 7479,
      "Ġbenefit": 7480,
      "Ġintend": 7481,
      "Ġdistributed": 7482,
      "ĠNick": 7483,
      "Ġbillion": 7484,
      "hants": 7485,
      "Ġnicely": 7486,
      "Ġsalad": 7487,
      "ĠMu": 7488,
      "ĠConf": 7489,
      "Ġwww": 7490,
      "ĠBud": 7491,
      "Ġoy": 7492,
      "lease": 7493,
      "Ġcharming": 7494,
      "Ġarticle": 7495,
      "itcher": 7496,
      "Ġvolume": 7497,
      "Ġequipment": 7498,
      "unched": 7499,
      "Ġapproached": 7500,
      "Ġvoy": 7501,
      "Ġconfl": 7502,
      "ylvania": 7503,
      "Ġbrick": 7504,
      "Ġtony": 7505,
      "rels": 7506,
      "Ġemotion": 7507,
      "ĠFootball": 7508,
      "Ġgorge": 7509,
      "ĠBat": 7510,
      "ĠKent": 7511,
      "Ġgreet": 7512,
      "Ġtemple": 7513,
      "ĠCompany": 7514,
      "ufact": 7515,
      "iffe": 7516,
      "achusetts": 7517,
      "Ġdisappointed": 7518,
      "Ġsupported": 7519,
      "Ġopt": 7520,
      "Ġobjects": 7521,
      "Ġstroke": 7522,
      "Ġsoil": 7523,
      "ĠDer": 7524,
      "Ġholds": 7525,
      "Ġfireman": 7526,
      "ĠDou": 7527,
      "Ġconcert": 7528,
      "ĠSusan": 7529,
      "IR": 7530,
      "Ġga": 7531,
      "Ġcarpet": 7532,
      "Ġmanagement": 7533,
      "Ġrichard": 7534,
      "wide": 7535,
      "Ġtab": 7536,
      "Ġflu": 7537,
      "Ġpole": 7538,
      "ocks": 7539,
      "ĠWinter": 7540,
      "pers": 7541,
      "Ġmanufact": 7542,
      "Ġshaking": 7543,
      "Ġaust": 7544,
      "Ġdea": 7545,
      "Ġ1976": 7546,
      "Ġearned": 7547,
      "Ġbetray": 7548,
      "Ġrust": 7549,
      "Ġclient": 7550,
      "Ġtremb": 7551,
      "unte": 7552,
      "ĠAlso": 7553,
      "Ġ1979": 7554,
      "Ġmajority": 7555,
      "Ġinjured": 7556,
      "Ġpartly": 7557,
      "Ġmidnight": 7558,
      "Ġglanced": 7559,
      "Ġfurniture": 7560,
      "ares": 7561,
      "ĠWinnie": 7562,
      "Ġwhoever": 7563,
      "ĠCOVID": 7564,
      "icycle": 7565,
      "ĠBell": 7566,
      "Ġmos": 7567,
      "ĠMod": 7568,
      "ĠJackson": 7569,
      "Ġ/": 7570,
      "Ġwinner": 7571,
      "ĠChristopher": 7572,
      "Ġcapture": 7573,
      "ĠOxford": 7574,
      "Ġstamp": 7575,
      "ament": 7576,
      "umble": 7577,
      "phy": 7578,
      "ĠCareer": 7579,
      "Ġlamp": 7580,
      "Ġapproaching": 7581,
      "Ġugly": 7582,
      "irts": 7583,
      "Ġstable": 7584,
      "Ġsheet": 7585,
      "zing": 7586,
      "Ġbord": 7587,
      "ĠHy": 7588,
      "ilst": 7589,
      "Ġimportance": 7590,
      "vention": 7591,
      "Ġconfused": 7592,
      "Ġ80": 7593,
      "ĠCarolina": 7594,
      "ĠHas": 7595,
      "Ġamongst": 7596,
      "ĠLouise": 7597,
      "Ġbudget": 7598,
      "mony": 7599,
      "ĠCross": 7600,
      "ĠEastern": 7601,
      "Ġretire": 7602,
      "Ġsched": 7603,
      "ĠCur": 7604,
      "Ġspy": 7605,
      "estic": 7606,
      "Ġlets": 7607,
      "ivity": 7608,
      "door": 7609,
      "Ġclasses": 7610,
      "Ġclothing": 7611,
      "Ġconcl": 7612,
      "Ġdrag": 7613,
      "Ġdesperate": 7614,
      "ĠBor": 7615,
      "ifts": 7616,
      "ĠPrincess": 7617,
      "new": 7618,
      "lessly": 7619,
      "Ġfigured": 7620,
      "Ġfer": 7621,
      "Ġfasc": 7622,
      "Ġtalks": 7623,
      "ighs": 7624,
      "Ġseasons": 7625,
      "Ġscra": 7626,
      "Ġumbre": 7627,
      "ĠColumb": 7628,
      "Go": 7629,
      "Ġrig": 7630,
      "ĠAbe": 7631,
      "Ġ1985": 7632,
      "ĠMartine": 7633,
      "Ġdegrees": 7634,
      "Ġterritory": 7635,
      "Ġrev": 7636,
      "Ġpron": 7637,
      "rr": 7638,
      "iro": 7639,
      "mate": 7640,
      "mosp": 7641,
      "Ġdull": 7642,
      "Ġgle": 7643,
      "Ġattached": 7644,
      "ĠConst": 7645,
      "Are": 7646,
      "Ġsausage": 7647,
      "Ġbackground": 7648,
      "Ġinches": 7649,
      "Ġestate": 7650,
      "Ġimage": 7651,
      "Ġunderstanding": 7652,
      "ĠWilliams": 7653,
      "onscious": 7654,
      "Ġretreat": 7655,
      "Ġtrained": 7656,
      "ĠWarren": 7657,
      "volution": 7658,
      "Ġnowhere": 7659,
      "aughters": 7660,
      "ĠAlright": 7661,
      "Ġnoted": 7662,
      "uddle": 7663,
      "Ġcommonly": 7664,
      "Ġactivity": 7665,
      "ĠPhilipp": 7666,
      "Ġstores": 7667,
      "pri": 7668,
      "ĠThus": 7669,
      "Ġboyfriend": 7670,
      "Ġattended": 7671,
      "Ġ32": 7672,
      "keeper": 7673,
      "ĠShar": 7674,
      "ĠDuke": 7675,
      "Ġwhistle": 7676,
      "Ġrac": 7677,
      "Ġchamber": 7678,
      "Ġscored": 7679,
      "master": 7680,
      "Ġbiscuits": 7681,
      "nda": 7682,
      "Ġdirt": 7683,
      "ĠUk": 7684,
      "Ġcrab": 7685,
      "Ġdefeated": 7686,
      "Ġwicked": 7687,
      "Ġsplash": 7688,
      "uals": 7689,
      "Ġshy": 7690,
      "eline": 7691,
      "Ġlands": 7692,
      "Ġprayer": 7693,
      "Ġdey": 7694,
      "apping": 7695,
      "Ġauthorities": 7696,
      "pro": 7697,
      "Ġaircraft": 7698,
      "inky": 7699,
      "Ġcolored": 7700,
      "Ġeth": 7701,
      "isse": 7702,
      "Ġfuneral": 7703,
      "Ġbreathe": 7704,
      "ĠPan": 7705,
      "Ġincome": 7706,
      "Ġbaba": 7707,
      "Ġserving": 7708,
      "Ġee": 7709,
      "Look": 7710,
      "Ġmercy": 7711,
      "ĠDaniel": 7712,
      "allas": 7713,
      "Ġarrival": 7714,
      "Ġhydro": 7715,
      "Ġstations": 7716,
      "Ġmagnet": 7717,
      "Ġstretched": 7718,
      "Can": 7719,
      "Ġmeow": 7720,
      "ika": 7721,
      "Ġ1983": 7722,
      "Ġtradition": 7723,
      "Ġzero": 7724,
      "Ġconfident": 7725,
      "Ġdevil": 7726,
      "Ġnearest": 7727,
      "ario": 7728,
      "ĠBang": 7729,
      "Ġprompt": 7730,
      "Ġringing": 7731,
      "Ġtickets": 7732,
      "Ġseparated": 7733,
      "Ġsought": 7734,
      "Ġrag": 7735,
      "Ġstove": 7736,
      "ĠGree": 7737,
      "Ġcommitted": 7738,
      "Ġlabor": 7739,
      "Ġay": 7740,
      "Ġwrit": 7741,
      "Ġminds": 7742,
      "Ġviolence": 7743,
      "omi": 7744,
      "odd": 7745,
      "Ġmurdered": 7746,
      "ĠFam": 7747,
      "Ġvig": 7748,
      "icing": 7749,
      "four": 7750,
      "Ġdrinks": 7751,
      "ĠBull": 7752,
      "ĠPier": 7753,
      "ropol": 7754,
      "Ġeconomic": 7755,
      "Ġlemme": 7756,
      "ĠSouthern": 7757,
      "Ġseeds": 7758,
      "Ġcovers": 7759,
      "bby": 7760,
      "Ġpeep": 7761,
      "ĠClare": 7762,
      "Ġpolitics": 7763,
      "anas": 7764,
      "ceived": 7765,
      "Ġhorror": 7766,
      "Ġbucket": 7767,
      "Ġvacation": 7768,
      "American": 7769,
      "ĠOff": 7770,
      "ube": 7771,
      "upon": 7772,
      "Ġtempor": 7773,
      "Ġadventures": 7774,
      "Ġelectr": 7775,
      "ĠRobin": 7776,
      "Ġcattle": 7777,
      "ĠHea": 7778,
      "Ġloyal": 7779,
      "Ġfederal": 7780,
      "Ġanal": 7781,
      "Ġcricket": 7782,
      "Ġacid": 7783,
      "aud": 7784,
      "Ġrocket": 7785,
      "Ġscientists": 7786,
      "Ġawarded": 7787,
      "bridge": 7788,
      "had": 7789,
      "Ġvariety": 7790,
      "resp": 7791,
      "agement": 7792,
      "Ġrepresented": 7793,
      "Ġinsurance": 7794,
      "ĠSenate": 7795,
      "Ġsixth": 7796,
      "Ġelephants": 7797,
      "Ġreferred": 7798,
      "din": 7799,
      "haw": 7800,
      "Ġsatisfaction": 7801,
      "ught": 7802,
      "ograp": 7803,
      "Ġalongside": 7804,
      "Ġillness": 7805,
      "Ġjungle": 7806,
      "pent": 7807,
      "ĠWhe": 7808,
      "Ġofficially": 7809,
      "bb": 7810,
      "Ġscale": 7811,
      "Ġprogramme": 7812,
      "ĠTurk": 7813,
      "Ġcupboard": 7814,
      "Ġ90": 7815,
      "Ġpist": 7816,
      "ĠPart": 7817,
      "Ġwanting": 7818,
      "Ġcorpor": 7819,
      "ĠCommittee": 7820,
      "Ġchampion": 7821,
      "ĠMich": 7822,
      "ĠPict": 7823,
      "Ġheavily": 7824,
      "alie": 7825,
      "Ġdistingu": 7826,
      "sylvania": 7827,
      "Ġvirt": 7828,
      "Ġtroubles": 7829,
      "ĠTri": 7830,
      "Ġrecommend": 7831,
      "UR": 7832,
      "Ġnort": 7833,
      "ĠBarbara": 7834,
      "ĠDun": 7835,
      "Ġcompar": 7836,
      "ĠChairman": 7837,
      "when": 7838,
      "Ġopera": 7839,
      "Ġatmosp": 7840,
      "ĠRam": 7841,
      "onsieur": 7842,
      "Ġachieve": 7843,
      "inkle": 7844,
      "ĠAsian": 7845,
      "Ġexchange": 7846,
      "Ġding": 7847,
      "Ġwebs": 7848,
      "Ġclay": 7849,
      "Ġfinancial": 7850,
      "Ġpreviously": 7851,
      "Ġvolunte": 7852,
      "Ġvessels": 7853,
      "gment": 7854,
      "Ġ1982": 7855,
      "dog": 7856,
      "owa": 7857,
      "Ġthrone": 7858,
      "pected": 7859,
      "Ġvaluable": 7860,
      "As": 7861,
      "ders": 7862,
      "Ġbelonged": 7863,
      "Ġbore": 7864,
      "also": 7865,
      "Ġstrict": 7866,
      "Ġaccompan": 7867,
      "Ġthirsty": 7868,
      "aylor": 7869,
      "Ġceremony": 7870,
      "Ġseal": 7871,
      "eme": 7872,
      "Ġdressing": 7873,
      "Ġelectron": 7874,
      "Ġtissue": 7875,
      "imum": 7876,
      "adel": 7877,
      "Ġlover": 7878,
      "intend": 7879,
      "Ġstarring": 7880,
      "Ġremaining": 7881,
      "Ġresponded": 7882,
      "Ġsolemn": 7883,
      "verse": 7884,
      "Ġgrat": 7885,
      "ĠMassachusetts": 7886,
      "aning": 7887,
      "Ġpartners": 7888,
      "Ġcapable": 7889,
      "Ġbasic": 7890,
      "ĠCwww": 7891,
      "ammy": 7892,
      "Ġfeast": 7893,
      "Ġartists": 7894,
      "ĠMcC": 7895,
      "Ġdiscovery": 7896,
      "Ġsurvive": 7897,
      "Ġfocus": 7898,
      "Ġfoolish": 7899,
      "Ġbattery": 7900,
      "-\"": 7901,
      "Ġshan": 7902,
      "Ġconference": 7903,
      "ilder": 7904,
      "culiar": 7905,
      "Ã´": 7906,
      "Ġsung": 7907,
      "Ġhonestly": 7908,
      "ĠGeorgia": 7909,
      "mel": 7910,
      "Ġ{": 7911,
      "ormed": 7912,
      "ĠWall": 7913,
      "Ġchew": 7914,
      "ĠTommy": 7915,
      "acious": 7916,
      "Ġ1974": 7917,
      "ĠAnnie": 7918,
      "Ġillustr": 7919,
      "Ġinsect": 7920,
      "ras": 7921,
      "ĠSur": 7922,
      "Ġconvin": 7923,
      "EL": 7924,
      "je": 7925,
      "Ġprospect": 7926,
      "ĠAtlantic": 7927,
      "Ġthoroughly": 7928,
      "ophy": 7929,
      "nold": 7930,
      "Ġunex": 7931,
      "'...": 7932,
      "ĠArmen": 7933,
      "Ġpunishment": 7934,
      "ĠHead": 7935,
      "Ġcoco": 7936,
      "Ġmathemat": 7937,
      "Ġstrawberries": 7938,
      "Ġvehicle": 7939,
      "Ġcigaret": 7940,
      "UN": 7941,
      "itable": 7942,
      "Ġashore": 7943,
      "Ġfeathers": 7944,
      "Ġscheme": 7945,
      "ĠStory": 7946,
      "ĠTO": 7947,
      "ĠNord": 7948,
      "Ġchip": 7949,
      "Ġimpress": 7950,
      "Ġgimme": 7951,
      "orial": 7952,
      "ĠSally": 7953,
      "Ġfled": 7954,
      "Ġconstant": 7955,
      "ĠPercy": 7956,
      "po": 7957,
      "Ġnonsense": 7958,
      "Ġâľ": 7959,
      "mun": 7960,
      "pen": 7961,
      "Ġbann": 7962,
      "Ġcou": 7963,
      "Ġdefeat": 7964,
      "standing": 7965,
      "iner": 7966,
      "Ġpoll": 7967,
      "Ġdelightful": 7968,
      "ĠEllen": 7969,
      "Ġchances": 7970,
      "Ġsailing": 7971,
      "Ġhelicopter": 7972,
      "Ġvisitors": 7973,
      "IG": 7974,
      "ĠGard": 7975,
      "agle": 7976,
      "Ġcontest": 7977,
      "Ġâľ¿": 7978,
      "Ġpeculiar": 7979,
      "kyo": 7980,
      "Ġscientific": 7981,
      "Ġlaunch": 7982,
      "Ġlimited": 7983,
      "Ġtournament": 7984,
      "HL": 7985,
      "Ġkar": 7986,
      "ĠRachel": 7987,
      "ĠStud": 7988,
      "ĠIslam": 7989,
      "Ġpregnant": 7990,
      "rad": 7991,
      "Ġkings": 7992,
      "Ġcarrot": 7993,
      "Ġlegend": 7994,
      "24": 7995,
      "long": 7996,
      "Ġ1978": 7997,
      "EW": 7998,
      "Ġgrowth": 7999,
      "Ġreign": 8000,
      "Ġunhappy": 8001,
      "Ġped": 8002,
      "Ġcarbon": 8003,
      "Ġconflict": 8004,
      "utation": 8005,
      "Ġstated": 8006,
      "ĠJason": 8007,
      "Ġskill": 8008,
      "Ġpenn": 8009,
      "ĠTime": 8010,
      "empl": 8011,
      "Ġ1968": 8012,
      "Ġnegative": 8013,
      "ĠRail": 8014,
      "Ġdeeply": 8015,
      "Ġarrive": 8016,
      "ĠBra": 8017,
      "Ġstupid": 8018,
      "ĠSant": 8019,
      "ĠArch": 8020,
      "Ġdiscip": 8021,
      "Ġeconomy": 8022,
      "Ġbanks": 8023,
      "fice": 8024,
      "Ġdaughters": 8025,
      "Ġgates": 8026,
      "ĠHome": 8027,
      "aks": 8028,
      "ĠInter": 8029,
      "Ġstudying": 8030,
      "Ġprimary": 8031,
      "Ġhoo": 8032,
      "Ġalco": 8033,
      "ordan": 8034,
      "Ġcheers": 8035,
      "Ġcleared": 8036,
      "burgh": 8037,
      "ĠTele": 8038,
      "Ġcriminal": 8039,
      "Ġrepeat": 8040,
      "Just": 8041,
      "ĠBomba": 8042,
      "Ġumbrella": 8043,
      "good": 8044,
      "Ġreaction": 8045,
      "Ġstew": 8046,
      "ĠPerson": 8047,
      "Ġbrid": 8048,
      "Ġsurgery": 8049,
      "Ġ500": 8050,
      "Ġsailed": 8051,
      "Ġtu": 8052,
      "Ġlung": 8053,
      "Ġnapp": 8054,
      "Ġtremend": 8055,
      "Ġ70": 8056,
      "Ġanxiety": 8057,
      "ĠMiddle": 8058,
      "Ġhired": 8059,
      "imately": 8060,
      "Ġplot": 8061,
      "Ġanyhow": 8062,
      "inces": 8063,
      "ĠAsh": 8064,
      "Ġintense": 8065,
      "Ġfriendship": 8066,
      "Ġbasis": 8067,
      "Ġrunn": 8068,
      "urches": 8069,
      "Ġextent": 8070,
      "Ġ1977": 8071,
      "ainted": 8072,
      "Ġpitcher": 8073,
      "Ġvision": 8074,
      "Ġshortly": 8075,
      "inity": 8076,
      "Ġchin": 8077,
      "ĠKansas": 8078,
      "Ġscript": 8079,
      "ĠClass": 8080,
      "Ġspending": 8081,
      "Ġcotton": 8082,
      "ĠWork": 8083,
      "olves": 8084,
      "ĠFer": 8085,
      "ĠFive": 8086,
      "Ġune": 8087,
      "ĠGroup": 8088,
      "leton": 8089,
      "wick": 8090,
      "thony": 8091,
      "Ġcharged": 8092,
      "Ġdepth": 8093,
      "ĠColonel": 8094,
      "aa": 8095,
      "Ġwalks": 8096,
      "cription": 8097,
      "AD": 8098,
      "iable": 8099,
      "Ġfetch": 8100,
      "Ġunlike": 8101,
      "Ġmeters": 8102,
      "Ġpiggy": 8103,
      "unting": 8104,
      "Ġbron": 8105,
      "Ġgeneration": 8106,
      "Ġnatives": 8107,
      "Ġchimney": 8108,
      "eness": 8109,
      "attered": 8110,
      "Ġintention": 8111,
      "ĠCook": 8112,
      "grim": 8113,
      "Ġ1975": 8114,
      "Ġ1969": 8115,
      "corn": 8116,
      "Ġenjoying": 8117,
      "Ġturkey": 8118,
      "ĠCenter": 8119,
      "Ġoink": 8120,
      "iva": 8121,
      "Ġpolite": 8122,
      "ĠIslands": 8123,
      "Ġthrust": 8124,
      "Ġunfortunately": 8125,
      "Ġcooper": 8126,
      "utions": 8127,
      "Ġmunicipal": 8128,
      "Ġproducts": 8129,
      "ĠRegion": 8130,
      "ĠAle": 8131,
      "Ġchart": 8132,
      "Ġengineer": 8133,
      "Ġwhale": 8134,
      "Ġconvinced": 8135,
      "ĠHard": 8136,
      "Ġprem": 8137,
      "Ġexplanation": 8138,
      "ĠBC": 8139,
      "ĠValley": 8140,
      "Ġswell": 8141,
      "fire": 8142,
      "Ġguards": 8143,
      "Ġnuclear": 8144,
      "pless": 8145,
      "Ġtries": 8146,
      "Ġemperor": 8147,
      "Ġloads": 8148,
      "Ġbiscuit": 8149,
      "45": 8150,
      "Ġdining": 8151,
      "Ġcops": 8152,
      "Ġportion": 8153,
      "ĠPrize": 8154,
      "Ġere": 8155,
      "Ġundert": 8156,
      "Ġ1973": 8157,
      "ĠKorea": 8158,
      "Ġswept": 8159,
      "Ġ45": 8160,
      "Ġfantastic": 8161,
      "Ġnumerous": 8162,
      "Ġpacked": 8163,
      "Ġbeef": 8164,
      "Ġstead": 8165,
      "Ġbearing": 8166,
      "Ġyeh": 8167,
      "Ġnoon": 8168,
      "Ġshots": 8169,
      "Ġsticky": 8170,
      "Ã§": 8171,
      "Ġmc": 8172,
      "Ġremove": 8173,
      "ĠDora": 8174,
      "ĠYear": 8175,
      "Ġhopes": 8176,
      "Ġtack": 8177,
      "Ġvoc": 8178,
      "ements": 8179,
      "Ġfollows": 8180,
      "Ġcooked": 8181,
      "Ġargument": 8182,
      "ĠDire": 8183,
      "agger": 8184,
      "bal": 8185,
      "Ġfab": 8186,
      "Ġfires": 8187,
      "Ġtoe": 8188,
      "ĠTeddy": 8189,
      "ĠPennsylvania": 8190,
      "Ġtide": 8191,
      "ĠMem": 8192,
      "Ġglory": 8193,
      "ĠRepublican": 8194,
      "Ġjunior": 8195,
      "pool": 8196,
      "lying": 8197,
      "Ġlondon": 8198,
      "Ġrecovered": 8199,
      "Ġridic": 8200,
      "ĠSever": 8201,
      "Ġlevels": 8202,
      "Ġsacred": 8203,
      "cution": 8204,
      "Ġbelly": 8205,
      "ĠJr": 8206,
      "pson": 8207,
      "Ġinnit": 8208,
      "Ġelements": 8209,
      "inals": 8210,
      "ĠMir": 8211,
      "Ġcomposed": 8212,
      "ĠJohnson": 8213,
      "Ġmak": 8214,
      "ĠHoll": 8215,
      "uled": 8216,
      "ĠJun": 8217,
      "Ġconstruction": 8218,
      "Ġcongratulations": 8219,
      "ĠPacific": 8220,
      "ĠTob": 8221,
      "Ġconsist": 8222,
      "OS": 8223,
      "Ġpatients": 8224,
      "ĠDoes": 8225,
      "umbling": 8226,
      "Ġbeating": 8227,
      "ĠBank": 8228,
      "Ġadopted": 8229,
      "rily": 8230,
      "Ġsurre": 8231,
      "Ġprior": 8232,
      "Ġcheerful": 8233,
      "Ġfuel": 8234,
      "ĠUs": 8235,
      "phia": 8236,
      "ĠBelle": 8237,
      "Ġzeb": 8238,
      "Ġinsisted": 8239,
      "Ġagreement": 8240,
      "ĠAha": 8241,
      "alls": 8242,
      "Ġattacks": 8243,
      "ĠBesides": 8244,
      "ĠBible": 8245,
      "ĠPut": 8246,
      "Ġharry": 8247,
      "ĠMot": 8248,
      "Ġregions": 8249,
      "\"),": 8250,
      "dess": 8251,
      "round": 8252,
      "ĠCould": 8253,
      "Ġawfully": 8254,
      "Ġlaunched": 8255,
      "Ġinterrupted": 8256,
      "wers": 8257,
      "ĠLwww": 8258,
      "Ġexpedition": 8259,
      "Ġdign": 8260,
      "ĠLib": 8261,
      "Ġstaring": 8262,
      "Ã³n": 8263,
      "Ġmultiple": 8264,
      "Ġflow": 8265,
      "Ġilleg": 8266,
      "ĠJewish": 8267,
      "venue": 8268,
      "ĠLoire": 8269,
      "Ġstops": 8270,
      "ĠSydney": 8271,
      "Ġcanton": 8272,
      "ĠOcean": 8273,
      "Ġpossess": 8274,
      "Ġ1930": 8275,
      "Ġtort": 8276,
      "Ġregarded": 8277,
      "ĠInstitute": 8278,
      "Ġpumpkin": 8279,
      "Ġalt": 8280,
      "Ġ1971": 8281,
      "pher": 8282,
      "Ġdried": 8283,
      "ĠSuch": 8284,
      "ĠPas": 8285,
      "Ġsteep": 8286,
      "Ġpirates": 8287,
      "Ġeditor": 8288,
      "Ġprograms": 8289,
      "Ġruled": 8290,
      "Ġkindness": 8291,
      "Ġcharges": 8292,
      "Ġnearby": 8293,
      "Ġmachines": 8294,
      "Ġthreatened": 8295,
      "two": 8296,
      "ĠMichigan": 8297,
      "Ġfeared": 8298,
      "Ġginger": 8299,
      "ĠHim": 8300,
      "lets": 8301,
      "inners": 8302,
      "Ġjoint": 8303,
      "Ġinstantly": 8304,
      "Ġslee": 8305,
      "tis": 8306,
      "esc": 8307,
      "Ġsciss": 8308,
      "Ġram": 8309,
      "ĠDown": 8310,
      "Ġclosing": 8311,
      "raine": 8312,
      "igator": 8313,
      "Ġintroduce": 8314,
      "stal": 8315,
      "Ġwilln": 8316,
      "ifer": 8317,
      "theless": 8318,
      "Ġrefuse": 8319,
      "uy": 8320,
      "Ġpanc": 8321,
      "Ġdefense": 8322,
      "ĠSn": 8323,
      "ĠOri": 8324,
      "Ġcarrots": 8325,
      "Ġproceeded": 8326,
      "ĠCharlotte": 8327,
      "27": 8328,
      "will": 8329,
      "Ġbend": 8330,
      "Ġreaching": 8331,
      "ĠGal": 8332,
      "gues": 8333,
      "iev": 8334,
      "Ġfoc": 8335,
      "Ġestim": 8336,
      "Ġpropos": 8337,
      "cr": 8338,
      "ygen": 8339,
      "unts": 8340,
      "ĠOw": 8341,
      "Ġunivers": 8342,
      "Ġcrayons": 8343,
      "sa": 8344,
      "ĠLot": 8345,
      "Ġdinosaurs": 8346,
      "Ġsout": 8347,
      "ĠCra": 8348,
      "ĠWel": 8349,
      "Ġfilms": 8350,
      "ĠForm": 8351,
      "Ġassured": 8352,
      "Ġsufficient": 8353,
      "ih": 8354,
      "Ġ(,": 8355,
      "ĠLew": 8356,
      "Ġenorm": 8357,
      "ĠOlympic": 8358,
      "ĠGolden": 8359,
      "Ġvegetables": 8360,
      "ĠLieutenant": 8361,
      "case": 8362,
      "iat": 8363,
      "umm": 8364,
      "ccer": 8365,
      "Ġsticking": 8366,
      "Ġdwell": 8367,
      "Ġjolly": 8368,
      "olley": 8369,
      "Ġmadame": 8370,
      "ĠHur": 8371,
      "Ġshapes": 8372,
      "Ġvel": 8373,
      "Ġblaz": 8374,
      "Ġprec": 8375,
      "Ġcounting": 8376,
      "ĠEric": 8377,
      "ĠDepartment": 8378,
      "Ġgorgeous": 8379,
      "arn": 8380,
      "ĠSocial": 8381,
      "Ġterribly": 8382,
      "Ġsavage": 8383,
      "ushes": 8384,
      "uted": 8385,
      "ĠOk": 8386,
      "rett": 8387,
      "ova": 8388,
      "Ġmysterious": 8389,
      "cow": 8390,
      "Ġwhilst": 8391,
      "Ġsets": 8392,
      "Ġhaw": 8393,
      "ĠMuseum": 8394,
      "Ġrabbits": 8395,
      "adesh": 8396,
      "ĠJersey": 8397,
      "Ġshared": 8398,
      "Ġdaisy": 8399,
      "lan": 8400,
      "Ġbrig": 8401,
      "Ġmast": 8402,
      "Ġ1964": 8403,
      "Ġcycl": 8404,
      "Ġmuff": 8405,
      "ington": 8406,
      "acity": 8407,
      ".\"--": 8408,
      "ĠGrandad": 8409,
      "ĠRepresent": 8410,
      "Ġfeeding": 8411,
      "Ġinstrument": 8412,
      "ĠKenneth": 8413,
      "Ġperman": 8414,
      "Ġvillages": 8415,
      "Ġlan": 8416,
      "isk": 8417,
      "ĠTen": 8418,
      "iga": 8419,
      "Ġcatching": 8420,
      "ĠChilds": 8421,
      "Ġchallenge": 8422,
      "pol": 8423,
      "Ġarose": 8424,
      "erk": 8425,
      "aling": 8426,
      "ibly": 8427,
      "ĠCathy": 8428,
      "Ġecho": 8429,
      "196": 8430,
      "ourse": 8431,
      "ĠLincoln": 8432,
      "ĠSpani": 8433,
      "Ġbicycle": 8434,
      "Ġstared": 8435,
      "Ġ33": 8436,
      "Â°": 8437,
      "Ġhats": 8438,
      "Ġparish": 8439,
      "Ġexpert": 8440,
      "bors": 8441,
      "ĠLiber": 8442,
      "aph": 8443,
      "scar": 8444,
      "annah": 8445,
      "mad": 8446,
      "ulture": 8447,
      "Ġdelivered": 8448,
      "80": 8449,
      "iently": 8450,
      "ĠBeth": 8451,
      "Ġimpression": 8452,
      "Ġmillions": 8453,
      "Mr": 8454,
      "TV": 8455,
      "lar": 8456,
      "Ġlimit": 8457,
      "Ġbench": 8458,
      "Ġdies": 8459,
      "Ġuseless": 8460,
      "ĠJam": 8461,
      "Ġgum": 8462,
      "omy": 8463,
      "Ġdock": 8464,
      "Ġactivities": 8465,
      "Ġpattern": 8466,
      "inea": 8467,
      "olph": 8468,
      "hetic": 8469,
      "For": 8470,
      "Ã¦": 8471,
      "rell": 8472,
      "Ġcone": 8473,
      "Ġfuss": 8474,
      "ellow": 8475,
      "ĠTeam": 8476,
      "jan": 8477,
      "hey": 8478,
      "Ġgrief": 8479,
      "Ġbreathing": 8480,
      "ĠLabour": 8481,
      "On": 8482,
      "Ġoct": 8483,
      "force": 8484,
      "ĠDivision": 8485,
      "ĠSandy": 8486,
      "elia": 8487,
      "Ġflesh": 8488,
      "Ġcommit": 8489,
      "Ġhated": 8490,
      "Ġexception": 8491,
      "Ġ1967": 8492,
      "Ġwal": 8493,
      "Ġinvite": 8494,
      "Ġcrept": 8495,
      "ĠBattle": 8496,
      "Ġdevice": 8497,
      "Ġsacrifice": 8498,
      "Ġvon": 8499,
      "Ġdisag": 8500,
      "Ġlawn": 8501,
      "Ġinvestigation": 8502,
      "Ġincredible": 8503,
      "dri": 8504,
      "Ġstout": 8505,
      "Ġjury": 8506,
      "Ġdistricts": 8507,
      "mod": 8508,
      "Ġsou": 8509,
      "Ġattitude": 8510,
      "ĠBrazilian": 8511,
      "Ġatmosphere": 8512,
      "NA": 8513,
      "Ġbride": 8514,
      "Ġgrade": 8515,
      "ĠMaria": 8516,
      "Ġbottles": 8517,
      "Ġsteamer": 8518,
      "Ġfierce": 8519,
      "Ġpine": 8520,
      "Ġpoured": 8521,
      "ĠMatt": 8522,
      "Ġovert": 8523,
      "Ġdisaster": 8524,
      "ĠChildsname": 8525,
      "ĠHealth": 8526,
      "ĠAlbert": 8527,
      "chestra": 8528,
      "geon": 8529,
      "Ġexceed": 8530,
      "Ġwarn": 8531,
      "Ġstays": 8532,
      "Ġkidna": 8533,
      "Ġcommercial": 8534,
      "Ġmig": 8535,
      "asped": 8536,
      "Ġflies": 8537,
      "Ġdespite": 8538,
      "Ġseventeen": 8539,
      "Ġsandwiches": 8540,
      "Ġzebra": 8541,
      "sur": 8542,
      "Ġpretending": 8543,
      "Ġexistence": 8544,
      "AY": 8545,
      "Ġbass": 8546,
      "Ġfranc": 8547,
      "ĠArgent": 8548,
      "Ġmiserable": 8549,
      "Ġstretch": 8550,
      "Ġwrapped": 8551,
      "Ġq": 8552,
      "Ġopens": 8553,
      "ĠInt": 8554,
      "abor": 8555,
      "oused": 8556,
      "ĠTam": 8557,
      "arant": 8558,
      "Ġanimated": 8559,
      "mates": 8560,
      "OL": 8561,
      "Ġmi": 8562,
      "Ġsilk": 8563,
      "ĠGranddad": 8564,
      "ĠScottish": 8565,
      "Ġunexpected": 8566,
      "ĠSay": 8567,
      "ĠNext": 8568,
      "mann": 8569,
      "anges": 8570,
      "Ġsqueak": 8571,
      "Ġlux": 8572,
      "ĠGre": 8573,
      "Ġtricks": 8574,
      "Ġpaused": 8575,
      "Ġchickens": 8576,
      "Ġsnakes": 8577,
      "Ġger": 8578,
      "Ġease": 8579,
      "Ġaspect": 8580,
      "Ġpersonally": 8581,
      "Ġdescription": 8582,
      "adu": 8583,
      "alle": 8584,
      "Ġlasted": 8585,
      "Ġdirections": 8586,
      "Ġacquaint": 8587,
      "Ġaffected": 8588,
      "ĠTour": 8589,
      "ĠCub": 8590,
      "CH": 8591,
      "esome": 8592,
      "Ġouter": 8593,
      "Ġvice": 8594,
      "Ġarticles": 8595,
      "Ġcandle": 8596,
      "Ġrubber": 8597,
      "ĠAz": 8598,
      "ilton": 8599,
      "Ġtrace": 8600,
      "Ġprotest": 8601,
      "jamas": 8602,
      "inent": 8603,
      "Ġult": 8604,
      "Ġnep": 8605,
      "ĠJoy": 8606,
      "Ġclaimed": 8607,
      "Ġhom": 8608,
      "Ġexpressed": 8609,
      "Ġpossibility": 8610,
      "Ġsmoking": 8611,
      "Ġmerchant": 8612,
      "Ġabsence": 8613,
      "Ġalbums": 8614,
      "anchester": 8615,
      "Perhaps": 8616,
      "Ġgon": 8617,
      "armed": 8618,
      "Ġgenerous": 8619,
      "Ġjane": 8620,
      "Ġyourselves": 8621,
      "Ġfacts": 8622,
      "ĠPatrick": 8623,
      "Ġgloves": 8624,
      "Ġack": 8625,
      "Ġpepper": 8626,
      "Ġdisg": 8627,
      "Ġinstructions": 8628,
      "orms": 8629,
      "Ġnuts": 8630,
      "ĠNi": 8631,
      "obal": 8632,
      "Ġtommy": 8633,
      "Ġcomrades": 8634,
      "Ġmental": 8635,
      "Ġchurches": 8636,
      "ĠMadame": 8637,
      "Ġsignificant": 8638,
      "Ġdemonstr": 8639,
      "bot": 8640,
      "cript": 8641,
      "Ġassistance": 8642,
      "ĠService": 8643,
      "Ġmounted": 8644,
      "Ġanchor": 8645,
      "dam": 8646,
      "ĠMouse": 8647,
      "arts": 8648,
      "ysis": 8649,
      "Ġwinds": 8650,
      "Ġdragged": 8651,
      "lace": 8652,
      "Ġsne": 8653,
      "Ġforbid": 8654,
      "ĠSong": 8655,
      "Ġcenturies": 8656,
      "ippi": 8657,
      "Ġbeard": 8658,
      "Ġrot": 8659,
      "Ġrobert": 8660,
      "Ġtriangle": 8661,
      "ĠOrder": 8662,
      "ĠPresently": 8663,
      "Ġextraord": 8664,
      "Ġfaithful": 8665,
      "OW": 8666,
      "Ġhelpless": 8667,
      "ĠPrisc": 8668,
      "Ġtaxi": 8669,
      "Ġmas": 8670,
      "Ġjapan": 8671,
      "Ġlip": 8672,
      "Ġgrim": 8673,
      "ĠAustrian": 8674,
      "Ġdrank": 8675,
      "ĠDave": 8676,
      "Ġfeature": 8677,
      "ounced": 8678,
      "Ġrecorder": 8679,
      "ION": 8680,
      "inging": 8681,
      "ĠTem": 8682,
      "Ġextended": 8683,
      "rob": 8684,
      "ipes": 8685,
      "Ġtouching": 8686,
      "Ġviolent": 8687,
      "Ġbells": 8688,
      "35": 8689,
      "vior": 8690,
      "inem": 8691,
      "ustomed": 8692,
      "Ġwars": 8693,
      "Ġpul": 8694,
      "Ġobtain": 8695,
      "Ġgenus": 8696,
      "Ġcrowded": 8697,
      "onge": 8698,
      "ĠToday": 8699,
      "ĠTwenty": 8700,
      "Ġactions": 8701,
      "ockey": 8702,
      "Ġphoto": 8703,
      "ĠCy": 8704,
      "Ġwarned": 8705,
      "Ġseed": 8706,
      "Ġinsp": 8707,
      "Ġfestival": 8708,
      "alph": 8709,
      "ĠEur": 8710,
      "Ġ1940": 8711,
      "Ġacts": 8712,
      "Ġdeserve": 8713,
      "ĠRaymond": 8714,
      "Ġsailors": 8715,
      "ĠGot": 8716,
      "rator": 8717,
      "ĠBack": 8718,
      "Ġcharles": 8719,
      "habet": 8720,
      "eling": 8721,
      "asses": 8722,
      "Ġdraft": 8723,
      "Ġgradually": 8724,
      "Ġscout": 8725,
      "Ġconven": 8726,
      "Ġwaving": 8727,
      "Ġchildhood": 8728,
      "Ġ34": 8729,
      "ĠBrother": 8730,
      "Ġassociated": 8731,
      "ĠPriscilla": 8732,
      "Ġtables": 8733,
      "500": 8734,
      "Ġduties": 8735,
      "ĠSax": 8736,
      "ĠFrances": 8737,
      "Ġgloom": 8738,
      "Ġexplore": 8739,
      "ĠChap": 8740,
      "Ġstatus": 8741,
      "ĠMinn": 8742,
      "ĠFC": 8743,
      "ĠFord": 8744,
      "ugs": 8745,
      "Ġaccused": 8746,
      "ĠDolly": 8747,
      "ĠJess": 8748,
      "Ġbrook": 8749,
      "Ġheading": 8750,
      "Ġruin": 8751,
      "Ġmour": 8752,
      "Ġbegged": 8753,
      "ĠGro": 8754,
      "unted": 8755,
      "26": 8756,
      "Ġsometime": 8757,
      "glas": 8758,
      "Ġcrayon": 8759,
      "Ġintelligence": 8760,
      "ĠLeslie": 8761,
      "Ġthumb": 8762,
      "ĠAD": 8763,
      "Ġfee": 8764,
      "Ġparliament": 8765,
      "Ġmistaken": 8766,
      "Ġvictims": 8767,
      "ĠRecords": 8768,
      "Ġliquid": 8769,
      "Ġaliens": 8770,
      "upp": 8771,
      "vet": 8772,
      "ĠHello": 8773,
      "ifying": 8774,
      "Ġdropping": 8775,
      "Ġorganized": 8776,
      "Ġpackage": 8777,
      "Ġleather": 8778,
      "Ġmidst": 8779,
      "Ġvoyage": 8780,
      "Ġmice": 8781,
      "ĠWolf": 8782,
      "Ġobtained": 8783,
      "ĠDi": 8784,
      "Ġswung": 8785,
      "Ġbarely": 8786,
      "ĠBav": 8787,
      "Ġ1966": 8788,
      "Thank": 8789,
      "Ġwis": 8790,
      "ĠSub": 8791,
      "Ġcrossing": 8792,
      "mal": 8793,
      "Ġtales": 8794,
      "Ġbade": 8795,
      "Ġbund": 8796,
      "ĠAssembly": 8797,
      "Ġconstantly": 8798,
      "ĠAnton": 8799,
      "Ġelectricity": 8800,
      "Ġsqueeze": 8801,
      "ec": 8802,
      "ĠManchester": 8803,
      "Ġblast": 8804,
      "urg": 8805,
      "Ġalien": 8806,
      "Ġimpact": 8807,
      "Ġfacing": 8808,
      "ĠSoon": 8809,
      "Ġcoloring": 8810,
      "Ġunconscious": 8811,
      "ĠFrancisco": 8812,
      "ands": 8813,
      "Ġslice": 8814,
      "Ġdecent": 8815,
      "Ġremarkable": 8816,
      "Ġaeropl": 8817,
      "laugh": 8818,
      "Ġpuff": 8819,
      "Ġleads": 8820,
      "ĠProt": 8821,
      "Ġtremendous": 8822,
      "orney": 8823,
      "Ġlaying": 8824,
      "Ġkicked": 8825,
      "Ġtroubled": 8826,
      "mat": 8827,
      "Ġboring": 8828,
      "uma": 8829,
      "Ġnephew": 8830,
      "cont": 8831,
      "Ġsmith": 8832,
      "orous": 8833,
      "Ġorganis": 8834,
      "Ġpresidential": 8835,
      "ĠBernard": 8836,
      "Ġkilomet": 8837,
      "Ġtheatre": 8838,
      "Ġcries": 8839,
      "Ġgolf": 8840,
      "Ġsolution": 8841,
      "ded": 8842,
      "western": 8843,
      "ĠBudd": 8844,
      "Ġconcept": 8845,
      "icky": 8846,
      "issippi": 8847,
      "Ġoccasionally": 8848,
      "Ġms": 8849,
      "orus": 8850,
      "ĠEduc": 8851,
      "Ġsed": 8852,
      "Ġlane": 8853,
      "itors": 8854,
      "ĠEaster": 8855,
      "ĠVol": 8856,
      "Ġdelicate": 8857,
      "Ġinspector": 8858,
      "Ġunw": 8859,
      "Ġapplied": 8860,
      "Ġ36": 8861,
      "Ġ300": 8862,
      "denly": 8863,
      "Ġmath": 8864,
      "Ġresolved": 8865,
      "Ġawesome": 8866,
      "ĠProd": 8867,
      "ĠMuslim": 8868,
      "ĠMexican": 8869,
      "Ġtennis": 8870,
      "Ġthief": 8871,
      "ĠSnow": 8872,
      "ervative": 8873,
      "Ġdetail": 8874,
      "ĠStephen": 8875,
      "ĠBall": 8876,
      "Ã¢": 8877,
      "acles": 8878,
      "lings": 8879,
      "Ġcared": 8880,
      "ĠReally": 8881,
      "Ġsank": 8882,
      "Ġbars": 8883,
      "Ġnasty": 8884,
      "etic": 8885,
      "Ġfrequently": 8886,
      "Ġmush": 8887,
      "Ġstress": 8888,
      "ĠHay": 8889,
      "unks": 8890,
      "ĠLight": 8891,
      "Ġbatteries": 8892,
      "iac": 8893,
      "Ġsits": 8894,
      "Ġbreeze": 8895,
      "Ġempire": 8896,
      "37": 8897,
      "umph": 8898,
      "ĠPil": 8899,
      "Ġanswers": 8900,
      "Ġdigger": 8901,
      "Ġhenry": 8902,
      "âĨ": 8903,
      "Ġcopies": 8904,
      "Ġcollected": 8905,
      "Ġsympathy": 8906,
      "ĠGreg": 8907,
      "adelphia": 8908,
      "Ġpace": 8909,
      "about": 8910,
      "Ġscissors": 8911,
      "ĠNaz": 8912,
      "ĠSociety": 8913,
      "Ġholidays": 8914,
      "Äģ": 8915,
      "Ġobst": 8916,
      "ĠChampionships": 8917,
      "Ġwil": 8918,
      "Ġnorthwest": 8919,
      "uki": 8920,
      "bag": 8921,
      "Ġheap": 8922,
      "Ġjames": 8923,
      "ĠNap": 8924,
      "Ġoxygen": 8925,
      "gain": 8926,
      "Ġsuicide": 8927,
      "iley": 8928,
      "Ġstrain": 8929,
      "Ġsweets": 8930,
      "Ġrailroad": 8931,
      "ĠEmperor": 8932,
      "otic": 8933,
      "ĠMoo": 8934,
      "ĠNell": 8935,
      "Ġobvious": 8936,
      "Ġgoose": 8937,
      "itched": 8938,
      "otal": 8939,
      "leg": 8940,
      "ĠDallas": 8941,
      "ĠGeography": 8942,
      "Ġapologize": 8943,
      "EC": 8944,
      "Ã£": 8945,
      "Ġfisher": 8946,
      "irs": 8947,
      "Ġspill": 8948,
      "ĠUt": 8949,
      "Ġtribes": 8950,
      "Ġrecover": 8951,
      "Ġcandidate": 8952,
      "Ġske": 8953,
      "Ġspaces": 8954,
      "dale": 8955,
      "Ġsob": 8956,
      "inton": 8957,
      "Ġ1945": 8958,
      "away": 8959,
      "helle": 8960,
      "Ġarrow": 8961,
      "Ġbishop": 8962,
      "Ġcurios": 8963,
      "Ġgazed": 8964,
      "28": 8965,
      "dr": 8966,
      "Ġpermitted": 8967,
      "Ġdismiss": 8968,
      "Ġtune": 8969,
      "Ġfaced": 8970,
      "asant": 8971,
      "Ġcomin": 8972,
      "Ġhoriz": 8973,
      "Ġconfess": 8974,
      "Ġsticker": 8975,
      "bery": 8976,
      "gger": 8977,
      "Ġheels": 8978,
      "ĠAss": 8979,
      "ruct": 8980,
      "Ġbenef": 8981,
      "Ġrevenge": 8982,
      "ghan": 8983,
      "Ġglue": 8984,
      "Ġmusician": 8985,
      "Ġestablish": 8986,
      "ĠConfeder": 8987,
      "ef": 8988,
      "ĠDev": 8989,
      "itter": 8990,
      "Ġneighbors": 8991,
      "Ġsunny": 8992,
      "ĠTake": 8993,
      "Ġtermin": 8994,
      "Ġhistorical": 8995,
      "zes": 8996,
      "ĠJenny": 8997,
      "Ġballet": 8998,
      "Ġdefence": 8999,
      "AP": 9000,
      "Ġfiring": 9001,
      "ĠPoland": 9002,
      "Your": 9003,
      "Ġlabel": 9004,
      "hearted": 9005,
      "Ġdisturb": 9006,
      "bage": 9007,
      "Ġappropri": 9008,
      "Ġcheeky": 9009,
      "Ġindependence": 9010,
      "Ġfavourite": 9011,
      "phan": 9012,
      "Ġtag": 9013,
      "arse": 9014,
      "ettle": 9015,
      "eav": 9016,
      "Ġappointment": 9017,
      "Ġspray": 9018,
      "Ġrevealed": 9019,
      "Ġaccompanied": 9020,
      "ĠWW": 9021,
      "ĠThough": 9022,
      "ĠLeon": 9023,
      "ighty": 9024,
      "ĠFanny": 9025,
      "stitution": 9026,
      "Ġdiet": 9027,
      "ĠRol": 9028,
      "Ġmovements": 9029,
      "Ġsuggestion": 9030,
      "47": 9031,
      "only": 9032,
      "Ġunique": 9033,
      "ennes": 9034,
      "Ġmaintain": 9035,
      "Ġnewspapers": 9036,
      "Ġresources": 9037,
      "Ġkitten": 9038,
      "Ġtramp": 9039,
      "Ġphr": 9040,
      "Ġforests": 9041,
      "sar": 9042,
      "Ġgifts": 9043,
      "riet": 9044,
      "ĠNothing": 9045,
      "At": 9046,
      "erial": 9047,
      "Ġdrawer": 9048,
      "Ġbeaten": 9049,
      "chard": 9050,
      "Ġassume": 9051,
      "Ġliterally": 9052,
      "race": 9053,
      "Ġitems": 9054,
      "ogue": 9055,
      "Ġquestioned": 9056,
      "Ġabsor": 9057,
      "Ġsubjects": 9058,
      "ropolitan": 9059,
      "ĠHolly": 9060,
      "Ġworthy": 9061,
      "RI": 9062,
      "Ġfrance": 9063,
      "Ġflav": 9064,
      "arson": 9065,
      "Ġconcluded": 9066,
      "Ġdepos": 9067,
      "Ġawa": 9068,
      "Ġ1956": 9069,
      "ĠArkansas": 9070,
      "Ġawards": 9071,
      "Ġcush": 9072,
      "Ġassault": 9073,
      "ĠShow": 9074,
      "abama": 9075,
      "Ġwins": 9076,
      "ĠFel": 9077,
      "ureau": 9078,
      "Ġinvitation": 9079,
      "ĠJohnny": 9080,
      "Ġenormous": 9081,
      "atsy": 9082,
      "ĠSuddenly": 9083,
      "agne": 9084,
      "Ġroot": 9085,
      "OM": 9086,
      "gro": 9087,
      "Ġgettin": 9088,
      "Ġworship": 9089,
      "Ġending": 9090,
      "kind": 9091,
      "Ġproced": 9092,
      "Ġroots": 9093,
      "Ġchasing": 9094,
      "iko": 9095,
      "vant": 9096,
      "zed": 9097,
      "Ġnail": 9098,
      "ront": 9099,
      "Ġhollow": 9100,
      "zech": 9101,
      "pic": 9102,
      "ashes": 9103,
      "Ġmanners": 9104,
      "Ġindign": 9105,
      "Ġstrongly": 9106,
      "ĠGuy": 9107,
      "cake": 9108,
      "Ġfridge": 9109,
      "Ġreflect": 9110,
      "Ġgrounds": 9111,
      "ĠSeveral": 9112,
      "Ġsitu": 9113,
      "mic": 9114,
      "san": 9115,
      "Ġraces": 9116,
      "Ġpuppet": 9117,
      "ĠRel": 9118,
      "Ġpotty": 9119,
      "29": 9120,
      "Ġtuck": 9121,
      "ĠSure": 9122,
      "ĠVill": 9123,
      "Ġsweep": 9124,
      "Ġsympt": 9125,
      "uv": 9126,
      "Ġshift": 9127,
      "ĠNob": 9128,
      "ĠMcdon": 9129,
      "Ġexecutive": 9130,
      "wald": 9131,
      "Ġ1965": 9132,
      "Ġliterature": 9133,
      "Ġextraordinary": 9134,
      "lement": 9135,
      "Ġknight": 9136,
      "icking": 9137,
      "Ġinterfe": 9138,
      "Ġmemories": 9139,
      "ĠBerlin": 9140,
      "Ġpoetry": 9141,
      "Ġstadium": 9142,
      "Ġdiscussion": 9143,
      "osis": 9144,
      "Ġpersonality": 9145,
      "ienna": 9146,
      "Ġthread": 9147,
      "Ġrefe": 9148,
      "chi": 9149,
      "Ġcomplicated": 9150,
      "Ġliberty": 9151,
      "Ġcert": 9152,
      "Ġfid": 9153,
      "Ġvisible": 9154,
      "Ġchum": 9155,
      "Ġannounce": 9156,
      "your": 9157,
      "Ġhind": 9158,
      "olas": 9159,
      "Ġprose": 9160,
      "Ġroast": 9161,
      "Ġyoungest": 9162,
      "US": 9163,
      "Ġlaz": 9164,
      "ĠCivil": 9165,
      "Ġunp": 9166,
      "Ġmars": 9167,
      "Ġdun": 9168,
      "Ġgrows": 9169,
      "Ġdealing": 9170,
      "coming": 9171,
      "Ġscreaming": 9172,
      "ĠViet": 9173,
      "Ġlightning": 9174,
      "Ġdrops": 9175,
      "Ġanxiously": 9176,
      "Ġque": 9177,
      ",.": 9178,
      "ĠThanks": 9179,
      "ilda": 9180,
      "Ġbeings": 9181,
      "Ġweary": 9182,
      "ĠTell": 9183,
      "ĠSher": 9184,
      "andal": 9185,
      "ĠPoor": 9186,
      "ĠKath": 9187,
      "kerchief": 9188,
      "ĠGraeme": 9189,
      "ultan": 9190,
      "Ġcalend": 9191,
      "ikes": 9192,
      "Ġgrav": 9193,
      "Ġdum": 9194,
      "Ġreject": 9195,
      "Ġdram": 9196,
      "Ġalphabet": 9197,
      "Ġpand": 9198,
      "Ġsla": 9199,
      "Ġcovering": 9200,
      "ĠLawrence": 9201,
      "One": 9202,
      "nut": 9203,
      "ĠId": 9204,
      "ĠRen": 9205,
      "Ġbrit": 9206,
      "Ġbabe": 9207,
      "Ġcares": 9208,
      "Ġguarant": 9209,
      "Ġhelmet": 9210,
      "ĠHarold": 9211,
      "iry": 9212,
      "break": 9213,
      "ĠCop": 9214,
      "ĠDavis": 9215,
      "ĠGray": 9216,
      "Ġviews": 9217,
      "Ġdivorce": 9218,
      "Ġsofa": 9219,
      "oray": 9220,
      "ĠIce": 9221,
      "Ġrack": 9222,
      "Ġmothers": 9223,
      "anne": 9224,
      "akh": 9225,
      "Ġlodge": 9226,
      "Ġowners": 9227,
      "ĠRevolution": 9228,
      "Ġblessed": 9229,
      "Ġacknow": 9230,
      "Ġdashed": 9231,
      "etime": 9232,
      "ubby": 9233,
      "HER": 9234,
      "Ġprayers": 9235,
      "Ġinvented": 9236,
      "aroo": 9237,
      "ĠOhio": 9238,
      "ographer": 9239,
      "ĠScient": 9240,
      "Ġjan": 9241,
      "ĠMean": 9242,
      "ĠWilson": 9243,
      "ĠUN": 9244,
      "ubb": 9245,
      "Ġcostume": 9246,
      "Ġdebt": 9247,
      "Ġassociation": 9248,
      "Ġastron": 9249,
      "By": 9250,
      "Have": 9251,
      "bu": 9252,
      "Ġbeck": 9253,
      "ĠDuck": 9254,
      "Ġcomed": 9255,
      "Ġimpressed": 9256,
      "Ġgraph": 9257,
      "Ġmagnific": 9258,
      "Ġmobile": 9259,
      "egr": 9260,
      "Ġtastes": 9261,
      "ĠNorman": 9262,
      "ĠSeries": 9263,
      "hile": 9264,
      "itra": 9265,
      "Ġinformed": 9266,
      "Ġmaterials": 9267,
      "kward": 9268,
      "Ġhamb": 9269,
      "rond": 9270,
      "Ġloan": 9271,
      "enses": 9272,
      "ĠGrace": 9273,
      "Ġ37": 9274,
      "Ġruined": 9275,
      "Ġexperienced": 9276,
      "Bl": 9277,
      "inking": 9278,
      "Ġbeloved": 9279,
      "ĠSeven": 9280,
      "Ġbehavior": 9281,
      "Ġpha": 9282,
      "ĠBY": 9283,
      "iper": 9284,
      "Ġendeav": 9285,
      "ĠFilm": 9286,
      "ĠShah": 9287,
      "Very": 9288,
      "Ġroses": 9289,
      "ĠBarry": 9290,
      "Ġhastily": 9291,
      "Ġridiculous": 9292,
      "ĠTurn": 9293,
      "Ġloft": 9294,
      "Ġporch": 9295,
      "Ġmask": 9296,
      "Ġlun": 9297,
      "ĠSorry": 9298,
      "Ġsubur": 9299,
      "Ġcamer": 9300,
      "Ġspeaker": 9301,
      "Ġhunter": 9302,
      "inate": 9303,
      "ĠIV": 9304,
      "ĠEdna": 9305,
      "Ġentertainment": 9306,
      "Ġrod": 9307,
      "Ġhurting": 9308,
      "Ġinclined": 9309,
      "Ġshelf": 9310,
      "ĠKate": 9311,
      "Ġresting": 9312,
      "chers": 9313,
      "speak": 9314,
      "Ġlighted": 9315,
      "Ġkat": 9316,
      "Ġterrific": 9317,
      "ĠRobinson": 9318,
      "Ġchef": 9319,
      "Ġaccustomed": 9320,
      "90": 9321,
      "Ġabroad": 9322,
      "Ġsup": 9323,
      "anning": 9324,
      "Ġclubs": 9325,
      "ĠTha": 9326,
      "Ġscenes": 9327,
      "Ġii": 9328,
      "Ġbloom": 9329,
      "Ġharbor": 9330,
      "Ġpatience": 9331,
      "Ġshells": 9332,
      "Ġrainbow": 9333,
      "Ġelections": 9334,
      "Ġgenius": 9335,
      "omon": 9336,
      "Ġec": 9337,
      "Ġrein": 9338,
      "Ġlod": 9339,
      "Ġdaylight": 9340,
      "Ġindustrial": 9341,
      "colm": 9342,
      "chuck": 9343,
      "Ġedition": 9344,
      "Ġconfusion": 9345,
      "ĠZorg": 9346,
      "Ġuncomfort": 9347,
      "\";": 9348,
      "Ġdess": 9349,
      "ori": 9350,
      "Ġrage": 9351,
      "brush": 9352,
      "Ġcherry": 9353,
      "ĠLewis": 9354,
      "Ġfoss": 9355,
      "Ġknights": 9356,
      "Ġscattered": 9357,
      "Ġmonarch": 9358,
      "Ġsearching": 9359,
      "Ġprinted": 9360,
      "ĠVictoria": 9361,
      "ĠBruce": 9362,
      "fied": 9363,
      "sen": 9364,
      "Ġdow": 9365,
      "Ġhappily": 9366,
      "Ġstartled": 9367,
      "Ġreputation": 9368,
      "Ġentering": 9369,
      "Ġgranted": 9370,
      "Ġresistance": 9371,
      "Ġrome": 9372,
      "Ġratt": 9373,
      "Ġarts": 9374,
      "Ġ1963": 9375,
      "Ġoperations": 9376,
[...]
